<unk>	0
<s>	0
</s>	0
▁,	-0
▁的	-1
▁我	-2
▁不	-3
▁了	-4
▁是	-5
▁一	-6
▁你	-7
▁有	-8
▁?	-9
▁这	-10
▁好	-11
▁就	-12
▁没	-13
▁个	-14
▁还	-15
▁都	-16
▁大	-17
▁看	-18
▁吗	-19
▁啊	-20
▁可	-21
▁也	-22
▁人	-23
▁在	-24
▁那	-25
▁要	-26
▁说	-27
▁吧	-28
什么	-29
▁多	-30
▁来	-31
▁想	-32
▁1	-33
▁下	-34
▁上	-35
▁!	-36
▁小	-37
▁什么	-38
▁去	-39
▁学	-40
▁可以	-41
▁会	-42
▁到	-43
▁怎	-44
▁出	-45
▁很	-46
▁过	-47
▁怎么	-48
▁真	-49
▁能	-50
▁他	-51
▁自	-52
▁点	-53
▁2	-54
▁和	-55
▁对	-56
▁知	-57
▁给	-58
▁只	-59
▁用	-60
▁哪	-61
▁最	-62
▁老	-63
▁开	-64
▁时	-65
▁天	-66
▁买	-67
▁知道	-68
▁现	-69
▁这个	-70
▁打	-71
▁太	-72
▁求	-73
▁呢	-74
▁么	-75
▁发	-76
▁没有	-77
▁回	-78
▁问	-79
▁还是	-80
▁高	-81
▁喜	-82
▁感	-83
▁现在	-84
▁吃	-85
▁几	-86
▁女	-87
▁得	-88
▁起	-89
▁比	-90
▁喜欢	-91
▁找	-92
▁为	-93
▁新	-94
▁三	-95
▁不是	-96
▁你们	-97
▁自己	-98
▁玩	-99
▁做	-100
▁手	-101
▁3	-102
▁两	-103
▁今	-104
▁别	-105
▁分	-106
▁样	-107
▁被	-108
▁男	-109
▁长	-110
▁以	-111
▁第	-112
▁快	-113
▁谁	-114
▁年	-115
▁中	-116
▁电	-117
▁里	-118
▁无	-119
▁如	-120
▁二	-121
▁又	-122
▁我们	-123
▁5	-124
▁楼	-125
▁家	-126
▁才	-127
▁着	-128
▁把	-129
▁加	-130
▁这么	-131
▁哈	-132
▁成	-133
▁后	-134
▁但	-135
▁觉	-136
▁感觉	-137
▁图	-138
▁月	-139
▁心	-140
▁再	-141
▁爱	-142
▁生	-143
▁4	-144
▁时候	-145
▁话	-146
▁本	-147
▁钱	-148
▁进	-149
▁明	-150
▁同	-151
▁朋	-152
▁前	-153
▁朋友	-154
▁还有	-155
▁地	-156
▁等	-157
00	-158
▁觉得	-159
▁带	-160
▁事	-161
▁十	-162
▁已	-163
▁错	-164
▁跟	-165
▁也是	-166
▁让	-167
▁更	-168
▁之	-169
▁多少	-170
▁这样	-171
▁美	-172
▁啥	-173
▁她	-174
▁今天	-175
▁水	-176
▁当	-177
▁完	-178
▁请	-179
▁考	-180
▁关	-181
▁全	-182
▁行	-183
▁刚	-184
▁呀	-185
▁应	-186
▁啦	-187
▁放	-188
▁6	-189
▁工	-190
▁号	-191
▁看看	-192
▁难	-193
▁黑	-194
▁处	-195
▁嘛	-196
▁主	-197
▁换	-198
▁哦	-199
▁所	-200
▁9	-201
▁听	-202
▁出来	-203
▁车	-204
▁其	-205
▁大家	-206
▁谢	-207
▁东	-208
▁然	-209
▁应该	-210
▁四	-211
▁早	-212
▁那个	-213
▁晚	-214
▁帮	-215
▁收	-216
▁张	-217
▁已经	-218
▁正	-219
▁死	-220
▁认	-221
▁学校	-222
▁次	-223
▁问题	-224
▁就是	-225
▁直	-226
▁睡	-227
▁8	-228
▁网	-229
▁卖	-230
▁重	-231
▁白	-232
▁们	-233
▁单	-234
▁.	-235
▁专	-236
▁照	-237
▁:	-238
▁头	-239
▁差	-240
▁为什么	-241
▁哈哈	-242
▁妹	-243
▁叫	-244
▁办	-245
▁公	-246
▁干	-247
▁机	-248
▁而	-249
▁五	-250
▁不过	-251
▁谢谢	-252
▁眼	-253
▁意	-254
▁但是	-255
▁安	-256
▁因	-257
▁那么	-258
▁卡	-259
▁每	-260
▁看到	-261
▁原	-262
▁如果	-263
▁哥	-264
▁实	-265
▁花	-266
▁哪里	-267
▁算	-268
▁少	-269
▁挺	-270
▁从	-271
▁结	-272
▁路	-273
▁7	-274
▁表	-275
▁见	-276
▁可能	-277
▁因为	-278
▁各	-279
▁狗	-280
▁日	-281
▁嗯	-282
▁教	-283
▁相	-284
▁报	-285
▁文	-286
▁手机	-287
▁价	-288
▁特	-289
▁送	-290
▁名	-291
▁大神	-292
▁国	-293
▁身	-294
▁先	-295
▁拿	-296
▁不要	-297
▁时间	-298
▁、	-299
▁反	-300
▁外	-301
▁交	-302
▁试	-303
▁毕	-304
▁百	-305
▁游	-306
▁需	-307
▁万	-308
▁包	-309
▁红	-310
▁记	-311
▁好像	-312
▁超	-313
▁对象	-314
▁情	-315
▁10	-316
▁半	-317
▁儿	-318
▁不会	-319
▁理	-320
▁懂	-321
▁阿	-322
▁经	-323
▁金	-324
▁爆	-325
▁20	-326
▁告	-327
▁需要	-328
▁宝	-329
▁清	-330
▁准	-331
▁不能	-332
▁0	-333
▁所以	-334
▁一直	-335
▁周	-336
▁只是	-337
▁或	-338
▁内	-339
▁总	-340
▁信	-341
▁帅	-342
▁动	-343
▁像	-344
▁推	-345
▁好看	-346
▁面	-347
▁解	-348
▁哪个	-349
▁然后	-350
▁怕	-351
▁姐	-352
▁块	-353
▁选	-354
▁聊	-355
▁接	-356
▁神	-357
▁拍	-358
▁东西	-359
▁起来	-360
▁越	-361
▁马	-362
▁开始	-363
▁平	-364
▁变	-365
▁明天	-366
▁写	-367
▁提	-368
▁确	-369
▁连	-370
▁合	-371
▁希	-372
▁级	-373
▁入	-374
▁专业	-375
▁比较	-376
▁学姐	-377
▁其实	-378
▁贴	-379
▁版	-380
▁班	-381
▁游戏	-382
▁作	-383
▁双	-384
▁走	-385
▁住	-386
▁敢	-387
▁保	-388
▁贵	-389
▁这种	-390
▁南	-391
▁认识	-392
▁方	-393
▁联	-394
▁活	-395
▁够	-396
▁火	-397
▁强	-398
▁西	-399
▁转	-400
▁球	-401
▁希望	-402
▁王	-403
▁只有	-404
▁跑	-405
▁改	-406
▁低	-407
▁妹子	-408
▁他们	-409
▁系	-410
▁很多	-411
▁留	-412
▁以后	-413
▁喝	-414
▁脸	-415
▁配	-416
▁萌	-417
▁北	-418
▁孩	-419
▁穿	-420
▁工作	-421
▁直接	-422
▁告诉	-423
▁晚上	-424
▁装	-425
▁15	-426
▁体	-427
▁空	-428
▁这里	-429
▁咋	-430
▁12	-431
▁校	-432
▁拉	-433
▁节	-434
▁区	-435
▁八	-436
▁部	-437
▁意思	-438
▁别人	-439
▁养	-440
▁孩子	-441
▁昨	-442
▁亲	-443
▁粉	-444
▁搞	-445
▁刷	-446
▁肯	-447
▁六	-448
▁该	-449
▁店	-450
▁左	-451
▁回来	-452
▁通	-453
▁随	-454
▁套	-455
▁黄	-456
▁风	-457
▁假	-458
▁歌	-459
▁就好	-460
▁可是	-461
▁必	-462
▁师	-463
▁星	-464
▁山	-465
▁服	-466
▁条	-467
▁广	-468
▁木	-469
▁海	-470
▁基	-471
▁准备	-472
▁种	-473
▁热	-474
▁性	-475
▁毛	-476
▁子	-477
▁好多	-478
▁最近	-479
▁或者	-480
▁地方	-481
▁字	-482
▁数	-483
▁进来	-484
▁发现	-485
▁肯定	-486
▁英	-487
▁指	-488
▁深	-489
▁c	-490
▁以前	-491
▁请问	-492
▁书	-493
▁初	-494
▁七	-495
▁一定	-496
▁最后	-497
▁终	-498
▁洗	-499
▁科	-500
▁代	-501
▁世	-502
▁建	-503
▁些	-504
▁千	-505
▁战	-506
▁估	-507
▁推荐	-508
▁笑	-509
▁约	-510
▁补	-511
▁非	-512
▁老师	-513
▁只能	-514
▁16	-515
▁一般	-516
▁线	-517
▁米	-518
▁医	-519
▁位	-520
▁p	-521
▁大学	-522
▁今年	-523
▁坑	-524
▁口	-525
▁房	-526
▁便	-527
▁画	-528
▁哎	-529
▁证	-530
▁坐	-531
▁它	-532
▁排	-533
▁管	-534
▁s	-535
▁可爱	-536
▁首	-537
▁简	-538
▁估计	-539
▁其他	-540
▁支	-541
▁定	-542
▁岁	-543
▁18	-544
▁剧	-545
▁冷	-546
▁场	-547
▁整	-548
▁元	-549
▁照片	-550
▁11	-551
▁光	-552
▁b	-553
▁哒	-554
▁各位	-555
▁唱	-556
▁微	-557
▁而且	-558
▁流	-559
▁毕竟	-560
▁飞	-561
▁掉	-562
▁离	-563
▁弄	-564
▁期	-565
▁名字	-566
▁个人	-567
▁麻	-568
▁昨天	-569
▁反正	-570
▁m	-571
▁猜	-572
▁队	-573
▁青	-574
▁伤	-575
▁呵	-576
▁价格	-577
▁组	-578
▁道	-579
▁加油	-580
▁毕业	-581
▁台	-582
▁妈	-583
▁镇	-584
▁-	-585
▁听说	-586
▁慢	-587
▁破	-588
▁绝	-589
▁除	-590
▁城	-591
▁以为	-592
▁女生	-593
▁目	-594
▁鸡	-595
▁群	-596
▁i	-597
▁记得	-598
▁票	-599
▁注	-600
▁哭	-601
▁武	-602
▁九	-603
▁顺	-604
▁失	-605
▁牛	-606
▁精	-607
▁逼	-608
▁容	-609
▁门	-610
▁宿	-611
▁丑	-612
▁弟	-613
▁17	-614
▁值	-615
▁资	-616
▁复	-617
▁骗	-618
▁皮	-619
▁气	-620
▁预	-621
▁新生	-622
▁修	-623
▁想要	-624
▁终于	-625
▁忘	-626
▁退	-627
▁呵呵	-628
▁衣	-629
▁回家	-630
▁显	-631
▁过来	-632
▁远	-633
▁厉	-634
▁倒	-635
▁人家	-636
▁站	-637
▁漂	-638
▁军	-639
▁左右	-640
▁便宜	-641
▁欢	-642
▁特别	-643
▁传	-644
▁厉害	-645
▁招	-646
▁呗	-647
▁龙	-648
▁只要	-649
▁一点	-650
▁一年	-651
▁咯	-652
▁技	-653
▁Q	-654
▁挂	-655
▁陪	-656
▁同学	-657
▁抽	-658
▁与	-659
▁兄	-660
▁运	-661
▁靠	-662
▁调	-663
▁消	-664
▁虽	-665
▁这些	-666
▁无聊	-667
▁土	-668
▁读	-669
▁蓝	-670
▁声	-671
▁果	-672
▁里面	-673
▁祝	-674
▁遇	-675
▁每天	-676
▁视	-677
▁删	-678
▁学生	-679
▁你好	-680
▁居	-681
▁法	-682
▁升	-683
▁说说	-684
▁伙	-685
▁突	-686
▁世界	-687
▁集	-688
▁还在	-689
▁开心	-690
▁受	-691
▁宿舍	-692
▁介	-693
▁快乐	-694
▁w	-695
▁短	-696
▁优	-697
▁愿	-698
▁关系	-699
▁电话	-700
▁哇	-701
▁市	-702
▁胖	-703
▁回复	-704
▁根	-705
▁哥哥	-706
▁电脑	-707
▁确实	-708
▁抢	-709
▁新人	-710
▁签	-711
▁商	-712
▁任	-713
▁华	-714
▁录	-715
▁顶	-716
▁江	-717
▁讲	-718
▁漂亮	-719
▁度	-720
▁福	-721
▁虽然	-722
▁13	-723
▁抱	-724
▁并	-725
▁急	-726
▁查	-727
▁俩	-728
▁那种	-729
▁官	-730
▁品	-731
▁难道	-732
▁标	-733
▁容易	-734
▁出去	-735
▁款	-736
▁梦	-737
▁软	-738
▁也有	-739
▁小时	-740
▁30	-741
▁背	-742
▁货	-743
▁怪	-744
▁演	-745
▁天天	-746
▁友	-747
▁a	-748
▁翻	-749
▁伙伴	-750
▁情况	-751
▁更新	-752
▁201	-753
▁恩	-754
▁下来	-755
▁还要	-756
▁累	-757
▁14	-758
▁正常	-759
▁继	-760
▁一句	-761
▁未	-762
▁找到	-763
▁兄弟	-764
▁语	-765
▁追	-766
▁鬼	-767
▁设	-768
▁联系	-769
▁猫	-770
▁如何	-771
▁赶	-772
▁不行	-773
▁生活	-774
▁d	-775
▁适	-776
▁输	-777
▁到底	-778
▁段	-779
▁饭	-780
▁谈	-781
▁A	-782
▁投	-783
▁至	-784
▁练	-785
▁电影	-786
▁客	-787
▁原来	-788
▁咱	-789
▁帮忙	-790
▁吹	-791
▁故	-792
▁居然	-793
▁还能	-794
▁音	-795
▁额	-796
▁喷	-797
▁秒	-798
▁课	-799
▁太多	-800
▁衣服	-801
▁t	-802
▁香	-803
▁为了	-804
▁温	-805
▁欢迎	-806
▁压	-807
▁还好	-808
▁表示	-809
▁好久	-810
▁河	-811
▁免	-812
▁干嘛	-813
▁讨	-814
▁睡觉	-815
▁片	-816
▁淘	-817
▁领	-818
▁看着	-819
▁夜	-820
▁一些	-821
▁费	-822
▁鱼	-823
▁评	-824
▁圈	-825
▁100	-826
▁酒	-827
▁继续	-828
▁化	-829
▁何	-830
▁说话	-831
▁图片	-832
▁颜	-833
▁下午	-834
▁结果	-835
▁那些	-836
▁省	-837
▁稳	-838
▁停	-839
▁按	-840
▁力	-841
▁李	-842
▁很好	-843
▁看见	-844
▁各种	-845
▁基本	-846
▁学妹	-847
▁坏	-848
▁奇	-849
▁除了	-850
▁影	-851
▁器	-852
▁而已	-853
▁绿	-854
▁恋	-855
▁奶	-856
▁巴	-857
▁刚刚	-858
▁样子	-859
▁本人	-860
▁普	-861
▁辣	-862
▁社	-863
▁吓	-864
▁鞋	-865
▁屏	-866
▁久	-867
▁百度	-868
▁幸	-869
▁唉	-870
▁团	-871
▁l	-872
▁上班	-873
▁直播	-874
▁晒	-875
▁大概	-876
▁暖	-877
▁话说	-878
▁件	-879
▁赛	-880
▁男生	-881
▁美女	-882
▁病	-883
▁混	-884
▁突然	-885
▁为啥	-886
▁肉	-887
▁速	-888
▁主要	-889
▁早上	-890
▁汉	-891
▁本来	-892
▁银	-893
▁T	-894
▁聊天	-895
▁某	-896
▁o	-897
▁减	-898
▁魔	-899
▁永	-900
▁支持	-901
▁句	-902
▁充	-903
▁跳	-904
▁之后	-905
▁真心	-906
▁宝宝	-907
▁问问	-908
▁药	-909
▁了解	-910
▁头像	-911
▁办法	-912
▁C	-913
▁类	-914
▁熟	-915
▁物	-916
▁50	-917
▁生日	-918
▁骂	-919
▁分钟	-920
▁血	-921
▁随便	-922
▁刀	-923
▁瘦	-924
▁男人	-925
▁苏	-926
▁纯	-927
▁缺	-928
▁近	-929
▁要求	-930
▁然而	-931
▁丢	-932
▁棒	-933
▁那里	-934
▁硬	-935
▁乐	-936
▁大佬	-937
▁开学	-938
▁石	-939
▁过去	-940
▁参	-941
▁老哥	-942
50	-943
▁必须	-944
▁油	-945
▁偶	-946
▁19	-947
▁却	-948
▁赞	-949
▁渣	-950
▁乱	-951
▁铁	-952
▁坚	-953
▁结婚	-954
▁借	-955
▁湖	-956
▁当然	-957
▁古	-958
▁学习	-959
▁存	-960
▁恶	-961
▁爸	-962
▁秀	-963
▁云	-964
▁欧	-965
▁怀	-966
▁一只	-967
▁附	-968
▁建议	-969
▁才能	-970
▁单身	-971
▁北京	-972
▁打算	-973
▁注意	-974
▁骑	-975
▁g	-976
▁夏	-977
▁室	-978
▁模	-979
▁可惜	-980
▁党	-981
▁清楚	-982
▁德	-983
▁下去	-984
▁院	-985
▁B	-986
▁努	-987
▁断	-988
▁效	-989
▁考试	-990
▁激	-991
▁系统	-992
▁就要	-993
▁礼	-994
▁弱	-995
▁边	-996
▁视频	-997
▁淘宝	-998
▁迷	-999
▁傻	-1000
▁见过	-1001
▁莫	-1002
▁泡	-1003
▁姐姐	-1004
▁v	-1005
▁学院	-1006
▁笔	-1007
▁适合	-1008
▁n	-1009
▁撸	-1010
▁嗯嗯	-1011
▁关注	-1012
▁重要	-1013
▁后面	-1014
▁冲	-1015
▁封	-1016
▁马上	-1017
▁介绍	-1018
▁吃饭	-1019
▁回去	-1020
▁造	-1021
▁P	-1022
▁努力	-1023
▁您	-1024
▁印	-1025
▁竟	-1026
▁遇到	-1027
▁所有	-1028
▁怎样	-1029
▁智	-1030
▁脑	-1031
▁韩	-1032
▁去年	-1033
▁决	-1034
▁微博	-1035
▁食	-1036
▁严	-1037
▁腿	-1038
▁轻	-1039
▁眼熟	-1040
▁多久	-1041
▁脚	-1042
▁好吃	-1043
▁计	-1044
▁选择	-1045
▁赢	-1046
▁貌	-1047
▁两天	-1048
▁求助	-1049
▁抓	-1050
▁哟	-1051
▁素	-1052
▁烦	-1053
▁经验	-1054
▁考虑	-1055
▁故事	-1056
▁于	-1057
▁控	-1058
▁机会	-1059
苹果	-1060
▁往	-1061
▁此	-1062
▁摸	-1063
▁h	-1064
▁答	-1065
▁刘	-1066
▁公司	-1067
▁嘿	-1068
▁醉	-1069
▁简单	-1070
▁另	-1071
▁貌似	-1072
▁确定	-1073
▁25	-1074
▁味	-1075
▁取	-1076
▁M	-1077
▁耳	-1078
▁女神	-1079
▁忍	-1080
▁菜	-1081
▁相信	-1082
▁录取	-1083
▁e	-1084
▁免费	-1085
▁冰	-1086
▁绝对	-1087
▁盘	-1088
▁工资	-1089
▁浪	-1090
▁角	-1091
▁医院	-1092
▁春	-1093
▁扣	-1094
▁路过	-1095
▁者	-1096
▁兴	-1097
▁晚安	-1098
▁职	-1099
▁愿意	-1100
▁足	-1101
▁心情	-1102
▁痛	-1103
▁属	-1104
▁垃	-1105
▁雷	-1106
▁牌	-1107
▁完全	-1108
▁苹果	-1109
▁命	-1110
▁码	-1111
▁垃圾	-1112
▁满	-1113
▁身高	-1114
▁事情	-1115
▁挺好	-1116
▁S	-1117
▁慢慢	-1118
▁互	-1119
▁女人	-1120
▁拆	-1121
▁心里	-1122
▁草	-1123
▁将	-1124
▁麻烦	-1125
▁上海	-1126
▁L	-1127
▁效果	-1128
▁就算	-1129
▁星期	-1130
▁座	-1131
▁害	-1132
▁出现	-1133
▁今晚	-1134
▁竟然	-1135
▁声音	-1136
▁健	-1137
▁陈	-1138
▁进去	-1139
▁私	-1140
▁雪	-1141
▁斤	-1142
▁技术	-1143
▁老婆	-1144
▁爽	-1145
▁一次	-1146
▁奥	-1147
▁漫	-1148
▁护	-1149
▁大一	-1150
▁罗	-1151
▁防	-1152
▁待	-1153
▁200	-1154
▁零	-1155
▁小姐	-1156
▁举	-1157
▁攻	-1158
▁赚	-1159
▁每次	-1160
▁届	-1161
▁向	-1162
▁合适	-1163
▁k	-1164
▁猪	-1165
▁活动	-1166
▁多大	-1167
▁分享	-1168
▁姑	-1169
▁电视	-1170
▁操	-1171
▁认真	-1172
▁偷	-1173
▁目前	-1174
▁网上	-1175
▁利	-1176
▁俺	-1177
▁高中	-1178
▁经常	-1179
▁想到	-1180
▁眼睛	-1181
▁x	-1182
▁根本	-1183
▁在家	-1184
▁蛋	-1185
▁G	-1186
▁惹	-1187
▁疼	-1188
▁吐	-1189
▁搜	-1190
in	-1191
▁环	-1192
▁尽	-1193
▁喂	-1194
▁嘴	-1195
▁旅	-1196
▁具	-1197
▁截	-1198
▁放假	-1199
▁高三	-1200
▁闲	-1201
▁降	-1202
▁观	-1203
▁治	-1204
▁思	-1205
▁分手	-1206
▁奔	-1207
▁以上	-1208
▁格	-1209
▁仙	-1210
▁就会	-1211
▁皇	-1212
▁一起	-1213
▁军训	-1214
▁苦	-1215
▁瞎	-1216
▁凉	-1217
▁习	-1218
▁题	-1219
▁r	-1220
▁论	-1221
▁这次	-1222
▁都会	-1223
▁成功	-1224
▁烟	-1225
▁常	-1226
▁好想	-1227
▁休	-1228
▁农	-1229
▁吊	-1230
▁好听	-1231
▁蛮	-1232
▁高一	-1233
▁挑	-1234
▁吉	-1235
▁亚	-1236
▁共	-1237
▁23	-1238
▁不管	-1239
▁舒	-1240
▁纸	-1241
▁疯	-1242
▁剑	-1243
▁色	-1244
▁屌	-1245
▁软件	-1246
▁克	-1247
▁独	-1248
▁关于	-1249
▁幸福	-1250
▁散	-1251
▁极	-1252
▁细	-1253
▁胡	-1254
▁员	-1255
▁恋爱	-1256
▁季	-1257
▁升级	-1258
▁插	-1259
▁阳	-1260
▁使	-1261
▁剪	-1262
▁厂	-1263
▁炸	-1264
▁英语	-1265
▁冬	-1266
▁这边	-1267
▁虐	-1268
▁实在	-1269
▁测	-1270
▁杨	-1271
▁头发	-1272
▁鉴	-1273
▁司	-1274
▁申	-1275
▁老公	-1276
▁期待	-1277
▁就能	-1278
▁街	-1279
▁坚持	-1280
▁轮	-1281
▁忙	-1282
▁上面	-1283
▁包邮	-1284
▁局	-1285
▁罩	-1286
▁下面	-1287
▁脱	-1288
▁盆	-1289
▁孤	-1290
▁亮	-1291
▁林	-1292
▁每个	-1293
▁邮	-1294
▁床	-1295
▁纠	-1296
▁沙	-1297
▁非常	-1298
▁落	-1299
▁老板	-1300
▁搬	-1301
▁高考	-1302
▁毒	-1303
▁卫	-1304
▁暴	-1305
▁甜	-1306
▁质	-1307
▁限	-1308
▁40	-1309
▁碰	-1310
▁底	-1311
▁曾	-1312
▁救	-1313
▁超级	-1314
▁灵	-1315
▁制	-1316
▁妹妹	-1317
▁当时	-1318
▁24	-1319
▁功	-1320
▁寝	-1321
▁21	-1322
▁醒	-1323
▁野	-1324
▁豆	-1325
▁隔	-1326
▁即	-1327
▁巨	-1328
▁母	-1329
▁小米	-1330
▁戒	-1331
▁废	-1332
▁R	-1333
▁舍	-1334
▁好玩	-1335
▁明明	-1336
▁圣	-1337
▁附近	-1338
▁拼	-1339
▁部分	-1340
▁移	-1341
▁男神	-1342
▁记录	-1343
▁搭	-1344
▁切	-1345
▁步	-1346
▁导	-1347
▁嫌	-1348
▁穷	-1349
▁哥们	-1350
▁烧	-1351
▁泰	-1352
▁异	-1353
▁讨厌	-1354
▁杯	-1355
▁产	-1356
▁撒	-1357
▁暗	-1358
▁越来	-1359
▁两年	-1360
▁姑娘	-1361
▁原因	-1362
▁D	-1363
▁通知	-1364
▁嘿嘿	-1365
▁聊聊	-1366
▁房子	-1367
▁雨	-1368
▁具体	-1369
▁小说	-1370
▁习惯	-1371
▁付	-1372
▁惊	-1373
▁叶	-1374
▁麦	-1375
▁饿	-1376
▁唯	-1377
▁简直	-1378
▁逗	-1379
▁瓶	-1380
▁f	-1381
▁后来	-1382
▁儿子	-1383
▁吸	-1384
▁感谢	-1385
▁关键	-1386
▁报道	-1387
▁娃	-1388
好意	-1389
▁赶紧	-1390
▁据	-1391
▁剩	-1392
▁城市	-1393
好意思	-1394
▁不好意思	-1395
▁接受	-1396
▁紫	-1397
▁盖	-1398
▁羡	-1399
▁明白	-1400
▁露	-1401
▁冒	-1402
▁依	-1403
▁在线	-1404
▁日本	-1405
▁影响	-1406
▁嗨	-1407
▁回事	-1408
▁成都	-1409
▁大哥	-1410
▁22	-1411
80	-1412
▁QQ	-1413
▁解决	-1414
▁波	-1415
▁比赛	-1416
▁撩	-1417
▁偏	-1418
▁成绩	-1419
▁恐	-1420
▁全部	-1421
▁右	-1422
▁普通	-1423
▁显示	-1424
▁变成	-1425
▁诶	-1426
▁暑	-1427
▁拜	-1428
▁戏	-1429
▁帅哥	-1430
▁重庆	-1431
▁租	-1432
▁羡慕	-1433
▁速度	-1434
▁玉	-1435
▁京	-1436
▁驾	-1437
▁校区	-1438
不起	-1439
▁滴	-1440
▁折	-1441
▁鉴定	-1442
▁艾	-1443
▁博	-1444
▁立	-1445
▁入手	-1446
▁纠结	-1447
▁报名	-1448
▁山东	-1449
▁噢	-1450
▁明显	-1451
▁上去	-1452
▁紧	-1453
▁板	-1454
▁型	-1455
▁临	-1456
▁郑	-1457
▁小心	-1458
▁弹	-1459
▁份	-1460
▁那边	-1461
▁认为	-1462
▁身体	-1463
▁默	-1464
▁懒	-1465
▁密	-1466
▁闹	-1467
▁布	-1468
▁宠	-1469
▁明年	-1470
▁担	-1471
▁V	-1472
▁感情	-1473
▁消息	-1474
▁女孩	-1475
▁上课	-1476
▁300	-1477
▁英雄	-1478
▁人生	-1479
▁跪	-1480
▁登	-1481
▁分数	-1482
▁500	-1483
▁占	-1484
▁帝	-1485
▁兼	-1486
▁村	-1487
▁透	-1488
▁尾	-1489
▁寻	-1490
▁签到	-1491
▁勇	-1492
▁位置	-1493
▁恶心	-1494
▁研	-1495
▁志	-1496
▁下载	-1497
▁文科	-1498
▁资源	-1499
▁年轻	-1500
▁沉	-1501
▁及	-1502
▁茶	-1503
▁配置	-1504
▁冠	-1505
▁姓	-1506
60	-1507
▁永远	-1508
▁暑假	-1509
▁奖	-1510
▁lo	-1511
▁灯	-1512
▁下次	-1513
▁结束	-1514
▁广东	-1515
▁一切	-1516
▁捡	-1517
▁艺	-1518
▁戴	-1519
▁寝室	-1520
▁一会	-1521
▁规	-1522
▁顺便	-1523
▁维	-1524
▁粗	-1525
▁涨	-1526
▁助	-1527
▁堆	-1528
▁胸	-1529
▁盒	-1530
▁后悔	-1531
▁闪	-1532
▁回答	-1533
▁形	-1534
▁许	-1535
▁理解	-1536
▁快递	-1537
▁国家	-1538
▁塞	-1539
▁缘	-1540
▁旁	-1541
▁爷	-1542
▁踢	-1543
an	-1544
▁之前	-1545
▁屏幕	-1546
▁萌萌	-1547
▁四川	-1548
▁检	-1549
▁60	-1550
▁颜色	-1551
▁唱歌	-1552
▁鸟	-1553
▁烂	-1554
▁承	-1555
▁解答	-1556
▁正在	-1557
▁婚	-1558
▁阴	-1559
▁刺	-1560
▁水平	-1561
▁卷	-1562
▁皮肤	-1563
▁达	-1564
▁牙	-1565
▁那样	-1566
▁辈	-1567
▁版本	-1568
▁辛	-1569
▁纹	-1570
▁似	-1571
▁威	-1572
▁霸	-1573
▁来自	-1574
▁80	-1575
▁齐	-1576
▁半年	-1577
▁富	-1578
▁从来	-1579
▁咩	-1580
▁荣	-1581
▁寄	-1582
▁据说	-1583
▁减肥	-1584
▁运动	-1585
▁表白	-1586
▁还会	-1587
▁摩	-1588
▁说明	-1589
▁斯	-1590
▁管理	-1591
▁广州	-1592
▁勾	-1593
▁民	-1594
▁咬	-1595
▁拒	-1596
▁粉丝	-1597
▁彩	-1598
▁二手	-1599
▁值得	-1600
▁能力	-1601
▁父	-1602
▁至少	-1603
▁果然	-1604
▁闺	-1605
▁灰	-1606
▁状	-1607
▁兴趣	-1608
▁爱情	-1609
▁过年	-1610
▁方便	-1611
▁窝	-1612
▁呐	-1613
▁舒服	-1614
▁y	-1615
▁播	-1616
▁间	-1617
▁叔	-1618
▁媳	-1619
▁安全	-1620
▁困	-1621
▁批	-1622
▁财	-1623
▁所谓	-1624
▁亏	-1625
▁箱	-1626
▁媳妇	-1627
▁理科	-1628
▁惨	-1629
os	-1630
▁99	-1631
▁印象	-1632
▁编	-1633
▁工程	-1634
▁兔	-1635
▁宁	-1636
▁靠谱	-1637
▁哪儿	-1638
▁z	-1639
▁节奏	-1640
▁放弃	-1641
▁方法	-1642
▁年龄	-1643
▁熊	-1644
▁骚	-1645
▁小白	-1646
▁馆	-1647
▁拖	-1648
▁键	-1649
▁还行	-1650
▁中午	-1651
▁存在	-1652
▁医生	-1653
▁想想	-1654
▁营	-1655
▁可怕	-1656
▁设计	-1657
▁决定	-1658
▁炒	-1659
▁外面	-1660
▁耍	-1661
▁动漫	-1662
▁昨晚	-1663
▁太阳	-1664
▁钻	-1665
▁填	-1666
▁难受	-1667
on	-1668
▁q	-1669
▁N	-1670
te	-1671
▁娘	-1672
▁摆	-1673
▁作为	-1674
▁一天	-1675
▁天气	-1676
▁固	-1677
▁羊	-1678
▁肥	-1679
▁评论	-1680
▁阵	-1681
▁小号	-1682
▁呆	-1683
▁严重	-1684
▁历	-1685
▁地址	-1686
▁兰	-1687
▁县	-1688
▁静	-1689
20	-1690
▁心疼	-1691
▁斗	-1692
▁肚	-1693
▁兵	-1694
▁挖	-1695
▁咱们	-1696
▁处理	-1697
▁很久	-1698
▁骗子	-1699
▁遍	-1700
▁钓	-1701
▁E	-1702
▁创	-1703
▁作业	-1704
▁恭	-1705
▁浙	-1706
▁三年	-1707
▁新手	-1708
▁锁	-1709
▁层	-1710
▁28	-1711
▁辈子	-1712
▁90	-1713
▁宣	-1714
▁移动	-1715
▁秋	-1716
▁实力	-1717
▁帖	-1718
▁戳	-1719
▁哪些	-1720
▁酱	-1721
▁勿	-1722
▁大叔	-1723
▁枪	-1724
▁解释	-1725
▁妹纸	-1726
▁王者	-1727
▁信息	-1728
▁围	-1729
▁实话	-1730
▁重新	-1731
▁为何	-1732
▁晓	-1733
▁舞	-1734
▁区别	-1735
▁园	-1736
▁悲	-1737
▁扒	-1738
▁骨	-1739
▁日子	-1740
▁质量	-1741
▁梅	-1742
▁月份	-1743
▁章	-1744
▁射	-1745
▁凑	-1746
▁喊	-1747
▁糖	-1748
▁伤害	-1749
▁君	-1750
▁武汉	-1751
▁下雨	-1752
▁可怜	-1753
▁酸	-1754
▁小学	-1755
▁火车	-1756
▁宝贝	-1757
▁老乡	-1758
▁胜	-1759
▁魅	-1760
▁上次	-1761
▁担心	-1762
▁河南	-1763
▁身边	-1764
▁现实	-1765
▁虚	-1766
▁裤	-1767
▁音乐	-1768
▁忘记	-1769
▁篮	-1770
▁空调	-1771
▁钢	-1772
▁司机	-1773
▁厚	-1774
▁自动	-1775
▁前面	-1776
▁萝	-1777
▁服务	-1778
▁副	-1779
▁显卡	-1780
▁寒	-1781
▁上学	-1782
▁交流	-1783
▁官网	-1784
▁统	-1785
▁W	-1786
▁未来	-1787
▁港	-1788
▁当年	-1789
▁碎	-1790
▁树	-1791
▁弟弟	-1792
▁祝福	-1793
▁耐	-1794
▁任何	-1795
▁证明	-1796
▁可好	-1797
▁猴	-1798
▁必要	-1799
▁全新	-1800
▁O	-1801
▁土豪	-1802
▁35	-1803
▁吴	-1804
▁市场	-1805
▁提前	-1806
▁赵	-1807
▁27	-1808
▁既	-1809
▁矮	-1810
▁放心	-1811
▁表情	-1812
▁唐	-1813
▁深圳	-1814
▁兼职	-1815
▁嫁	-1816
▁标题	-1817
▁磨	-1818
▁旁边	-1819
▁休息	-1820
▁量	-1821
▁味道	-1822
▁负	-1823
▁参加	-1824
▁夏天	-1825
▁社会	-1826
▁恭喜	-1827
▁福利	-1828
▁熬	-1829
▁职业	-1830
▁数学	-1831
▁逛	-1832
▁增	-1833
▁平时	-1834
▁周末	-1835
▁良	-1836
▁无法	-1837
▁讨论	-1838
▁98	-1839
▁江苏	-1840
▁激动	-1841
▁剧情	-1842
▁镜	-1843
▁桌	-1844
▁内存	-1845
▁j	-1846
▁杂	-1847
▁爸爸	-1848
▁酷	-1849
▁26	-1850
▁大师	-1851
▁X	-1852
▁症	-1853
▁自然	-1854
▁核	-1855
▁一波	-1856
▁一枚	-1857
▁环境	-1858
▁一半	-1859
▁备	-1860
▁圆	-1861
▁刚才	-1862
▁也许	-1863
▁求解	-1864
▁哼	-1865
▁数据	-1866
▁鲁	-1867
▁打的	-1868
▁协	-1869
▁一百	-1870
▁系列	-1871
▁珍	-1872
▁牌子	-1873
▁鼻	-1874
▁拥	-1875
▁实习	-1876
▁档	-1877
▁引	-1878
▁警	-1879
▁订	-1880
▁狂	-1881
▁妈妈	-1882
▁cp	-1883
▁网络	-1884
▁炮	-1885
▁替	-1886
▁夸	-1887
▁黑色	-1888
▁技能	-1889
▁禁	-1890
▁对面	-1891
▁道理	-1892
▁对于	-1893
▁曾经	-1894
▁比如	-1895
▁一看	-1896
▁锅	-1897
▁研究	-1898
▁吵	-1899
▁孙	-1900
▁玩意	-1901
▁淡	-1902
▁完美	-1903
▁腰	-1904
▁归	-1905
▁幼	-1906
▁乖	-1907
▁浙江	-1908
▁晕	-1909
▁松	-1910
▁佛	-1911
▁害怕	-1912
▁属于	-1913
▁体重	-1914
▁争	-1915
▁礼物	-1916
▁擦	-1917
▁亿	-1918
▁很大	-1919
▁师傅	-1920
▁称	-1921
▁辛苦	-1922
▁超过	-1923
▁体育	-1924
▁如此	-1925
▁砸	-1926
▁辅	-1927
▁冬天	-1928
▁官方	-1929
▁申请	-1930
▁考研	-1931
▁甩	-1932
▁爹	-1933
▁离开	-1934
▁资料	-1935
▁发展	-1936
▁想法	-1937
▁权	-1938
▁成为	-1939
▁u	-1940
▁身份	-1941
▁宽	-1942
▁出门	-1943
▁坐标	-1944
▁欺	-1945
▁读书	-1946
▁男女	-1947
▁番	-1948
▁状态	-1949
▁爬	-1950
▁嘻	-1951
▁高二	-1952
▁拒绝	-1953
▁销	-1954
▁97	-1955
▁账	-1956
▁赌	-1957
▁词	-1958
▁躺	-1959
▁聚	-1960
▁会计	-1961
▁难过	-1962
▁告知	-1963
▁得到	-1964
▁东北	-1965
▁购	-1966
▁150	-1967
▁条件	-1968
▁潜	-1969
▁志愿	-1970
▁H	-1971
▁隐	-1972
▁贝	-1973
▁烫	-1974
▁美国	-1975
▁符	-1976
▁默默	-1977
▁另外	-1978
▁笔记	-1979
▁整个	-1980
▁仔	-1981
▁凯	-1982
▁南京	-1983
▁京东	-1984
▁K	-1985
▁截图	-1986
▁是否	-1987
▁逆	-1988
▁学期	-1989
▁顿	-1990
▁装备	-1991
▁汽	-1992
▁电信	-1993
▁乌	-1994
▁三天	-1995
▁距	-1996
▁当初	-1997
▁毁	-1998
▁股	-1999
▁尿	-2000
▁千万	-2001
▁32	-2002
▁忽	-2003
▁银行	-2004
▁门口	-2005
▁指点	-2006
▁旧	-2007
▁呼	-2008
▁脾	-2009
▁肚子	-2010
▁汉子	-2011
▁29	-2012
▁豪	-2013
▁扔	-2014
▁妖	-2015
▁盗	-2016
▁湖南	-2017
▁QA	-2018
▁十一	-2019
▁新闻	-2020
▁程	-2021
▁45	-2022
▁拍照	-2023
▁耶	-2024
▁流量	-2025
▁干净	-2026
▁95	-2027
▁到时	-2028
▁很少	-2029
▁多多	-2030
▁真正	-2031
▁嘻嘻	-2032
▁公里	-2033
▁70	-2034
▁智商	-2035
▁初中	-2036
▁丝	-2037
▁发生	-2038
▁挣	-2039
▁到时候	-2040
▁尼	-2041
▁冠军	-2042
▁守	-2043
▁飘	-2044
▁早安	-2045
▁会员	-2046
▁范	-2047
▁狗狗	-2048
▁喽	-2049
▁暂	-2050
▁尴	-2051
▁库	-2052
er	-2053
▁咸	-2054
▁巧	-2055
▁QAQ	-2056
▁童	-2057
▁政	-2058
▁龟	-2059
▁颗	-2060
▁遗	-2061
▁尴尬	-2062
▁没法	-2063
▁球迷	-2064
▁度娘	-2065
▁吐槽	-2066
▁西安	-2067
▁针	-2068
▁方面	-2069
▁白色	-2070
▁纪	-2071
▁理由	-2072
▁华为	-2073
▁本科	-2074
▁F	-2075
▁文化	-2076
▁屎	-2077
▁伊	-2078
▁高兴	-2079
▁旅游	-2080
▁处女	-2081
▁嫌弃	-2082
▁韩国	-2083
▁肿	-2084
▁咨	-2085
▁咋样	-2086
▁人民	-2087
▁早点	-2088
▁征	-2089
▁父母	-2090
▁400	-2091
▁诚	-2092
▁主动	-2093
▁若	-2094
▁划	-2095
▁售	-2096
▁率	-2097
▁使用	-2098
▁止	-2099
▁南方	-2100
▁项	-2101
▁咨询	-2102
▁砍	-2103
▁赛季	-2104
▁篮球	-2105
▁念	-2106
▁食堂	-2107
▁历史	-2108
▁交友	-2109
▁之类	-2110
▁一人	-2111
▁狼	-2112
▁电池	-2113
▁曼	-2114
▁身上	-2115
▁等级	-2116
▁教育	-2117
▁厕	-2118
▁摄	-2119
▁虎	-2120
▁感受	-2121
▁喔	-2122
▁脾气	-2123
▁压力	-2124
▁31	-2125
▁老子	-2126
▁重点	-2127
▁室友	-2128
▁结局	-2129
▁洛	-2130
▁性格	-2131
▁女儿	-2132
▁真好	-2133
▁摔	-2134
▁户	-2135
▁串	-2136
▁耳机	-2137
▁裙	-2138
▁杭	-2139
▁桃	-2140
▁撕	-2141
▁少女	-2142
▁唯一	-2143
▁人物	-2144
▁扎	-2145
▁差点	-2146
▁扯	-2147
▁残	-2148
▁面试	-2149
▁业	-2150
▁漫画	-2151
▁午	-2152
▁控制	-2153
▁隔壁	-2154
▁曲	-2155
▁空间	-2156
▁意见	-2157
▁稳定	-2158
▁就像	-2159
▁拔	-2160
▁漏	-2161
▁半夜	-2162
▁武器	-2163
▁尤	-2164
▁她们	-2165
▁瓜	-2166
▁言	-2167
▁汤	-2168
▁料	-2169
▁狮	-2170
▁详	-2171
▁劳	-2172
▁距离	-2173
▁I	-2174
▁荣耀	-2175
▁健身	-2176
▁等等	-2177
▁喵	-2178
▁同意	-2179
▁一生	-2180
▁墙	-2181
▁跨	-2182
▁00	-2183
▁两次	-2184
▁颜值	-2185
▁开车	-2186
▁以下	-2187
▁内容	-2188
▁答案	-2189
▁优惠	-2190
▁黄金	-2191
▁安排	-2192
▁快点	-2193
▁厕所	-2194
▁买到	-2195
▁勾搭	-2196
▁对不起	-2197
▁国内	-2198
▁墨	-2199
▁端	-2200
▁培	-2201
▁三星	-2202
▁反应	-2203
▁闺蜜	-2204
▁经历	-2205
▁抗	-2206
▁网恋	-2207
▁id	-2208
▁瞬	-2209
▁钟	-2210
▁2015	-2211
▁计算	-2212
▁欣	-2213
▁亲爱	-2214
▁说好	-2215
▁代表	-2216
▁健康	-2217
▁屌丝	-2218
▁男友	-2219
▁索	-2220
▁凤	-2221
▁审	-2222
▁币	-2223
▁徐	-2224
▁红包	-2225
▁充电	-2226
99	-2227
▁介意	-2228
▁续	-2229
▁污	-2230
▁欠	-2231
▁善	-2232
▁安慰	-2233
▁飞机	-2234
▁艺术	-2235
▁狠	-2236
▁180	-2237
▁鸭	-2238
▁联通	-2239
▁拿到	-2240
▁震	-2241
▁济	-2242
▁公交	-2243
▁冻	-2244
▁时代	-2245
▁康	-2246
▁膜	-2247
▁客服	-2248
▁打开	-2249
▁玩玩	-2250
▁奇怪	-2251
▁电子	-2252
▁温柔	-2253
▁稍	-2254
▁撞	-2255
▁挤	-2256
▁贱	-2257
▁派	-2258
▁孤独	-2259
▁既然	-2260
▁设置	-2261
▁感动	-2262
▁呜	-2263
▁原谅	-2264
▁好人	-2265
▁长期	-2266
▁想起	-2267
▁伴	-2268
▁沈	-2269
▁十二	-2270
▁排名	-2271
▁晓得	-2272
▁崩	-2273
▁体验	-2274
▁机器	-2275
▁起床	-2276
▁交易	-2277
▁夫	-2278
▁架	-2279
▁积	-2280
▁脑子	-2281
▁伤心	-2282
▁家人	-2283
▁no	-2284
▁球员	-2285
▁任性	-2286
▁森	-2287
▁船	-2288
▁lol	-2289
▁虫	-2290
▁真实	-2291
▁加入	-2292
▁烤	-2293
▁偶遇	-2294
▁相亲	-2295
▁杭州	-2296
▁96	-2297
▁宇	-2298
▁一万	-2299
▁鹿	-2300
▁诗	-2301
▁发货	-2302
▁别说	-2303
▁误	-2304
▁素质	-2305
▁诺	-2306
▁情人	-2307
▁中间	-2308
▁恐怖	-2309
▁恢	-2310
▁天下	-2311
▁精神	-2312
▁毛病	-2313
▁专科	-2314
▁喝酒	-2315
▁品种	-2316
▁新年	-2317
▁否	-2318
▁教练	-2319
▁网吧	-2320
▁余	-2321
▁徒	-2322
▁蒙	-2323
▁长大	-2324
▁阿姨	-2325
▁遇见	-2326
▁再见	-2327
▁姨	-2328
▁U	-2329
▁恢复	-2330
▁心理	-2331
▁一中	-2332
▁见到	-2333
▁那天	-2334
▁起码	-2335
▁溜	-2336
▁标准	-2337
▁臭	-2338
▁蜜	-2339
▁说过	-2340
▁万一	-2341
▁藏	-2342
▁迟	-2343
▁保证	-2344
▁J	-2345
▁明星	-2346
▁材	-2347
▁小孩	-2348
▁角色	-2349
▁日常	-2350
▁天津	-2351
▁情侣	-2352
▁恒	-2353
▁安徽	-2354
▁最新	-2355
▁抄	-2356
▁粘	-2357
▁相册	-2358
▁瞬间	-2359
▁安卓	-2360
▁扫	-2361
▁随意	-2362
▁北方	-2363
▁姐妹	-2364
▁主角	-2365
▁托	-2366
▁凌	-2367
▁紧张	-2368
▁抱歉	-2369
▁运气	-2370
▁真相	-2371
▁易	-2372
▁航	-2373
▁玩笑	-2374
▁上午	-2375
▁洗澡	-2376
▁浪费	-2377
▁任务	-2378
▁对比	-2379
▁佳	-2380
▁目测	-2381
▁中心	-2382
▁珠	-2383
▁雅	-2384
▁尝	-2385
▁来看	-2386
▁意义	-2387
▁朱	-2388
▁经济	-2389
▁鞋子	-2390
▁鼠	-2391
▁保护	-2392
▁腾	-2393
▁郑州	-2394
30	-2395
▁国际	-2396
10	-2397
▁餐	-2398
▁失败	-2399
▁才会	-2400
▁错过	-2401
▁尊	-2402
▁模式	-2403
▁鼓	-2404
▁竞	-2405
▁噗	-2406
▁照顾	-2407
▁通过	-2408
▁花钱	-2409
▁胖子	-2410
▁陆	-2411
▁请教	-2412
▁由	-2413
▁生气	-2414
▁纳	-2415
▁泪	-2416
▁望	-2417
▁捏	-2418
▁分析	-2419
▁帮助	-2420
▁节目	-2421
▁桑	-2422
▁乔	-2423
▁64	-2424
▁欺负	-2425
▁美丽	-2426
▁36	-2427
▁真爱	-2428
▁丽	-2429
▁宋	-2430
▁夹	-2431
▁几点	-2432
▁监	-2433
▁犯	-2434
▁600	-2435
▁歌词	-2436
▁迪	-2437
▁偶尔	-2438
▁同样	-2439
▁川	-2440
▁泥	-2441
▁国庆	-2442
▁验	-2443
▁祖	-2444
▁训	-2445
▁百分	-2446
▁队友	-2447
▁触	-2448
▁搞笑	-2449
▁佩	-2450
▁锤	-2451
▁800	-2452
▁詹	-2453
▁玻	-2454
▁机械	-2455
▁仅	-2456
▁塔	-2457
▁动画	-2458
▁甲	-2459
▁辽	-2460
▁景	-2461
▁着急	-2462
▁密码	-2463
▁毫	-2464
▁凶	-2465
▁秦	-2466
▁套路	-2467
▁企	-2468
▁嘉	-2469
▁对方	-2470
▁贼	-2471
▁蛇	-2472
▁田	-2473
▁实体	-2474
▁愉	-2475
▁鲜	-2476
▁笔记本	-2477
▁苗	-2478
▁饮	-2479
▁互相	-2480
▁香港	-2481
▁羽	-2482
▁呃	-2483
▁返	-2484
▁图书	-2485
▁学费	-2486
▁汽车	-2487
▁赔	-2488
▁几乎	-2489
▁操作	-2490
oo	-2491
▁单位	-2492
▁婆	-2493
▁事实	-2494
▁好奇	-2495
▁听到	-2496
▁之间	-2497
▁产品	-2498
▁绑	-2499
▁至于	-2500
▁120	-2501
▁安装	-2502
▁半天	-2503
▁河北	-2504
▁甘	-2505
▁刻	-2506
▁价位	-2507
▁跪求	-2508
▁莫名	-2509
▁炫	-2510
▁危	-2511
▁前任	-2512
▁瑞	-2513
▁目标	-2514
▁传说	-2515
▁痘	-2516
▁壳	-2517
▁全国	-2518
▁qy	-2519
▁改变	-2520
▁基础	-2521
▁尾巴	-2522
▁顾	-2523
▁赚钱	-2524
▁暂时	-2525
▁身材	-2526
▁旗	-2527
▁逃	-2528
▁国产	-2529
▁哪家	-2530
▁方式	-2531
▁白菜	-2532
▁联盟	-2533
▁检查	-2534
▁风格	-2535
▁稀	-2536
▁碰到	-2537
▁除非	-2538
▁二本	-2539
▁凭	-2540
▁弃	-2541
▁或许	-2542
▁幻	-2543
▁宠物	-2544
▁55	-2545
▁阳光	-2546
▁现场	-2547
▁哎呀	-2548
▁贷	-2549
▁正好	-2550
▁键盘	-2551
▁仓	-2552
▁栋	-2553
▁跑步	-2554
▁计划	-2555
▁一遍	-2556
▁宫	-2557
▁白天	-2558
▁玩家	-2559
▁组织	-2560
▁萨	-2561
▁寂	-2562
▁撑	-2563
▁放在	-2564
▁界	-2565
▁被骗	-2566
▁ma	-2567
▁38	-2568
▁咋办	-2569
▁秘	-2570
▁天使	-2571
▁挡	-2572
▁老大	-2573
▁收藏	-2574
▁指导	-2575
▁下班	-2576
▁湖北	-2577
▁自习	-2578
▁盒子	-2579
▁师兄	-2580
▁略	-2581
▁笑死	-2582
▁玻璃	-2583
▁美好	-2584
▁好累	-2585
▁甚	-2586
▁公主	-2587
▁化妆	-2588
▁疑	-2589
▁做到	-2590
▁表现	-2591
▁胃	-2592
▁看图	-2593
▁丰	-2594
▁支付	-2595
▁胶	-2596
▁愉快	-2597
▁挨	-2598
▁延	-2599
▁湿	-2600
▁乡	-2601
▁感冒	-2602
▁学霸	-2603
▁经典	-2604
▁熟悉	-2605
▁一边	-2606
▁心态	-2607
▁涂	-2608
▁发型	-2609
▁更多	-2610
▁综	-2611
▁踩	-2612
▁计算机	-2613
▁樱	-2614
▁杰	-2615
▁参考	-2616
▁自行	-2617
▁等到	-2618
▁单招	-2619
▁壁	-2620
▁福建	-2621
▁狮子	-2622
▁拥有	-2623
▁怀疑	-2624
▁评价	-2625
▁歪	-2626
▁自拍	-2627
▁大腿	-2628
▁陌	-2629
▁平台	-2630
▁地区	-2631
▁电源	-2632
▁灭	-2633
▁面膜	-2634
▁地铁	-2635
▁长沙	-2636
▁广场	-2637
one	-2638
▁史	-2639
▁2016	-2640
▁平安	-2641
▁蹲	-2642
▁首先	-2643
▁玫	-2644
70	-2645
▁红色	-2646
▁青岛	-2647
▁朝	-2648
▁刺激	-2649
▁恨	-2650
▁年纪	-2651
▁+	-2652
▁RT	-2653
▁孔	-2654
▁猛	-2655
▁昂	-2656
▁围观	-2657
▁概	-2658
▁脏	-2659
▁裤子	-2660
▁单纯	-2661
▁娃娃	-2662
▁果断	-2663
▁牵	-2664
▁肌	-2665
▁测试	-2666
▁驱	-2667
▁咖	-2668
▁Y	-2669
▁外地	-2670
▁呦	-2671
▁注册	-2672
▁组队	-2673
▁48	-2674
▁横	-2675
▁类型	-2676
▁江西	-2677
▁短发	-2678
▁承认	-2679
▁篇	-2680
▁憋	-2681
▁吖	-2682
▁唔	-2683
▁吞	-2684
▁碗	-2685
▁超市	-2686
▁娱	-2687
▁考生	-2688
▁dd	-2689
▁后期	-2690
▁人间	-2691
▁萝莉	-2692
▁眼镜	-2693
▁号码	-2694
▁科学	-2695
▁桥	-2696
▁怀孕	-2697
▁青春	-2698
▁七夕	-2699
▁慌	-2700
▁欣赏	-2701
▁舔	-2702
▁杜	-2703
▁足球	-2704
▁列	-2705
▁娶	-2706
▁作品	-2707
▁宣传	-2708
▁弯	-2709
▁说出	-2710
▁语音	-2711
▁倍	-2712
▁治疗	-2713
▁持	-2714
▁帽	-2715
▁腻	-2716
▁尺	-2717
▁渣渣	-2718
▁少年	-2719
▁昆	-2720
▁闭	-2721
▁劲	-2722
▁话题	-2723
▁骑士	-2724
▁自带	-2725
▁窗	-2726
▁年级	-2727
▁兔子	-2728
▁爪	-2729
▁催	-2730
▁演员	-2731
▁邪	-2732
▁石头	-2733
▁嘞	-2734
▁煮	-2735
▁刚好	-2736
▁回忆	-2737
▁熬夜	-2738
▁160	-2739
▁bu	-2740
▁饼	-2741
▁嫩	-2742
▁功能	-2743
▁生意	-2744
▁性价	-2745
▁锻	-2746
▁懒得	-2747
▁到处	-2748
▁很快	-2749
▁校园	-2750
▁采	-2751
▁长发	-2752
▁啧	-2753
▁方向	-2754
▁叔叔	-2755
▁寂寞	-2756
▁赤	-2757
▁薄	-2758
▁掌	-2759
▁腐	-2760
▁战斗	-2761
▁成熟	-2762
▁等待	-2763
▁姿	-2764
▁合作	-2765
▁胆	-2766
▁小区	-2767
▁吉他	-2768
▁坦	-2769
▁属性	-2770
▁初三	-2771
▁琴	-2772
▁岛	-2773
▁郭	-2774
▁召	-2775
▁在意	-2776
▁源	-2777
ta	-2778
▁抵	-2779
▁资格	-2780
▁背景	-2781
▁云南	-2782
▁聪	-2783
▁在乎	-2784
▁招生	-2785
▁天蝎	-2786
▁娱乐	-2787
▁人气	-2788
▁班主	-2789
▁一颗	-2790
▁拳	-2791
▁贺	-2792
▁班主任	-2793
▁痛苦	-2794
▁动物	-2795
▁启	-2796
▁供	-2797
▁玫瑰	-2798
▁后天	-2799
▁丁	-2800
▁见面	-2801
▁收费	-2802
▁堵	-2803
▁榜	-2804
▁梦想	-2805
▁一大	-2806
▁庆	-2807
▁懂得	-2808
▁寒假	-2809
▁酒店	-2810
▁抛	-2811
▁腹	-2812
▁领导	-2813
▁踏	-2814
▁手术	-2815
▁球队	-2816
▁屋	-2817
▁御	-2818
▁保险	-2819
▁含	-2820
▁主板	-2821
▁握	-2822
▁爆炸	-2823
hone	-2824
▁罢	-2825
▁异地	-2826
▁频	-2827
▁侧	-2828
▁魂	-2829
▁厦	-2830
▁魅族	-2831
▁辅助	-2832
▁棒棒	-2833
▁34	-2834
▁演唱	-2835
▁老家	-2836
▁一声	-2837
▁跟着	-2838
▁厨	-2839
▁42	-2840
▁执	-2841
▁性别	-2842
▁潮	-2843
▁关心	-2844
▁活着	-2845
▁态	-2846
▁阶	-2847
▁姨妈	-2848
▁预算	-2849
▁型号	-2850
▁材料	-2851
▁纹身	-2852
▁悬	-2853
▁锦	-2854
▁高手	-2855
▁作者	-2856
▁类似	-2857
▁委	-2858
▁探	-2859
▁33	-2860
▁170	-2861
▁腾讯	-2862
▁note	-2863
▁仔细	-2864
▁回头	-2865
▁价钱	-2866
▁热闹	-2867
▁实际	-2868
▁正品	-2869
▁台湾	-2870
▁科技	-2871
▁缩	-2872
▁级别	-2873
▁正式	-2874
▁爱好	-2875
▁笨	-2876
▁奇葩	-2877
▁蓝色	-2878
▁妥	-2879
▁珍惜	-2880
▁而是	-2881
▁复习	-2882
▁骗人	-2883
▁网站	-2884
▁如图	-2885
▁钻石	-2886
▁实验	-2887
▁失望	-2888
▁染	-2889
▁裸	-2890
▁抽烟	-2891
▁麻辣	-2892
▁生命	-2893
▁完成	-2894
▁娜	-2895
▁账号	-2896
▁出发	-2897
▁开机	-2898
▁游泳	-2899
▁硬盘	-2900
▁卸	-2901
▁差距	-2902
▁上网	-2903
▁出生	-2904
▁即将	-2905
▁无限	-2906
▁式	-2907
▁人品	-2908
▁时光	-2909
▁橙	-2910
▁神马	-2911
▁轻松	-2912
▁良心	-2913
▁浮	-2914
▁玄	-2915
▁尤其	-2916
▁丫	-2917
▁前排	-2918
▁很高	-2919
▁眉	-2920
▁糊	-2921
▁展	-2922
▁想象	-2923
▁摩托	-2924
▁农村	-2925
▁卫生	-2926
▁蹭	-2927
▁趣	-2928
▁锻炼	-2929
▁苏州	-2930
▁惯	-2931
▁蟹	-2932
▁中学	-2933
▁勒	-2934
▁LO	-2935
▁男孩	-2936
▁卖家	-2937
▁尽量	-2938
▁小伙	-2939
if	-2940
▁安静	-2941
▁深夜	-2942
▁允	-2943
▁洋	-2944
▁无敌	-2945
▁语言	-2946
▁动作	-2947
▁失眠	-2948
▁违	-2949
▁老人	-2950
▁用来	-2951
▁变化	-2952
▁相当	-2953
▁攒	-2954
▁真假	-2955
▁棉	-2956
▁裙子	-2957
▁进入	-2958
pp	-2959
▁送给	-2960
▁全套	-2961
▁好心	-2962
ro	-2963
▁想着	-2964
▁翻译	-2965
▁恒大	-2966
▁Z	-2967
▁详细	-2968
▁均	-2969
▁苍	-2970
▁两只	-2971
▁耗	-2972
▁态度	-2973
▁敬	-2974
▁社团	-2975
▁打包	-2976
▁聪明	-2977
▁决赛	-2978
▁内心	-2979
▁给力	-2980
▁霸气	-2981
▁爸妈	-2982
▁记住	-2983
▁店铺	-2984
▁水果	-2985
▁汪	-2986
▁离婚	-2987
▁圣诞	-2988
▁win	-2989
▁成年	-2990
▁济南	-2991
▁拜托	-2992
▁恩爱	-2993
▁萌萌哒	-2994
▁售后	-2995
▁37	-2996
▁十五	-2997
▁厘	-2998
▁卵	-2999
▁繁	-3000
▁响	-3001
▁吃药	-3002
▁事业	-3003
▁信号	-3004
▁学会	-3005
▁94	-3006
▁睡着	-3007
▁85	-3008
▁猴子	-3009
▁垫	-3010
▁获	-3011
▁彻	-3012
▁咸鱼	-3013
▁最强	-3014
▁辞	-3015
▁校服	-3016
▁壮	-3017
▁致	-3018
▁自行车	-3019
▁趁	-3020
▁开发	-3021
▁宅	-3022
▁做饭	-3023
▁肾	-3024
▁惠	-3025
▁新疆	-3026
▁主题	-3027
▁帅气	-3028
▁众	-3029
▁玛	-3030
▁物理	-3031
▁hi	-3032
▁献	-3033
▁美术	-3034
▁同时	-3035
▁广西	-3036
▁山西	-3037
▁庄	-3038
▁回到	-3039
▁摸摸	-3040
▁捧	-3041
▁厘米	-3042
▁51	-3043
▁寸	-3044
▁厅	-3045
▁迎	-3046
▁躲	-3047
▁前辈	-3048
▁神经	-3049
▁败	-3050
▁抢到	-3051
▁钓鱼	-3052
▁复制	-3053
▁笼	-3054
▁整天	-3055
▁摇	-3056
▁月底	-3057
▁吓死	-3058
▁39	-3059
▁辆	-3060
▁老实	-3061
▁初一	-3062
▁寻找	-3063
▁叶子	-3064
▁看懂	-3065
en	-3066
▁柯	-3067
▁零食	-3068
▁短信	-3069
▁丧	-3070
▁犹	-3071
▁缘分	-3072
▁作用	-3073
▁机智	-3074
▁肩	-3075
▁幽	-3076
▁攻击	-3077
▁高铁	-3078
▁刮	-3079
▁倾	-3080
▁中秋	-3081
▁过程	-3082
▁多么	-3083
▁勇士	-3084
▁袋	-3085
▁盐	-3086
▁语文	-3087
▁欲	-3088
▁铺	-3089
▁销售	-3090
▁装修	-3091
▁棵	-3092
▁52	-3093
▁火锅	-3094
▁理工	-3095
▁谷	-3096
▁吓人	-3097
▁ip	-3098
▁专门	-3099
▁陕	-3100
▁力量	-3101
la	-3102
▁本事	-3103
▁稍微	-3104
▁训练	-3105
▁1500	-3106
▁判	-3107
▁41	-3108
▁叼	-3109
▁教室	-3110
▁义	-3111
▁品牌	-3112
▁故意	-3113
▁伸	-3114
▁忧	-3115
▁妞	-3116
▁邓	-3117
▁ps	-3118
▁提示	-3119
▁假期	-3120
▁师姐	-3121
▁桶	-3122
▁召唤	-3123
▁抱抱	-3124
▁厦门	-3125
▁勇气	-3126
▁人类	-3127
▁投票	-3128
▁静静	-3129
▁宇宙	-3130
▁88	-3131
▁温度	-3132
▁德国	-3133
▁激活	-3134
▁夺	-3135
▁发给	-3136
▁项目	-3137
▁依然	-3138
▁纪念	-3139
▁伪	-3140
▁盛	-3141
▁愁	-3142
▁辽宁	-3143
▁建筑	-3144
▁页	-3145
▁仇	-3146
▁警察	-3147
▁阵容	-3148
▁割	-3149
▁凡	-3150
▁文字	-3151
▁助攻	-3152
▁性能	-3153
▁画面	-3154
▁大小	-3155
▁数字	-3156
▁笑话	-3157
▁一批	-3158
▁耳朵	-3159
▁肠	-3160
▁敏	-3161
▁以及	-3162
▁想你	-3163
▁享	-3164
▁兽	-3165
▁宜	-3166
▁700	-3167
▁小弟	-3168
▁摄影	-3169
▁保持	-3170
▁符合	-3171
▁多谢	-3172
▁中医	-3173
▁鸡蛋	-3174
▁乃	-3175
▁主流	-3176
▁跌	-3177
▁同事	-3178
▁损	-3179
▁连续	-3180
▁大人	-3181
▁卧	-3182
▁复读	-3183
▁咳	-3184
▁提醒	-3185
▁遮	-3186
▁温暖	-3187
▁扑	-3188
▁家庭	-3189
▁包括	-3190
▁眼皮	-3191
▁唠	-3192
▁LOL	-3193
▁看法	-3194
▁爷爷	-3195
▁格式	-3196
▁狐	-3197
▁代理	-3198
▁滑	-3199
▁旅行	-3200
▁眼神	-3201
▁刘海	-3202
▁舍友	-3203
▁危险	-3204
▁鼻子	-3205
▁缸	-3206
▁掏	-3207
▁澳	-3208
▁取消	-3209
▁知识	-3210
▁偷偷	-3211
▁脸上	-3212
▁二中	-3213
▁65	-3214
▁傲	-3215
▁比例	-3216
▁消费	-3217
▁75	-3218
▁一斤	-3219
▁劝	-3220
▁生物	-3221
▁净	-3222
▁五年	-3223
▁回归	-3224
▁英文	-3225
▁荒	-3226
▁驾校	-3227
▁大号	-3228
▁霍	-3229
▁裁	-3230
▁妆	-3231
▁周六	-3232
▁报到	-3233
▁提供	-3234
▁风扇	-3235
▁中文	-3236
▁分开	-3237
▁发布	-3238
▁失去	-3239
▁教程	-3240
▁合租	-3241
▁2017	-3242
▁无奈	-3243
▁焦	-3244
▁动力	-3245
▁细节	-3246
▁价值	-3247
▁罚	-3248
▁91	-3249
▁搭配	-3250
▁机子	-3251
ia	-3252
▁岂	-3253
▁护理	-3254
▁皇马	-3255
▁星座	-3256
▁自信	-3257
▁培训	-3258
▁卤	-3259
▁多长	-3260
▁科普	-3261
▁葡	-3262
▁矿	-3263
▁风景	-3264
▁仙女	-3265
▁44	-3266
▁心中	-3267
▁接触	-3268
▁犬	-3269
▁43	-3270
▁客户	-3271
▁地图	-3272
▁滚	-3273
▁柳	-3274
▁浅	-3275
▁看出	-3276
▁01	-3277
▁匹	-3278
▁西瓜	-3279
▁怀念	-3280
▁遭	-3281
▁骂人	-3282
▁荷	-3283
▁胎	-3284
▁谈谈	-3285
▁公园	-3286
▁虾	-3287
▁2014	-3288
▁沟	-3289
▁看书	-3290
▁过分	-3291
▁cd	-3292
▁抬	-3293
▁作死	-3294
▁怂	-3295
▁咧	-3296
▁听听	-3297
▁梗	-3298
▁08	-3299
▁调剂	-3300
▁壁纸	-3301
▁瓦	-3302
▁一辆	-3303
▁气质	-3304
▁铜	-3305
▁丹	-3306
▁特效	-3307
▁能够	-3308
▁姿势	-3309
▁租房	-3310
▁路人	-3311
▁开箱	-3312
▁主播	-3313
▁诸	-3314
▁咖啡	-3315
▁优秀	-3316
▁CP	-3317
ou	-3318
▁十八	-3319
▁好棒	-3320
▁闻	-3321
OS	-3322
▁科目	-3323
▁缓	-3324
▁房间	-3325
▁莱	-3326
▁就怕	-3327
▁家伙	-3328
▁彻底	-3329
▁拿来	-3330
▁识	-3331
▁下周	-3332
▁其它	-3333
▁低调	-3334
▁差评	-3335
▁制作	-3336
▁塑	-3337
▁较	-3338
▁郁	-3339
▁肝	-3340
▁杆	-3341
▁洞	-3342
▁依旧	-3343
▁螺	-3344
▁待遇	-3345
▁打工	-3346
▁58	-3347
▁美美	-3348
▁每年	-3349
▁鸽	-3350
▁举报	-3351
▁输入	-3352
▁池	-3353
▁大连	-3354
▁被子	-3355
▁镜头	-3356
▁中考	-3357
▁多数	-3358
▁高清	-3359
▁最美	-3360
▁够用	-3361
▁包子	-3362
▁体检	-3363
▁巅	-3364
▁晋	-3365
▁磕	-3366
▁口味	-3367
▁她说	-3368
▁宾	-3369
▁带走	-3370
▁信用	-3371
▁吊打	-3372
▁惊喜	-3373
▁仿	-3374
▁流畅	-3375
▁签名	-3376
▁投资	-3377
▁循	-3378
▁徒弟	-3379
▁啪	-3380
▁尸	-3381
▁猎	-3382
▁09	-3383
▁抖	-3384
me	-3385
▁咦	-3386
▁末	-3387
▁狗粮	-3388
▁砖	-3389
▁美人	-3390
▁侠	-3391
▁曹	-3392
▁打架	-3393
▁毫无	-3394
▁陌生	-3395
▁师范	-3396
▁这位	-3397
▁以内	-3398
▁捉	-3399
▁疯狂	-3400
▁面前	-3401
▁排位	-3402
▁强大	-3403
▁桂	-3404
▁葡萄	-3405
▁伟	-3406
▁驾照	-3407
▁射手	-3408
ad	-3409
▁吸引	-3410
▁人才	-3411
▁苦逼	-3412
▁难看	-3413
▁ok	-3414
▁何必	-3415
▁自从	-3416
▁程度	-3417
▁帽子	-3418
▁尔	-3419
▁地球	-3420
▁蚊	-3421
▁预测	-3422
▁机场	-3423
▁当兵	-3424
▁联赛	-3425
▁阔	-3426
▁偶像	-3427
▁角度	-3428
▁理想	-3429
▁文件	-3430
▁曝	-3431
▁遗憾	-3432
▁次元	-3433
▁绕	-3434
▁雾	-3435
▁医学	-3436
▁避	-3437
▁玩耍	-3438
▁能量	-3439
▁成长	-3440
▁揍	-3441
▁这部	-3442
▁首页	-3443
▁令	-3444
▁cm	-3445
▁化学	-3446
▁02	-3447
▁独立	-3448
▁施	-3449
▁三千	-3450
▁辣条	-3451
▁植	-3452
▁难度	-3453
▁且	-3454
▁嗷	-3455
▁47	-3456
姆斯	-3457
us	-3458
▁大街	-3459
▁嘲	-3460
▁噜	-3461
▁即使	-3462
▁限制	-3463
▁晨	-3464
▁怒	-3465
▁收入	-3466
▁开门	-3467
▁潜水	-3468
▁ss	-3469
▁汇	-3470
▁遥	-3471
▁93	-3472
▁右边	-3473
▁处男	-3474
▁左边	-3475
▁俄	-3476
▁360	-3477
▁挑战	-3478
▁按照	-3479
▁先生	-3480
▁表达	-3481
▁随时	-3482
▁记忆	-3483
is	-3484
▁捡到	-3485
or	-3486
▁捞	-3487
▁意外	-3488
▁飘过	-3489
▁好帅	-3490
▁绿色	-3491
▁综合	-3492
▁电动	-3493
▁无线	-3494
▁下雪	-3495
▁巴萨	-3496
▁土豆	-3497
▁闷	-3498
▁巅峰	-3499
▁券	-3500
▁高速	-3501
▁般	-3502
▁歌手	-3503
▁外观	-3504
▁造型	-3505
▁受伤	-3506
▁闲置	-3507
▁红米	-3508
▁报考	-3509
▁iP	-3510
▁哄	-3511
▁暗恋	-3512
▁相机	-3513
▁92	-3514
▁箱子	-3515
▁到货	-3516
▁澡	-3517
▁似乎	-3518
▁神奇	-3519
▁初恋	-3520
▁购买	-3521
▁专升	-3522
▁交通	-3523
▁in	-3524
▁五一	-3525
▁专升本	-3526
▁这儿	-3527
▁固态	-3528
▁应用	-3529
▁沈阳	-3530
▁晴	-3531
▁艾迪	-3532
▁or	-3533
▁手动	-3534
▁竹	-3535
▁饱	-3536
▁精品	-3537
▁关照	-3538
▁大专	-3539
▁暖男	-3540
▁玩儿	-3541
▁防守	-3542
▁主人	-3543
ve	-3544
▁值钱	-3545
▁嘎	-3546
▁好处	-3547
▁搬砖	-3548
▁国外	-3549
▁陕西	-3550
▁尖	-3551
▁bug	-3552
▁会好	-3553
▁悟	-3554
▁分期	-3555
▁07	-3556
▁赖	-3557
▁吼	-3558
▁提升	-3559
▁人员	-3560
▁验证	-3561
▁本身	-3562
▁粤	-3563
▁邮费	-3564
▁浓	-3565
▁梅西	-3566
▁大爷	-3567
▁能否	-3568
ing	-3569
▁削	-3570
▁平均	-3571
▁詹姆斯	-3572
▁下单	-3573
▁白银	-3574
▁完结	-3575
▁住宿	-3576
▁裂	-3577
▁客气	-3578
ifi	-3579
▁脖	-3580
▁原装	-3581
▁等于	-3582
▁双十	-3583
▁高级	-3584
▁到家	-3585
▁忠	-3586
ol	-3587
▁吃货	-3588
▁峰	-3589
▁埋	-3590
▁东方	-3591
▁两千	-3592
▁统一	-3593
▁海贼	-3594
▁今日	-3595
▁总会	-3596
▁家长	-3597
▁面对	-3598
▁燕	-3599
▁科比	-3600
▁定位	-3601
▁困难	-3602
▁摘	-3603
▁死人	-3604
▁尝试	-3605
▁110	-3606
▁越好	-3607
▁233	-3608
▁办公	-3609
▁女子	-3610
▁幸运	-3611
▁OK	-3612
▁49	-3613
▁羞	-3614
▁大妈	-3615
▁教官	-3616
▁雕	-3617
▁大陆	-3618
▁补考	-3619
▁阅	-3620
▁扩	-3621
▁例	-3622
▁双子	-3623
▁循环	-3624
▁付款	-3625
▁散热	-3626
▁废话	-3627
▁出手	-3628
▁勤	-3629
▁敌	-3630
▁错误	-3631
▁正确	-3632
▁小小	-3633
▁从小	-3634
▁学历	-3635
▁术	-3636
▁南昌	-3637
▁奈	-3638
▁金融	-3639
▁天猫	-3640
▁奶奶	-3641
▁痘痘	-3642
▁打球	-3643
▁消失	-3644
▁部队	-3645
▁好事	-3646
▁堪	-3647
▁61	-3648
▁空气	-3649
▁肌肉	-3650
▁婆婆	-3651
▁媒	-3652
▁碧	-3653
▁蒸	-3654
▁输出	-3655
▁勉	-3656
▁蛋糕	-3657
▁大声	-3658
▁套餐	-3659
▁答应	-3660
▁演技	-3661
▁早餐	-3662
▁莲	-3663
▁包装	-3664
▁合理	-3665
▁吾	-3666
▁抹	-3667
▁失恋	-3668
▁年代	-3669
▁固定	-3670
▁奶茶	-3671
▁就业	-3672
▁一名	-3673
▁矫	-3674
▁完整	-3675
▁名单	-3676
▁大众	-3677
▁根据	-3678
▁蜂	-3679
▁长相	-3680
▁旗舰	-3681
▁允许	-3682
▁对手	-3683
▁合肥	-3684
▁善良	-3685
▁和谐	-3686
▁旺	-3687
▁预定	-3688
▁练习	-3689
▁精灵	-3690
▁心酸	-3691
▁重启	-3692
▁46	-3693
▁一月	-3694
▁扶	-3695
▁落地	-3696
▁05	-3697
▁钥	-3698
▁罪	-3699
▁金刚	-3700
▁士	-3701
▁热水	-3702
▁app	-3703
▁罐	-3704
▁鲜肉	-3705
▁预告	-3706
▁暴露	-3707
▁贪	-3708
▁最终	-3709
▁炎	-3710
▁彼	-3711
▁报警	-3712
▁变得	-3713
ang	-3714
▁队长	-3715
▁外卖	-3716
▁设定	-3717
▁提高	-3718
▁象	-3719
▁添	-3720
▁贷款	-3721
▁250	-3722
▁配件	-3723
▁199	-3724
▁凌晨	-3725
▁享受	-3726
▁文艺	-3727
▁达到	-3728
▁外国	-3729
▁难得	-3730
▁表演	-3731
▁井	-3732
▁妥妥	-3733
▁壕	-3734
ar	-3735
▁画风	-3736
▁排队	-3737
▁钥匙	-3738
▁相处	-3739
▁一手	-3740
▁透明	-3741
▁楚	-3742
▁俱	-3743
▁郁闷	-3744
▁吵架	-3745
▁搜索	-3746
▁宽带	-3747
▁车子	-3748
▁浩	-3749
▁03	-3750
▁商量	-3751
▁做梦	-3752
▁自我	-3753
▁告白	-3754
▁连接	-3755
▁饺	-3756
▁赠	-3757
▁驱动	-3758
▁确认	-3759
▁开花	-3760
▁水瓶	-3761
▁桌子	-3762
▁瞧	-3763
▁信仰	-3764
▁超越	-3765
▁诱	-3766
▁注定	-3767
▁周边	-3768
▁130	-3769
▁青年	-3770
▁手写	-3771
▁进行	-3772
▁市区	-3773
▁小狗	-3774
▁梁	-3775
▁原价	-3776
▁杠	-3777
▁其中	-3778
▁一号	-3779
▁火箭	-3780
▁汗	-3781
▁女王	-3782
▁嫉	-3783
▁甚至	-3784
▁绝望	-3785
▁加一	-3786
▁白金	-3787
▁事件	-3788
▁收拾	-3789
▁麻将	-3790
▁54	-3791
▁仁	-3792
▁56	-3793
▁煎	-3794
ab	-3795
▁精彩	-3796
▁扬	-3797
▁面包	-3798
▁婚姻	-3799
▁打脸	-3800
▁芒	-3801
▁尺寸	-3802
▁来到	-3803
▁秘密	-3804
▁星星	-3805
▁于是	-3806
▁新区	-3807
▁佩服	-3808
▁经过	-3809
▁犹豫	-3810
▁175	-3811
▁加班	-3812
▁日语	-3813
▁嫉妒	-3814
▁种子	-3815
▁周围	-3816
▁手工	-3817
▁工具	-3818
▁贵州	-3819
▁翔	-3820
▁伯	-3821
▁淋	-3822
▁仪	-3823
▁斑	-3824
▁礼拜	-3825
▁剁	-3826
▁摊	-3827
▁wifi	-3828
▁堂	-3829
▁转让	-3830
▁脖子	-3831
▁顺丰	-3832
▁强迫	-3833
▁说法	-3834
▁贫	-3835
▁59	-3836
▁饺子	-3837
▁菲	-3838
▁高端	-3839
▁pro	-3840
▁气死	-3841
▁伦	-3842
▁太丑	-3843
▁框	-3844
▁想念	-3845
▁通宵	-3846
▁桩	-3847
▁委屈	-3848
▁组合	-3849
▁趴	-3850
▁匹配	-3851
▁一根	-3852
▁王子	-3853
▁搂	-3854
▁沙发	-3855
▁新鲜	-3856
▁辅导	-3857
▁四级	-3858
▁巨蟹	-3859
▁折腾	-3860
▁06	-3861
▁拦	-3862
▁蹦	-3863
▁三楼	-3864
▁可否	-3865
▁形容	-3866
▁耐心	-3867
▁清新	-3868
▁拿去	-3869
▁境	-3870
▁费用	-3871
▁酱油	-3872
▁并且	-3873
▁服从	-3874
▁糟	-3875
▁卤煮	-3876
▁淡定	-3877
▁打完	-3878
▁灌	-3879
▁啤	-3880
▁欧冠	-3881
▁句子	-3882
▁81	-3883
▁复杂	-3884
▁优势	-3885
▁好感	-3886
▁现代	-3887
▁亮点	-3888
▁发动	-3889
▁卢	-3890
▁周五	-3891
▁摩羯	-3892
▁逆袭	-3893
▁牛奶	-3894
▁挽	-3895
▁双十一	-3896
▁丸	-3897
▁要钱	-3898
▁偿	-3899
▁寿	-3900
▁袜	-3901
▁典	-3902
▁小哥	-3903
oss	-3904
▁假如	-3905
▁烧烤	-3906
▁某些	-3907
▁痴	-3908
▁搞定	-3909
▁足够	-3910
▁手指	-3911
▁穿越	-3912
▁挣钱	-3913
▁350	-3914
▁豆腐	-3915
▁摄像	-3916
▁眼里	-3917
▁祭	-3918
▁忽悠	-3919
▁个子	-3920
▁原创	-3921
▁融	-3922
▁懵	-3923
▁平常	-3924
▁物流	-3925
▁期末	-3926
▁吕	-3927
▁始	-3928
▁霜	-3929
▁预约	-3930
▁贤	-3931
▁降价	-3932
▁姜	-3933
▁2018	-3934
▁幼儿	-3935
▁怼	-3936
▁老鼠	-3937
▁cos	-3938
▁悲伤	-3939
▁一期	-3940
▁操场	-3941
▁接近	-3942
▁差别	-3943
▁ios	-3944
▁乘	-3945
▁天空	-3946
▁政治	-3947
▁正经	-3948
▁族	-3949
▁帕	-3950
▁金毛	-3951
▁舍得	-3952
▁中介	-3953
▁导致	-3954
▁阻	-3955
▁再次	-3956
▁春天	-3957
▁53	-3958
▁刹	-3959
▁辩	-3960
▁正版	-3961
▁护肤	-3962
▁五百	-3963
▁bb	-3964
▁草莓	-3965
▁勿扰	-3966
▁营养	-3967
▁进球	-3968
▁描	-3969
▁画画	-3970
▁前提	-3971
▁凤凰	-3972
▁丢人	-3973
▁欧洲	-3974
▁小伙子	-3975
▁全家	-3976
▁反而	-3977
▁开放	-3978
▁家乡	-3979
▁sh	-3980
▁灿	-3981
▁思想	-3982
▁毛线	-3983
▁早起	-3984
▁孕	-3985
▁有效	-3986
▁增加	-3987
▁眼光	-3988
▁瞅	-3989
▁抠	-3990
▁团队	-3991
▁几率	-3992
▁锤子	-3993
ic	-3994
▁同志	-3995
▁胡子	-3996
▁心动	-3997
▁智障	-3998
▁双鱼	-3999
▁公务	-4000
▁眼泪	-4001
▁户口	-4002
▁闺女	-4003
▁拯	-4004
▁周年	-4005
▁神器	-4006
▁适应	-4007
▁醒来	-4008
▁佐	-4009
▁鼠标	-4010
▁策	-4011
▁迈	-4012
▁安利	-4013
▁崩溃	-4014
▁拯救	-4015
▁护士	-4016
▁脆	-4017
▁66	-4018
▁奖励	-4019
▁复活	-4020
▁奋	-4021
▁面子	-4022
▁税	-4023
▁萧	-4024
▁真人	-4025
▁白羊	-4026
am	-4027
▁粮	-4028
▁贺电	-4029
▁门票	-4030
▁柜	-4031
▁年底	-4032
▁上线	-4033
▁元旦	-4034
▁特殊	-4035
▁目的	-4036
▁房价	-4037
▁露珠	-4038
▁教学	-4039
▁十分	-4040
▁液	-4041
▁78	-4042
▁战争	-4043
▁扭	-4044
▁它们	-4045
▁进步	-4046
▁辞职	-4047
▁渣男	-4048
▁嘴巴	-4049
▁民族	-4050
▁低价	-4051
▁顺眼	-4052
▁两人	-4053
▁开头	-4054
▁圈子	-4055
▁绵	-4056
▁烈	-4057
▁笼子	-4058
▁公寓	-4059
▁鲁能	-4060
▁妇	-4061
▁痒	-4062
▁十三	-4063
▁越狱	-4064
▁iPhone	-4065
▁永久	-4066
▁宾馆	-4067
葫芦	-4068
▁主机	-4069
▁轰	-4070
▁配合	-4071
▁舰	-4072
▁划算	-4073
▁周一	-4074
▁美食	-4075
▁百万	-4076
▁实现	-4077
▁立马	-4078
▁赫	-4079
▁邀	-4080
▁04	-4081
▁商务	-4082
▁缝	-4083
▁mi	-4084
▁正面	-4085
▁相对	-4086
▁还算	-4087
▁淮	-4088
▁调戏	-4089
▁肉肉	-4090
▁做人	-4091
▁卖萌	-4092
▁坐车	-4093
▁外套	-4094
▁暖暖	-4095
▁生产	-4096
▁至今	-4097
▁范围	-4098
▁72	-4099
▁何以	-4100
▁做完	-4101
▁岗	-4102
▁爆发	-4103
▁帐	-4104
▁顺利	-4105
▁打击	-4106
▁掰	-4107
▁突破	-4108
▁公务员	-4109
▁同款	-4110
▁浇	-4111
▁赏	-4112
▁本子	-4113
▁赐	-4114
▁泉	-4115
▁巴西	-4116
▁扛	-4117
▁追求	-4118
▁啤酒	-4119
▁兑	-4120
▁单机	-4121
▁审核	-4122
▁伞	-4123
▁听歌	-4124
▁闲鱼	-4125
▁出场	-4126
▁塑料	-4127
▁流行	-4128
▁死亡	-4129
▁整理	-4130
▁别闹	-4131
▁bi	-4132
▁地点	-4133
▁原图	-4134
▁期间	-4135
▁PS	-4136
▁粤语	-4137
▁麻麻	-4138
▁付出	-4139
▁妮	-4140
▁苏宁	-4141
▁迷茫	-4142
▁吹牛	-4143
▁好歹	-4144
▁歌曲	-4145
▁成本	-4146
▁播放	-4147
▁僵	-4148
▁理论	-4149
▁库里	-4150
▁戒指	-4151
▁撤	-4152
▁披	-4153
▁投诉	-4154
▁解锁	-4155
▁湾	-4156
▁冒泡	-4157
▁打扰	-4158
▁积分	-4159
le	-4160
▁洪	-4161
▁邻	-4162
▁上门	-4163
▁路飞	-4164
▁跨年	-4165
▁县城	-4166
▁灵魂	-4167
▁自家	-4168
▁老头	-4169
▁修复	-4170
▁熟人	-4171
▁盾	-4172
▁营业	-4173
▁觉醒	-4174
▁初二	-4175
un	-4176
▁究	-4177
▁全身	-4178
▁话费	-4179
▁统计	-4180
▁早日	-4181
▁国安	-4182
▁岳	-4183
▁创业	-4184
▁前期	-4185
▁董	-4186
▁男子	-4187
▁哲	-4188
▁boss	-4189
▁捐	-4190
▁俱乐	-4191
▁敲	-4192
▁金币	-4193
▁VS	-4194
▁设备	-4195
▁弓	-4196
▁俱乐部	-4197
▁宗	-4198
▁衬	-4199
▁同桌	-4200
▁140	-4201
▁大姐	-4202
▁正规	-4203
▁指甲	-4204
▁害羞	-4205
▁花园	-4206
▁联想	-4207
▁黑白	-4208
▁靴	-4209
▁燃	-4210
▁时期	-4211
▁成就	-4212
▁孤单	-4213
▁玩具	-4214
▁调查	-4215
ir	-4216
▁企业	-4217
▁do	-4218
▁工业	-4219
▁公布	-4220
▁宏	-4221
▁形象	-4222
▁cdx	-4223
▁氪	-4224
▁萝卜	-4225
▁炉	-4226
▁恰	-4227
▁水晶	-4228
▁淘汰	-4229
▁煤	-4230
▁续航	-4231
▁咔	-4232
▁凑合	-4233
▁长腿	-4234
▁黄色	-4235
▁陪伴	-4236
▁检测	-4237
▁大战	-4238
▁昆明	-4239
▁路由	-4240
▁意识	-4241
▁最佳	-4242
▁165	-4243
▁旋	-4244
▁机电	-4245
▁攻略	-4246
▁删除	-4247
▁营销	-4248
家庄	-4249
▁过后	-4250
▁yy	-4251
▁手续	-4252
▁手感	-4253
▁黑龙	-4254
▁雄	-4255
▁蝴	-4256
▁到位	-4257
▁傻子	-4258
▁搓	-4259
▁九月	-4260
▁腹肌	-4261
▁900	-4262
▁好评	-4263
▁体会	-4264
▁伐	-4265
▁负责	-4266
▁挂科	-4267
▁芒果	-4268
▁孝	-4269
▁发票	-4270
▁行业	-4271
▁黑子	-4272
▁ti	-4273
▁一夜	-4274
▁捷	-4275
▁矛	-4276
▁强行	-4277
▁蝴蝶	-4278
▁勉强	-4279
▁阳台	-4280
▁爱吃	-4281
▁买房	-4282
▁姬	-4283
▁背后	-4284
▁4.	-4285
▁巡	-4286
▁硕	-4287
▁籽	-4288
▁坦克	-4289
▁满足	-4290
▁业务	-4291
▁壶	-4292
大利	-4293
▁传奇	-4294
▁办理	-4295
▁曼联	-4296
▁海南	-4297
▁服装	-4298
▁好运	-4299
▁鸽子	-4300
▁肖	-4301
▁东莞	-4302
▁票房	-4303
▁后卫	-4304
▁大事	-4305
▁宝石	-4306
▁冲动	-4307
▁520	-4308
▁上下	-4309
▁那年	-4310
▁邮箱	-4311
▁领养	-4312
▁曝光	-4313
▁教师	-4314
▁绑定	-4315
▁概率	-4316
▁去掉	-4317
▁缺点	-4318
▁校长	-4319
▁魏	-4320
▁韦	-4321
▁夺冠	-4322
▁喝水	-4323
▁vs	-4324
▁文章	-4325
▁则	-4326
▁舞蹈	-4327
vo	-4328
▁坑爹	-4329
▁发挥	-4330
▁否则	-4331
▁花花	-4332
▁揭	-4333
▁石家庄	-4334
▁扇	-4335
▁内部	-4336
▁持续	-4337
▁睡醒	-4338
▁脑袋	-4339
▁土木	-4340
▁销量	-4341
▁累死	-4342
▁黑暗	-4343
▁吻	-4344
▁粥	-4345
▁恩恩	-4346
▁档次	-4347
▁vi	-4348
▁十万	-4349
▁天真	-4350
▁师大	-4351
▁批发	-4352
▁打字	-4353
▁调整	-4354
▁流浪	-4355
▁地下	-4356
▁火影	-4357
▁疑问	-4358
▁提问	-4359
▁隐藏	-4360
▁临时	-4361
▁金色	-4362
▁牛肉	-4363
▁倒数	-4364
▁好美	-4365
▁行动	-4366
▁幅	-4367
▁信心	-4368
▁钱包	-4369
▁题目	-4370
▁加速	-4371
▁脑洞	-4372
▁馒	-4373
▁啃	-4374
▁1200	-4375
▁cpu	-4376
▁128	-4377
▁从此	-4378
▁瘫	-4379
▁季节	-4380
▁无力	-4381
▁用户	-4382
▁好呀	-4383
▁合同	-4384
▁网速	-4385
▁定制	-4386
▁管用	-4387
▁破解	-4388
▁还剩	-4389
▁桃花	-4390
▁沃	-4391
▁TM	-4392
▁68	-4393
▁企鹅	-4394
▁生病	-4395
其妙	-4396
▁专辑	-4397
▁校友	-4398
▁植物	-4399
▁古风	-4400
▁链	-4401
▁葫芦	-4402
▁队伍	-4403
▁运行	-4404
▁感人	-4405
▁规定	-4406
▁莫名其妙	-4407
▁屠	-4408
▁程序	-4409
▁馒头	-4410
▁酒吧	-4411
▁买车	-4412
▁刷机	-4413
▁江湖	-4414
▁辉	-4415
▁郎	-4416
▁慎	-4417
▁乳	-4418
▁收视	-4419
▁一觉	-4420
▁金牛	-4421
▁蔡	-4422
▁南宁	-4423
▁相同	-4424
▁单独	-4425
▁62	-4426
▁光棍	-4427
▁停电	-4428
▁人数	-4429
▁首发	-4430
▁那位	-4431
▁平衡	-4432
▁媒体	-4433
▁索尼	-4434
▁57	-4435
▁加盟	-4436
▁补充	-4437
▁尚	-4438
▁盘点	-4439
▁靓	-4440
▁满意	-4441
▁八字	-4442
▁青铜	-4443
▁情绪	-4444
▁争取	-4445
▁优先	-4446
▁阿拉	-4447
▁哩	-4448
▁慕	-4449
▁退货	-4450
▁急求	-4451
▁清晰	-4452
▁亦	-4453
▁赶快	-4454
▁傲娇	-4455
▁89	-4456
▁乖乖	-4457
▁仓鼠	-4458
▁轩	-4459
▁心痛	-4460
▁赶脚	-4461
▁鸣	-4462
▁夸张	-4463
▁热情	-4464
▁网友	-4465
▁泽	-4466
▁ex	-4467
▁同行	-4468
▁潘	-4469
▁被窝	-4470
▁穆	-4471
▁月亮	-4472
▁泰迪	-4473
▁再买	-4474
▁铃	-4475
▁上岸	-4476
▁69	-4477
▁行为	-4478
▁剃	-4479
▁拥抱	-4480
▁日期	-4481
▁洛阳	-4482
▁悲剧	-4483
▁芝	-4484
▁蚊子	-4485
▁时刻	-4486
▁橘	-4487
▁魔法	-4488
▁桌面	-4489
▁规则	-4490
et	-4491
▁岁月	-4492
▁卖给	-4493
▁活跃	-4494
▁猫咪	-4495
▁呼吸	-4496
▁有限	-4497
▁拐	-4498
▁梨	-4499
▁如今	-4500
▁导演	-4501
oot	-4502
▁主力	-4503
▁老虎	-4504
at	-4505
▁矫情	-4506
▁泰国	-4507
▁驴	-4508
▁举牌	-4509
ay	-4510
▁朵	-4511
▁天生	-4512
▁节操	-4513
▁哎呦	-4514
▁姚	-4515
▁指纹	-4516
▁裁判	-4517
▁动手	-4518
▁绘	-4519
▁相关	-4520
▁浴	-4521
▁噶	-4522
▁崇	-4523
▁家族	-4524
▁替补	-4525
▁哒哒	-4526
▁伸手	-4527
▁大约	-4528
▁显得	-4529
▁悠	-4530
▁鹿晗	-4531
▁槽	-4532
▁牧	-4533
▁陶	-4534
▁道歉	-4535
▁保修	-4536
克力	-4537
▁加点	-4538
▁保存	-4539
▁爷们	-4540
▁获得	-4541
▁中药	-4542
▁感到	-4543
▁ad	-4544
▁剧场	-4545
▁清理	-4546
▁针对	-4547
▁蜘	-4548
▁公开	-4549
▁纯洁	-4550
▁工商	-4551
▁段位	-4552
▁逻	-4553
▁一季	-4554
▁骨头	-4555
▁大量	-4556
▁金属	-4557
▁共同	-4558
▁玉米	-4559
▁翻车	-4560
▁商家	-4561
▁强势	-4562
▁段子	-4563
▁上床	-4564
▁欢乐	-4565
▁培养	-4566
▁劳资	-4567
▁蜘蛛	-4568
▁证据	-4569
▁主场	-4570
▁沾	-4571
▁周日	-4572
▁一线	-4573
▁势	-4574
▁中华	-4575
▁过敏	-4576
▁神秘	-4577
▁宁愿	-4578
▁悟空	-4579
▁逻辑	-4580
▁驾驶	-4581
▁450	-4582
▁启动	-4583
▁地理	-4584
▁女性	-4585
▁何时	-4586
▁代价	-4587
▁天秤	-4588
▁网名	-4589
▁鼓励	-4590
▁涨价	-4591
▁中超	-4592
▁pl	-4593
▁师父	-4594
▁室内	-4595
▁嫂	-4596
▁对着	-4597
▁关机	-4598
▁准确	-4599
▁童鞋	-4600
▁骄	-4601
▁舌	-4602
▁出事	-4603
▁普通话	-4604
▁就该	-4605
▁手游	-4606
▁斜	-4607
▁跳舞	-4608
▁变形	-4609
▁84	-4610
▁抑	-4611
▁鄙	-4612
▁卫视	-4613
▁奉	-4614
▁毛钱	-4615
▁黑人	-4616
▁抄袭	-4617
▁网店	-4618
▁修改	-4619
▁班长	-4620
▁疫	-4621
▁央	-4622
▁直男	-4623
▁2500	-4624
▁柔	-4625
▁重复	-4626
▁羽毛	-4627
▁袜子	-4628
▁幼稚	-4629
▁住在	-4630
▁逮	-4631
▁卸载	-4632
▁晚饭	-4633
ow	-4634
▁发动机	-4635
▁粉色	-4636
▁高数	-4637
▁十天	-4638
▁极品	-4639
▁下课	-4640
▁极限	-4641
▁翅	-4642
▁更加	-4643
▁将就	-4644
▁阶段	-4645
▁悄	-4646
▁就叫	-4647
▁叉	-4648
▁仍	-4649
▁掐	-4650
▁福州	-4651
▁周杰	-4652
▁工地	-4653
▁出国	-4654
▁假货	-4655
▁内涵	-4656
▁厌	-4657
▁公平	-4658
▁法国	-4659
▁进攻	-4660
▁总结	-4661
▁非洲	-4662
▁马路	-4663
▁套装	-4664
▁美版	-4665
▁自考	-4666
▁高配	-4667
▁为止	-4668
▁地位	-4669
▁八月	-4670
▁维修	-4671
▁那时	-4672
▁幸好	-4673
▁商城	-4674
▁成色	-4675
▁168	-4676
▁押	-4677
▁邀请	-4678
12	-4679
▁mm	-4680
▁打折	-4681
▁妻	-4682
▁兴奋	-4683
▁像素	-4684
▁全程	-4685
▁百合	-4686
▁西藏	-4687
▁完事	-4688
▁人心	-4689
▁浑	-4690
▁扒皮	-4691
oy	-4692
▁起步	-4693
▁万能	-4694
▁哇塞	-4695
▁巴黎	-4696
▁睁	-4697
▁停车	-4698
▁棒子	-4699
▁安心	-4700
▁嗓	-4701
▁收获	-4702
▁模拟	-4703
▁登录	-4704
▁节日	-4705
▁解放	-4706
▁前途	-4707
▁狐狸	-4708
ei	-4709
▁膝	-4710
▁尊重	-4711
▁两点	-4712
▁祈	-4713
▁埃	-4714
es	-4715
▁摸头	-4716
▁软妹	-4717
▁黎	-4718
▁戒色	-4719
go	-4720
▁root	-4721
▁内蒙	-4722
▁背影	-4723
▁路线	-4724
▁协会	-4725
▁ta	-4726
▁63	-4727
▁法律	-4728
▁难听	-4729
▁铁路	-4730
▁皇帝	-4731
▁部门	-4732
▁奴	-4733
PP	-4734
▁刚来	-4735
▁带来	-4736
▁渡	-4737
▁优酷	-4738
▁魅力	-4739
▁人人	-4740
▁补课	-4741
▁盯	-4742
▁加强	-4743
▁活该	-4744
▁劫	-4745
▁67	-4746
▁整体	-4747
▁皆	-4748
▁衡	-4749
▁逛街	-4750
▁骑车	-4751
▁主持	-4752
▁援	-4753
▁保养	-4754
▁绣	-4755
▁餐厅	-4756
▁秃	-4757
▁字体	-4758
▁电气	-4759
▁即可	-4760
▁总之	-4761
▁网易	-4762
▁新车	-4763
▁自学	-4764
▁一模	-4765
▁写完	-4766
▁万年	-4767
▁周杰伦	-4768
▁后台	-4769
▁动态	-4770
▁现货	-4771
▁夜班	-4772
▁分别	-4773
▁观察	-4774
▁优化	-4775
▁天然	-4776
▁坨	-4777
▁大王	-4778
▁诚心	-4779
▁字母	-4780
▁五月	-4781
▁月饼	-4782
▁中央	-4783
▁坚强	-4784
▁许多	-4785
▁七天	-4786
▁某人	-4787
▁登记	-4788
▁俊	-4789
▁斩	-4790
▁77	-4791
▁请假	-4792
▁姓名	-4793
▁手表	-4794
▁机箱	-4795
▁拍摄	-4796
▁彼此	-4797
▁兮	-4798
▁一碗	-4799
▁两种	-4800
▁愿望	-4801
▁班级	-4802
▁跑路	-4803
▁情缘	-4804
▁头上	-4805
▁178	-4806
▁备胎	-4807
ee	-4808
▁奶粉	-4809
▁750	-4810
▁口水	-4811
▁收集	-4812
▁奢	-4813
▁万达	-4814
▁课程	-4815
▁185	-4816
mm	-4817
▁奋斗	-4818
▁广播	-4819
▁半月	-4820
▁科幻	-4821
▁虫子	-4822
▁世纪	-4823
▁朴	-4824
▁pp	-4825
▁那儿	-4826
▁泡面	-4827
▁胜利	-4828
▁手绘	-4829
▁打野	-4830
▁哎哟	-4831
▁啵	-4832
▁早饭	-4833
▁蜀	-4834
▁外援	-4835
▁症状	-4836
▁感激	-4837
▁留名	-4838
▁组团	-4839
▁饿死	-4840
▁敏感	-4841
▁开启	-4842
▁当地	-4843
▁国服	-4844
▁孟	-4845
▁倒霉	-4846
▁儿童	-4847
▁同城	-4848
▁三国	-4849
▁秀秀	-4850
▁大型	-4851
▁英国	-4852
▁咳咳	-4853
▁责	-4854
▁网通	-4855
▁重装	-4856
▁巧克力	-4857
▁合格	-4858
▁太原	-4859
▁车站	-4860
▁快速	-4861
▁伤不起	-4862
▁授	-4863
▁拜仁	-4864
▁每日	-4865
▁祸	-4866
▁吃饱	-4867
▁一趟	-4868
▁运费	-4869
▁充值	-4870
▁可乐	-4871
▁镜子	-4872
▁改名	-4873
▁歧	-4874
▁娇	-4875
▁听话	-4876
▁co	-4877
▁叠	-4878
▁87	-4879
▁早晚	-4880
▁观众	-4881
▁明信	-4882
▁耗电	-4883
▁兜	-4884
▁贾	-4885
▁不知	-4886
▁昌	-4887
▁打卡	-4888
▁风险	-4889
▁寺	-4890
▁大头	-4891
▁明信片	-4892
▁名额	-4893
▁战队	-4894
▁豆瓣	-4895
▁面积	-4896
▁心脏	-4897
▁打分	-4898
▁啦啦	-4899
▁发贴	-4900
▁丶	-4901
▁单子	-4902
▁YY	-4903
▁温州	-4904
罗斯	-4905
▁早晨	-4906
▁成员	-4907
▁宁波	-4908
▁实惠	-4909
▁三中	-4910
▁怨	-4911
▁将来	-4912
▁春节	-4913
▁代言	-4914
▁片子	-4915
▁贡	-4916
▁袁	-4917
▁患	-4918
▁可靠	-4919
▁礼包	-4920
▁上传	-4921
▁腊	-4922
▁烦恼	-4923
▁女装	-4924
▁两万	-4925
▁报告	-4926
▁矛盾	-4927
▁*	-4928
▁击	-4929
▁欧巴	-4930
▁栏	-4931
▁刷新	-4932
▁法师	-4933
▁难怪	-4934
▁补录	-4935
▁微笑	-4936
▁究竟	-4937
BA	-4938
▁见识	-4939
▁小吃	-4940
▁浪漫	-4941
▁把握	-4942
▁下水	-4943
▁枝	-4944
▁战士	-4945
▁竞争	-4946
▁政策	-4947
▁妙	-4948
▁柴	-4949
▁底下	-4950
▁骄傲	-4951
▁83	-4952
▁一秒	-4953
▁漆	-4954
▁商业	-4955
▁无锡	-4956
▁留给	-4957
▁忧伤	-4958
▁案	-4959
▁熊猫	-4960
▁前后	-4961
▁发热	-4962
▁快快	-4963
▁补水	-4964
▁悄悄	-4965
▁鹰	-4966
▁十六	-4967
▁公斤	-4968
▁洁	-4969
▁阁	-4970
▁半场	-4971
▁理智	-4972
▁马甲	-4973
▁乙	-4974
ry	-4975
▁多肉	-4976
▁奇艺	-4977
▁入门	-4978
▁发言	-4979
▁歇	-4980
▁暖气	-4981
▁发表	-4982
▁CPU	-4983
▁界面	-4984
▁婚纱	-4985
▁冷静	-4986
▁额度	-4987
▁恐惧	-4988
▁太帅	-4989
▁拉拉	-4990
▁能带	-4991
▁实物	-4992
▁头疼	-4993
▁清明	-4994
▁当天	-4995
▁洗衣	-4996
▁实用	-4997
▁两位	-4998
▁忽略	-4999
▁打印	-5000
▁保安	-5001
▁十四	-5002
▁战力	-5003
▁但愿	-5004
▁论文	-5005
▁溜达	-5006
▁雷锋	-5007
▁食物	-5008
▁晃	-5009
▁模型	-5010
▁润	-5011
▁画质	-5012
▁临床	-5013
▁看不起	-5014
▁整容	-5015
▁那段	-5016
▁随机	-5017
▁出名	-5018
▁潍	-5019
▁海报	-5020
▁坏人	-5021
▁购物	-5022
▁闯	-5023
▁工厂	-5024
li	-5025
▁粘人	-5026
▁百姓	-5027
▁特色	-5028
▁强烈	-5029
▁抓紧	-5030
▁芯	-5031
▁奇迹	-5032
▁支招	-5033
▁前段	-5034
▁选手	-5035
▁体力	-5036
▁上映	-5037
▁蜡	-5038
▁抛弃	-5039
▁疫苗	-5040
▁放过	-5041
▁观点	-5042
▁异性	-5043
▁技巧	-5044
▁霉	-5045
▁棍	-5046
▁诱惑	-5047
▁吃肉	-5048
▁长春	-5049
▁彩虹	-5050
▁聚会	-5051
▁艰	-5052
▁甜甜	-5053
▁资金	-5054
得及	-5055
▁概念	-5056
▁老妈	-5057
▁运营	-5058
▁人口	-5059
▁核心	-5060
▁隆	-5061
vp	-5062
▁吉林	-5063
▁徐州	-5064
▁邻居	-5065
▁数量	-5066
▁台词	-5067
▁轴	-5068
▁学渣	-5069
▁肺	-5070
▁主意	-5071
▁假装	-5072
▁敷	-5073
▁十月	-5074
▁人设	-5075
▁只求	-5076
▁饭店	-5077
▁氧	-5078
▁谦	-5079
▁不仅	-5080
▁忽然	-5081
▁眉毛	-5082
▁好冷	-5083
▁思考	-5084
▁开通	-5085
▁下巴	-5086
11	-5087
▁乐视	-5088
▁缠	-5089
▁剧透	-5090
▁三角	-5091
▁素颜	-5092
▁ch	-5093
▁封面	-5094
▁叭	-5095
▁GT	-5096
▁分配	-5097
▁喷子	-5098
ff	-5099
▁完毕	-5100
▁来得及	-5101
▁183	-5102
▁幻想	-5103
▁理发	-5104
▁汉服	-5105
▁瘫痪	-5106
▁尽管	-5107
▁破坏	-5108
▁爱国	-5109
▁俗	-5110
▁同人	-5111
▁光头	-5112
▁俄罗斯	-5113
▁干脆	-5114
▁抓住	-5115
▁参与	-5116
▁翘	-5117
▁天才	-5118
▁开业	-5119
▁功夫	-5120
▁信任	-5121
▁复试	-5122
▁建设	-5123
▁野生	-5124
▁交换	-5125
▁员工	-5126
▁全场	-5127
▁潇	-5128
▁声控	-5129
▁瑕	-5130
▁兰州	-5131
▁还给	-5132
▁约会	-5133
▁无脑	-5134
▁天赋	-5135
▁冰箱	-5136
▁还原	-5137
▁维护	-5138
▁一篇	-5139
▁渐	-5140
▁解说	-5141
▁650	-5142
▁桐	-5143
▁下场	-5144
▁路口	-5145
▁平板	-5146
▁求学	-5147
▁乌龟	-5148
▁凉快	-5149
▁退役	-5150
▁嘤	-5151
▁菩	-5152
▁瓜子	-5153
▁交钱	-5154
▁plus	-5155
▁膝盖	-5156
▁东京	-5157
▁再来	-5158
▁个性	-5159
▁仰	-5160
▁小鱼	-5161
▁123	-5162
▁中奖	-5163
▁薛	-5164
▁何况	-5165
▁手残	-5166
▁盼	-5167
▁闲着	-5168
▁认证	-5169
▁湘	-5170
▁退出	-5171
▁饮料	-5172
▁命运	-5173
▁跟风	-5174
▁符号	-5175
aby	-5176
▁晚会	-5177
▁磁	-5178
▁过节	-5179
▁280	-5180
▁文明	-5181
▁水军	-5182
▁大招	-5183
▁辣椒	-5184
▁86	-5185
▁唇	-5186
▁战场	-5187
ac	-5188
▁放学	-5189
▁迅	-5190
▁沧	-5191
▁牙齿	-5192
▁订单	-5193
▁低于	-5194
▁安稳	-5195
▁模糊	-5196
▁螺丝	-5197
▁相比	-5198
▁下车	-5199
▁西游	-5200
▁会长	-5201
▁嫁给	-5202
▁备注	-5203
▁趟	-5204
▁人士	-5205
▁伤感	-5206
▁借钱	-5207
▁称呼	-5208
▁误会	-5209
▁帝国	-5210
▁樱花	-5211
▁EX	-5212
▁小新	-5213
▁后宫	-5214
▁做工	-5215
▁沉默	-5216
▁师妹	-5217
▁陷	-5218
▁司马	-5219
▁黑龙江	-5220
▁82	-5221
▁地主	-5222
▁时尚	-5223
▁柱	-5224
▁买票	-5225
▁棋	-5226
▁盲	-5227
▁庆祝	-5228
▁寡	-5229
▁蛤	-5230
▁左手	-5231
▁和好	-5232
▁早睡	-5233
▁每月	-5234
▁唠嗑	-5235
▁工大	-5236
▁珠子	-5237
▁瓶子	-5238
▁灰色	-5239
▁交警	-5240
▁阴阳	-5241
▁柠	-5242
▁一方	-5243
▁地狱	-5244
▁iphone	-5245
▁柯南	-5246
▁抑郁	-5247
▁意大利	-5248
▁发烧	-5249
▁跑到	-5250
▁伟大	-5251
▁证书	-5252
90	-5253
▁一盒	-5254
▁承受	-5255
▁皂	-5256
▁字幕	-5257
▁科大	-5258
▁炖	-5259
▁途	-5260
▁巨人	-5261
▁骚年	-5262
op	-5263
▁鹅	-5264
▁传统	-5265
▁激情	-5266
▁爆出	-5267
▁歧视	-5268
▁彭	-5269
▁妈呀	-5270
▁艳	-5271
▁右手	-5272
▁朕	-5273
▁网页	-5274
▁借口	-5275
▁楼层	-5276
▁投档	-5277
▁无爱	-5278
▁人工	-5279
▁TA	-5280
▁规矩	-5281
as	-5282
▁蘑	-5283
▁三月	-5284
▁守护	-5285
▁就让	-5286
▁晚点	-5287
▁190	-5288
▁博士	-5289
▁登陆	-5290
▁渠	-5291
▁闪电	-5292
▁浏	-5293
▁童年	-5294
▁肛	-5295
▁到期	-5296
▁亚洲	-5297
▁挥	-5298
▁智能	-5299
▁大巴	-5300
▁大理	-5301
▁描述	-5302
▁BB	-5303
▁报价	-5304
▁对待	-5305
▁枚	-5306
▁原著	-5307
▁由于	-5308
▁愧	-5309
▁直到	-5310
▁相互	-5311
▁喝茶	-5312
▁好笑	-5313
▁真棒	-5314
▁从未	-5315
▁佬	-5316
TV	-5317
▁收购	-5318
▁选修	-5319
▁orz	-5320
▁奥特	-5321
▁蕾	-5322
▁崔	-5323
▁造成	-5324
一样	-5325
▁一模一样	-5326
▁益	-5327
▁纵	-5328
▁股票	-5329
▁牡	-5330
▁利息	-5331
▁丽江	-5332
▁三观	-5333
▁临沂	-5334
▁天涯	-5335
▁翅膀	-5336
▁碳	-5337
▁勇敢	-5338
▁伏	-5339
▁仇恨	-5340
▁律	-5341
▁印度	-5342
▁玩意儿	-5343
▁新款	-5344
▁酸奶	-5345
▁全集	-5346
▁霸道	-5347
▁友谊	-5348
▁十七	-5349
▁编剧	-5350
▁保健	-5351
▁指望	-5352
▁盗版	-5353
▁飞行	-5354
▁尘	-5355
▁文学	-5356
▁客观	-5357
▁和尚	-5358
▁弱智	-5359
▁全面	-5360
▁挂机	-5361
▁分辨	-5362
▁蘑菇	-5363
▁路边	-5364
▁紫色	-5365
▁僵尸	-5366
▁re	-5367
▁反馈	-5368
▁人们	-5369
▁将军	-5370
▁潍坊	-5371
▁集合	-5372
▁进化	-5373
▁三方	-5374
▁短袖	-5375
▁普遍	-5376
▁删掉	-5377
▁胳	-5378
▁四大	-5379
▁帧	-5380
▁畅	-5381
▁瑕疵	-5382
▁后续	-5383
▁疾	-5384
▁导航	-5385
▁枣	-5386
▁回收	-5387
▁全球	-5388
▁您好	-5389
▁前锋	-5390
88	-5391
▁天冷	-5392
▁长久	-5393
▁审美	-5394
▁福袋	-5395
▁me	-5396
ui	-5397
▁1080	-5398
▁用完	-5399
▁释	-5400
▁商店	-5401
▁清华	-5402
▁专卖	-5403
▁碎片	-5404
▁瑟	-5405
▁主义	-5406
▁顶级	-5407
▁瓷	-5408
▁baby	-5409
▁哀	-5410
▁什	-5411
▁现象	-5412
▁上市	-5413
▁单挑	-5414
▁模特	-5415
▁高度	-5416
▁交往	-5417
▁mo	-5418
▁现金	-5419
▁公路	-5420
▁分钱	-5421
▁孙子	-5422
▁摆摊	-5423
▁躺着	-5424
▁图标	-5425
▁刹车	-5426
▁瞎说	-5427
▁始终	-5428
▁浦	-5429
▁尝尝	-5430
▁穿过	-5431
▁判断	-5432
▁求救	-5433
▁涉	-5434
▁婚礼	-5435
▁盗墓	-5436
▁母亲	-5437
▁捕	-5438
▁提到	-5439
▁成品	-5440
▁耽	-5441
▁抚	-5442
▁高点	-5443
▁失误	-5444
▁山寨	-5445
▁很丑	-5446
▁交给	-5447
▁度过	-5448
▁调皮	-5449
▁饭卡	-5450
▁热门	-5451
▁朗	-5452
▁硬件	-5453
al	-5454
▁屏蔽	-5455
▁3500	-5456
▁专用	-5457
▁急需	-5458
▁重修	-5459
▁菠	-5460
▁下山	-5461
▁侵	-5462
▁老爸	-5463
▁黄瓜	-5464
▁后果	-5465
▁自制	-5466
▁膏	-5467
▁退伍	-5468
▁太太	-5469
麒麟	-5470
40	-5471
▁作文	-5472
▁基因	-5473
▁大洋	-5474
▁共享	-5475
▁两边	-5476
利亚	-5477
▁江南	-5478
▁亡	-5479
▁留学	-5480
▁痕	-5481
▁核桃	-5482
▁冲突	-5483
▁造价	-5484
▁中专	-5485
▁原版	-5486
▁鄙视	-5487
▁道具	-5488
▁卓	-5489
▁nb	-5490
▁明月	-5491
▁夫妻	-5492
▁齐全	-5493
▁不必	-5494
▁以来	-5495
▁人和	-5496
▁从头	-5497
▁长安	-5498
▁菊	-5499
▁归来	-5500
▁台风	-5501
▁好找	-5502
▁胳膊	-5503
▁情节	-5504
▁规划	-5505
▁大胆	-5506
▁大帝	-5507
▁耀	-5508
▁叫做	-5509
ps	-5510
▁宝马	-5511
▁吸血	-5512
▁关门	-5513
▁哑	-5514
▁引起	-5515
基亚	-5516
▁恶魔	-5517
▁放到	-5518
▁暧	-5519
▁效率	-5520
▁关闭	-5521
▁轨	-5522
▁生存	-5523
▁地震	-5524
▁漫展	-5525
▁英超	-5526
▁芳	-5527
▁台式	-5528
▁min	-5529
▁冯	-5530
▁渴	-5531
▁1800	-5532
▁四月	-5533
▁学前	-5534
▁米兰	-5535
▁丐	-5536
▁烟台	-5537
▁架子	-5538
▁行李	-5539
▁忒	-5540
▁枕	-5541
▁蒂	-5542
▁出道	-5543
▁责任	-5544
▁友情	-5545
▁香蕉	-5546
▁定义	-5547
▁he	-5548
▁双排	-5549
▁锁屏	-5550
▁钢琴	-5551
▁坎	-5552
▁大伙	-5553
▁狙	-5554
▁载	-5555
▁正宗	-5556
▁考场	-5557
▁著	-5558
▁谨	-5559
▁近期	-5560
▁龙珠	-5561
▁牡丹	-5562
▁进口	-5563
▁长高	-5564
▁粒	-5565
▁嫖	-5566
▁修车	-5567
▁on	-5568
▁境界	-5569
▁捧场	-5570
▁豪华	-5571
▁肤	-5572
▁硬伤	-5573
▁诺基亚	-5574
▁品质	-5575
▁父亲	-5576
▁网盘	-5577
▁三大	-5578
▁入学	-5579
▁嗓子	-5580
ao	-5581
▁油耗	-5582
▁浏览	-5583
▁敢问	-5584
▁天上	-5585
▁迟早	-5586
▁推送	-5587
▁须	-5588
▁丈	-5589
▁百年	-5590
▁两句	-5591
▁战术	-5592
▁颠	-5593
▁豹	-5594
▁降级	-5595
▁中毒	-5596
▁阴影	-5597
▁哈喽	-5598
▁和平	-5599
▁退款	-5600
▁巴掌	-5601
▁出差	-5602
▁富士	-5603
▁映	-5604
▁招呼	-5605
▁专柜	-5606
▁so	-5607
▁折磨	-5608
▁扯淡	-5609
▁嘲讽	-5610
▁梦到	-5611
▁迁	-5612
▁一脚	-5613
▁端午	-5614
▁73	-5615
▁标志	-5616
▁76	-5617
▁柏	-5618
▁薇	-5619
▁扁	-5620
▁中场	-5621
▁海军	-5622
▁尽力	-5623
▁挖掘	-5624
▁难以	-5625
▁食品	-5626
▁球衣	-5627
▁点点	-5628
▁网址	-5629
▁老弟	-5630
▁垂	-5631
▁放手	-5632
▁认得	-5633
▁暧昧	-5634
▁蚂	-5635
▁开口	-5636
▁栽	-5637
▁需求	-5638
▁秋天	-5639
▁晶	-5640
▁暴击	-5641
▁悦	-5642
▁评分	-5643
▁高跟	-5644
▁丰富	-5645
▁华硕	-5646
▁忍住	-5647
▁杨洋	-5648
▁大道	-5649
▁口红	-5650
▁走过	-5651
▁瑜	-5652
▁代码	-5653
克斯	-5654
▁疤	-5655
▁五毛	-5656
▁废物	-5657
▁绳	-5658
▁至尊	-5659
▁逾	-5660
▁二级	-5661
▁颖	-5662
▁韵	-5663
▁放松	-5664
▁火星	-5665
▁原本	-5666
▁近视	-5667
▁155	-5668
▁脂	-5669
▁心灵	-5670
▁赣	-5671
▁其余	-5672
▁命中	-5673
▁排行	-5674
▁春晚	-5675
▁查查	-5676
▁碟	-5677
▁积极	-5678
▁强制	-5679
▁贡献	-5680
▁巫	-5681
▁文笔	-5682
▁场景	-5683
▁饮食	-5684
▁懂事	-5685
▁踢球	-5686
▁靠近	-5687
▁主任	-5688
▁夕	-5689
▁打人	-5690
▁婷	-5691
▁小猫	-5692
▁及格	-5693
▁欺骗	-5694
▁亲戚	-5695
▁公分	-5696
▁传销	-5697
▁古代	-5698
▁饰	-5699
▁限定	-5700
▁深深	-5701
▁莫非	-5702
▁雷霆	-5703
▁膜拜	-5704
▁甘肃	-5705
▁艾玛	-5706
▁被虐	-5707
▁配音	-5708
▁康复	-5709
▁拨	-5710
▁优越	-5711
▁只好	-5712
▁欧美	-5713
▁申花	-5714
▁集体	-5715
▁莉	-5716
▁杨幂	-5717
▁机构	-5718
▁殿	-5719
▁模仿	-5720
▁穷人	-5721
▁蝎	-5722
▁vx	-5723
▁爱过	-5724
▁沟通	-5725
▁外星	-5726
▁公安	-5727
▁六级	-5728
▁单曲	-5729
▁日记	-5730
▁瞅瞅	-5731
▁动车	-5732
▁看清	-5733
▁策划	-5734
▁学位	-5735
▁农民	-5736
▁钉	-5737
▁敬业	-5738
▁阿根	-5739
▁点击	-5740
▁完蛋	-5741
▁迟到	-5742
▁大雨	-5743
▁哈登	-5744
▁考证	-5745
▁水笔	-5746
▁买好	-5747
▁盖楼	-5748
▁中山	-5749
▁表妹	-5750
▁荆	-5751
▁臂	-5752
▁预售	-5753
▁喇	-5754
▁加工	-5755
▁冥	-5756
▁听见	-5757
▁逗逼	-5758
▁一支	-5759
▁锋	-5760
▁早已	-5761
▁包养	-5762
▁专家	-5763
▁公共	-5764
▁感染	-5765
▁过期	-5766
▁弗	-5767
▁美白	-5768
▁骑行	-5769
▁嘟	-5770
▁相遇	-5771
▁利用	-5772
▁表哥	-5773
▁当成	-5774
▁黏	-5775
▁沪	-5776
▁拍卖	-5777
▁论坛	-5778
▁助手	-5779
▁祛	-5780
ai	-5781
▁织	-5782
▁放大	-5783
▁使劲	-5784
▁遛	-5785
▁夜猫	-5786
▁小刀	-5787
▁倒闭	-5788
▁难吃	-5789
▁公子	-5790
▁病毒	-5791
▁邪恶	-5792
▁阿里	-5793
▁阿根廷	-5794
▁不良	-5795
▁水货	-5796
▁炼	-5797
▁心思	-5798
▁计时	-5799
▁贴膜	-5800
▁出口	-5801
▁知足	-5802
▁you	-5803
▁制造	-5804
▁卖出	-5805
▁小黑	-5806
▁跑分	-5807
▁好丑	-5808
▁愚	-5809
七八	-5810
不觉	-5811
▁不知不觉	-5812
▁钩	-5813
▁丝袜	-5814
▁奸	-5815
▁贩	-5816
▁单反	-5817
▁拽	-5818
▁an	-5819
▁sp	-5820
▁550	-5821
▁振	-5822
▁天堂	-5823
▁险	-5824
▁SB	-5825
▁cf	-5826
▁牛仔	-5827
▁副本	-5828
▁乔丹	-5829
▁上瘾	-5830
▁师弟	-5831
▁厂家	-5832
▁经理	-5833
▁老年	-5834
▁搭理	-5835
▁己	-5836
▁午饭	-5837
▁拜拜	-5838
▁最早	-5839
▁剁手	-5840
▁战绩	-5841
▁太热	-5842
▁爱心	-5843
▁太早	-5844
▁御姐	-5845
▁精英	-5846
▁被偷	-5847
▁彩票	-5848
▁后排	-5849
▁东东	-5850
▁想死	-5851
▁焊	-5852
▁走路	-5853
▁总裁	-5854
▁211	-5855
▁纯属	-5856
▁鳄	-5857
▁阜	-5858
▁落后	-5859
▁征集	-5860
▁藤	-5861
▁李易	-5862
▁总共	-5863
▁私人	-5864
▁尸体	-5865
▁自提	-5866
▁1600	-5867
▁车祸	-5868
▁六月	-5869
▁优点	-5870
▁花生	-5871
▁蜗	-5872
▁马赛	-5873
▁柠檬	-5874
▁反对	-5875
▁虚拟	-5876
ie	-5877
▁李易峰	-5878
▁暖和	-5879
▁揉	-5880
▁才叫	-5881
▁十字	-5882
▁捂	-5883
▁竞技	-5884
▁频道	-5885
▁恐怕	-5886
▁网游	-5887
▁查询	-5888
▁安逸	-5889
▁震惊	-5890
▁380	-5891
▁逛逛	-5892
▁沦	-5893
▁表面	-5894
▁逾期	-5895
▁每周	-5896
▁轻易	-5897
▁龙虾	-5898
▁产生	-5899
▁天地	-5900
▁总算	-5901
15	-5902
▁枯	-5903
▁央视	-5904
▁下降	-5905
▁标配	-5906
▁卡卡	-5907
▁肠胃	-5908
▁老王	-5909
▁花开	-5910
▁翻新	-5911
▁综艺	-5912
▁国足	-5913
▁成人	-5914
▁79	-5915
▁毅	-5916
▁970	-5917
▁兑换	-5918
▁部落	-5919
▁果实	-5920
▁梦幻	-5921
ke	-5922
▁抽奖	-5923
▁顺序	-5924
▁双手	-5925
▁乎	-5926
▁封号	-5927
▁弹幕	-5928
▁组装	-5929
▁口腔	-5930
▁翼	-5931
▁所在	-5932
▁素材	-5933
▁崽	-5934
▁相似	-5935
▁农历	-5936
▁多远	-5937
▁道德	-5938
▁仅仅	-5939
▁板凳	-5940
▁随手	-5941
▁用品	-5942
▁gt	-5943
▁冒险	-5944
▁新开	-5945
▁月薪	-5946
▁癌	-5947
▁羊肉	-5948
▁回合	-5949
▁制服	-5950
▁延迟	-5951
▁发财	-5952
▁按摩	-5953
▁渠道	-5954
▁古装	-5955
▁照相	-5956
▁劳动	-5957
▁放开	-5958
▁兆	-5959
▁侮	-5960
▁阅读	-5961
▁剧本	-5962
▁手办	-5963
▁得分	-5964
▁列表	-5965
▁辰	-5966
▁锐	-5967
▁大赛	-5968
▁对话	-5969
▁嘲笑	-5970
▁笑笑	-5971
▁弥	-5972
▁陈奕	-5973
▁改造	-5974
▁冤	-5975
▁冷门	-5976
▁mate	-5977
▁坟	-5978
▁爵	-5979
▁be	-5980
▁米饭	-5981
▁多次	-5982
▁包包	-5983
▁侮辱	-5984
▁嫂子	-5985
ch	-5986
▁今早	-5987
▁马刺	-5988
▁一体	-5989
▁南阳	-5990
▁迫	-5991
▁自卑	-5992
▁大白	-5993
▁拆迁	-5994
▁奥运	-5995
▁番外	-5996
▁相爱	-5997
▁及时	-5998
▁上场	-5999
▁遵	-6000
▁方案	-6001
gh	-6002
▁沐	-6003
▁沿	-6004
▁斗鱼	-6005
▁胡说	-6006
▁动静	-6007
▁理性	-6008
▁菇	-6009
▁定期	-6010
▁周四	-6011
▁影视	-6012
▁荷兰	-6013
▁费劲	-6014
▁集团	-6015
▁举手	-6016
▁基地	-6017
▁方言	-6018
▁乾	-6019
▁喉	-6020
▁嘘	-6021
▁ed	-6022
▁机票	-6023
▁樱桃	-6024
▁电瓶	-6025
▁可信	-6026
▁枫	-6027
▁舅	-6028
▁西北	-6029
▁点球	-6030
▁打听	-6031
▁捣	-6032
▁睿	-6033
▁li	-6034
▁逆天	-6035
▁iOS	-6036
▁澳门	-6037
▁太平	-6038
▁特点	-6039
▁北大	-6040
▁耽误	-6041
▁陈奕迅	-6042
▁粪	-6043
▁少数	-6044
▁神仙	-6045
▁山地	-6046
▁手套	-6047
▁一笑	-6048
▁胡歌	-6049
▁网线	-6050
▁缩写	-6051
▁慈	-6052
▁治愈	-6053
▁衬衫	-6054
▁在校	-6055
▁老夫	-6056
▁158	-6057
▁财务	-6058
▁乱七八	-6059
▁罗马	-6060
▁冻死	-6061
14	-6062
▁之外	-6063
▁只用	-6064
▁白白	-6065
▁水印	-6066
▁变身	-6067
▁储	-6068
▁胃口	-6069
▁咋整	-6070
▁驻	-6071
▁泡泡	-6072
▁卖掉	-6073
▁电梯	-6074
▁珍珠	-6075
▁乡下	-6076
▁上帝	-6077
▁乒	-6078
▁之路	-6079
▁贵阳	-6080
▁打针	-6081
▁周三	-6082
▁唐山	-6083
▁行情	-6084
▁省内	-6085
▁APP	-6086
▁掩	-6087
▁乱七八糟	-6088
▁强化	-6089
▁魔兽	-6090
▁册	-6091
▁携	-6092
▁240	-6093
▁铭	-6094
▁洗脑	-6095
▁真诚	-6096
▁从前	-6097
▁五星	-6098
▁纯粹	-6099
▁银色	-6100
▁正义	-6101
▁车牌	-6102
▁这块	-6103
▁往下	-6104
▁小子	-6105
▁亲友	-6106
▁开房	-6107
▁深渊	-6108
▁覆	-6109
tv	-6110
▁创造	-6111
▁弃坑	-6112
▁住院	-6113
▁森林	-6114
▁太冷	-6115
▁序	-6116
▁收留	-6117
▁板子	-6118
▁置	-6119
▁毛衣	-6120
▁人肉	-6121
▁粽	-6122
▁悲催	-6123
▁mx	-6124
▁美容	-6125
ver	-6126
▁TV	-6127
▁次数	-6128
▁赞同	-6129
▁励	-6130
▁桂林	-6131
▁赵丽	-6132
▁外省	-6133
▁当真	-6134
▁限量	-6135
▁马克	-6136
▁物品	-6137
▁找回	-6138
▁席	-6139
▁噩	-6140
▁机油	-6141
▁高达	-6142
▁严肃	-6143
▁小鸟	-6144
▁很早	-6145
▁侄	-6146
▁吃亏	-6147
▁集中	-6148
▁过气	-6149
▁终究	-6150
▁峰峰	-6151
▁wh	-6152
▁虹	-6153
▁教训	-6154
▁220	-6155
▁弄好	-6156
▁远离	-6157
▁鸭子	-6158
▁禁止	-6159
▁影子	-6160
▁椅	-6161
▁噫	-6162
▁西班	-6163
▁出血	-6164
▁情商	-6165
▁西班牙	-6166
▁美颜	-6167
千骨	-6168
▁MV	-6169
▁铲	-6170
▁城管	-6171
▁塘	-6172
▁辨	-6173
▁cc	-6174
▁称号	-6175
▁授权	-6176
▁说事	-6177
▁昵	-6178
▁深刻	-6179
▁口袋	-6180
▁祝贺	-6181
▁瑶	-6182
▁袖	-6183
▁犀	-6184
▁腐女	-6185
▁匆	-6186
▁猩	-6187
▁跳楼	-6188
▁俩人	-6189
▁翡	-6190
▁庙	-6191
▁芽	-6192
▁1300	-6193
▁魔王	-6194
▁反复	-6195
▁位数	-6196
▁子弹	-6197
▁威武	-6198
▁学车	-6199
▁厨房	-6200
▁抵抗	-6201
▁力气	-6202
▁蛋白	-6203
▁直视	-6204
▁马赛克	-6205
▁谷歌	-6206
▁未必	-6207
▁步行	-6208
▁家具	-6209
▁吱	-6210
▁元素	-6211
▁番茄	-6212
▁砂	-6213
▁花千骨	-6214
▁结构	-6215
▁拉屎	-6216
▁条狗	-6217
▁多余	-6218
▁请客	-6219
▁衰	-6220
▁张家	-6221
▁韩剧	-6222
▁反弹	-6223
▁烦躁	-6224
▁大气	-6225
▁酱紫	-6226
▁橡	-6227
▁天王	-6228
▁卑	-6229
▁亲自	-6230
▁他人	-6231
▁威胁	-6232
▁杯子	-6233
▁泳	-6234
▁麒麟	-6235
▁向上	-6236
▁赵丽颖	-6237
▁询	-6238
▁别扭	-6239
▁监控	-6240
▁预计	-6241
▁记者	-6242
▁盈	-6243
▁芙	-6244
▁纪录	-6245
▁捆	-6246
▁商场	-6247
兰特	-6248
▁电量	-6249
▁铝	-6250
▁内地	-6251
▁奥特曼	-6252
▁选项	-6253
▁三轮	-6254
▁爪子	-6255
▁螃	-6256
▁黑屋	-6257
▁越南	-6258
▁单车	-6259
▁岗位	-6260
▁马云	-6261
▁在于	-6262
▁流水	-6263
▁拿出	-6264
▁晋级	-6265
▁被动	-6266
▁剂	-6267
ly	-6268
▁档案	-6269
▁泛	-6270
▁夫人	-6271
▁轮胎	-6272
▁加价	-6273
▁黄牛	-6274
▁战友	-6275
▁自用	-6276
▁通用	-6277
▁万分	-6278
▁猫猫	-6279
▁戈	-6280
▁扮	-6281
▁保定	-6282
▁每人	-6283
▁房租	-6284
▁诈	-6285
▁妃	-6286
▁热爱	-6287
▁扬州	-6288
▁钢化	-6289
▁上火	-6290
▁太子	-6291
▁州	-6292
▁热度	-6293
▁证件	-6294
▁刺客	-6295
▁小事	-6296
▁恕	-6297
▁74	-6298
▁开封	-6299
▁气氛	-6300
▁买家	-6301
▁人性	-6302
▁克制	-6303
▁得罪	-6304
▁dota	-6305
▁出处	-6306
▁鸣人	-6307
▁令人	-6308
▁琪	-6309
▁车架	-6310
▁面板	-6311
▁光明	-6312
▁198	-6313
▁螃蟹	-6314
▁指挥	-6315
▁mini	-6316
▁自助	-6317
▁打扮	-6318
▁透露	-6319
▁125	-6320
▁ins	-6321
▁人机	-6322
▁做事	-6323
▁励志	-6324
▁捅	-6325
▁电机	-6326
▁教授	-6327
▁粉红	-6328
▁进度	-6329
▁如意	-6330
▁睡眠	-6331
▁二战	-6332
▁音质	-6333
▁决心	-6334
▁醒醒	-6335
▁985	-6336
▁必然	-6337
▁线路	-6338
▁受到	-6339
▁怕怕	-6340
▁婴	-6341
▁960	-6342
▁牢	-6343
▁EXO	-6344
▁馅	-6345
▁汁	-6346
▁翠	-6347
▁缴	-6348
▁岩	-6349
▁定金	-6350
▁奏	-6351
▁仓库	-6352
▁彩礼	-6353
▁260	-6354
▁公会	-6355
▁群众	-6356
▁雷神	-6357
▁西南	-6358
▁kg	-6359
▁亚冠	-6360
▁地板	-6361
▁推广	-6362
▁乐意	-6363
▁体质	-6364
▁常州	-6365
▁结尾	-6366
▁七年	-6367
▁上路	-6368
▁箭	-6369
▁蝶	-6370
▁缺钱	-6371
▁三人	-6372
ala	-6373
▁改装	-6374
▁嘴里	-6375
▁感慨	-6376
▁擅	-6377
lay	-6378
▁好坏	-6379
▁个别	-6380
▁点评	-6381
▁转移	-6382
▁马尾	-6383
▁同步	-6384
▁tm	-6385
▁初始	-6386
▁娜娜	-6387
▁平方	-6388
▁死神	-6389
▁大力	-6390
▁曼城	-6391
▁西部	-6392
▁转会	-6393
▁新版	-6394
▁大门	-6395
▁咕	-6396
▁里边	-6397
▁投入	-6398
▁排除	-6399
▁橘子	-6400
▁祖国	-6401
▁悲哀	-6402
▁小组	-6403
ah	-6404
▁多看	-6405
▁网购	-6406
▁航空	-6407
▁胜率	-6408
▁全职	-6409
▁湖人	-6410
▁结合	-6411
▁卷子	-6412
▁开店	-6413
▁平胸	-6414
▁快手	-6415
不尽	-6416
▁救救	-6417
▁AD	-6418
▁状况	-6419
▁172	-6420
▁海边	-6421
▁吨	-6422
▁蜂蜜	-6423
▁椰	-6424
▁人头	-6425
▁翻墙	-6426
▁偏偏	-6427
▁吴亦	-6428
▁海鲜	-6429
▁吴亦凡	-6430
▁啪啪	-6431
▁诚信	-6432
▁噩梦	-6433
iss	-6434
▁荡	-6435
▁发抖	-6436
▁徽	-6437
▁互动	-6438
▁马桶	-6439
▁滋	-6440
▁座位	-6441
▁权限	-6442
▁截止	-6443
▁剑三	-6444
▁尤文	-6445
▁堡	-6446
▁睡前	-6447
富帅	-6448
▁淫	-6449
▁翡翠	-6450
▁71	-6451
▁昵称	-6452
▁洒	-6453
▁改善	-6454
▁门将	-6455
▁馋	-6456
▁激光	-6457
▁渔	-6458
▁严格	-6459
▁激素	-6460
▁随缘	-6461
▁芦	-6462
▁季后	-6463
▁胆子	-6464
▁叽	-6465
▁杂志	-6466
▁天后	-6467
▁利益	-6468
▁同情	-6469
▁季后赛	-6470
▁议	-6471
▁单词	-6472
▁柜子	-6473
▁详情	-6474
▁葛	-6475
▁发达	-6476
▁坚决	-6477
▁平民	-6478
▁探讨	-6479
▁收益	-6480
▁醋	-6481
▁诸葛	-6482
oc	-6483
▁定时	-6484
▁年度	-6485
▁战神	-6486
▁雀	-6487
▁果子	-6488
▁鲤	-6489
▁财经	-6490
▁low	-6491
▁比比	-6492
▁蒋	-6493
▁玛丽	-6494
it	-6495
▁萨摩	-6496
▁添加	-6497
▁认错	-6498
▁做成	-6499
▁480	-6500
▁飙	-6501
▁幽默	-6502
▁炒作	-6503
▁勋	-6504
▁损失	-6505
▁by	-6506
▁坑人	-6507
▁下架	-6508
▁爆料	-6509
▁泸	-6510
▁将近	-6511
▁鞭	-6512
▁喇叭	-6513
▁炫耀	-6514
▁项链	-6515
▁化工	-6516
▁凹	-6517
▁报销	-6518
▁能干	-6519
▁ds	-6520
▁时装	-6521
▁浑身	-6522
▁球场	-6523
▁看得	-6524
▁谦虚	-6525
▁葱	-6526
▁函	-6527
▁开水	-6528
▁思维	-6529
▁王道	-6530
▁坡	-6531
▁亲人	-6532
▁体型	-6533
▁典型	-6534
▁一串	-6535
▁豆豆	-6536
▁配色	-6537
▁矮子	-6538
▁预科	-6539
▁双方	-6540
▁打败	-6541
▁上升	-6542
▁香水	-6543
▁育	-6544
▁领取	-6545
▁首付	-6546
▁千里	-6547
▁经管	-6548
▁妨	-6549
▁甩卖	-6550
▁签约	-6551
▁合照	-6552
▁采访	-6553
▁版权	-6554
▁自主	-6555
▁NBA	-6556
▁芭	-6557
▁茅	-6558
▁体现	-6559
▁自身	-6560
▁终结	-6561
▁肩膀	-6562
▁地摊	-6563
▁重生	-6564
▁构	-6565
▁蚂蚁	-6566
▁鹤	-6567
▁任意	-6568
▁棕	-6569
▁资本	-6570
▁舌头	-6571
▁吃醋	-6572
▁夜晚	-6573
▁告别	-6574
cm	-6575
▁眼中	-6576
▁上单	-6577
▁抱怨	-6578
▁凛	-6579
▁精力	-6580
▁谱	-6581
▁预订	-6582
▁菜鸟	-6583
▁糙	-6584
▁tv	-6585
▁一战	-6586
re	-6587
▁逐	-6588
▁CD	-6589
▁丫头	-6590
▁默认	-6591
▁代替	-6592
▁杏	-6593
▁淑	-6594
▁事故	-6595
▁大圣	-6596
▁真题	-6597
▁梦见	-6598
▁廉	-6599
▁榴	-6600
16	-6601
▁帐号	-6602
▁人均	-6603
▁恶人	-6604
▁海洋	-6605
▁堕	-6606
▁撒娇	-6607
▁省钱	-6608
▁大同	-6609
▁低端	-6610
▁狂魔	-6611
▁送货	-6612
▁潜力	-6613
比亚	-6614
▁剥	-6615
▁公告	-6616
▁占有	-6617
▁杜兰特	-6618
▁新浪	-6619
▁轻轻	-6620
▁阿森	-6621
▁疲	-6622
▁感想	-6623
▁正太	-6624
▁边框	-6625
▁监督	-6626
▁开关	-6627
▁非诚	-6628
▁做出	-6629
▁陪同	-6630
▁骚扰	-6631
▁血统	-6632
▁愤	-6633
▁兼容	-6634
▁出厂	-6635
▁反感	-6636
▁长城	-6637
▁中分	-6638
▁兔兔	-6639
▁一类	-6640
▁小花	-6641
▁佛山	-6642
▁老爷	-6643
▁鲨	-6644
▁复合	-6645
▁权利	-6646
▁玲	-6647
▁写字	-6648
▁情感	-6649
▁短裤	-6650
▁底线	-6651
▁口碑	-6652
▁必备	-6653
▁钢铁	-6654
▁店家	-6655
物浦	-6656
▁看待	-6657
▁咬人	-6658
▁候	-6659
▁来啦	-6660
▁恶意	-6661
▁洗头	-6662
▁发出	-6663
▁汉化	-6664
▁利物浦	-6665
▁联合	-6666
▁财运	-6667
▁息	-6668
▁把手	-6669
▁韦德	-6670
▁劈	-6671
▁铂	-6672
▁繁殖	-6673
▁谨慎	-6674
▁握手	-6675
▁特价	-6676
▁MI	-6677
▁校花	-6678
▁GD	-6679
▁专属	-6680
▁此刻	-6681
▁污染	-6682
▁淹	-6683
▁礼貌	-6684
▁万人	-6685
▁墨迹	-6686
▁晴天	-6687
▁舞台	-6688
▁碾	-6689
▁相差	-6690
▁见谅	-6691
▁屯	-6692
▁务	-6693
▁东南	-6694
▁装饰	-6695
▁领先	-6696
▁买卖	-6697
▁代练	-6698
▁导师	-6699
▁绵阳	-6700
▁熏	-6701
▁加成	-6702
▁笔试	-6703
▁队员	-6704
▁语气	-6705
▁简介	-6706
▁美剧	-6707
▁莎	-6708
▁活捉	-6709
▁讲话	-6710
▁拌	-6711
▁谭	-6712
▁降低	-6713
▁哔	-6714
▁模样	-6715
▁书记	-6716
▁外表	-6717
▁幂	-6718
▁怡	-6719
▁淡淡	-6720
▁跑男	-6721
▁柚	-6722
▁断电	-6723
▁充满	-6724
▁囧	-6725
▁疙	-6726
▁各自	-6727
▁188	-6728
▁拼车	-6729
▁祖宗	-6730
▁西门	-6731
▁心碎	-6732
▁搁	-6733
▁民谣	-6734
▁108	-6735
▁PK	-6736
▁上衣	-6737
▁奈何	-6738
▁本质	-6739
um	-6740
▁正脸	-6741
▁保留	-6742
▁养老	-6743
▁法学	-6744
▁迷人	-6745
▁vivo	-6746
▁患者	-6747
▁围巾	-6748
▁仿佛	-6749
▁高富帅	-6750
▁院校	-6751
▁监狱	-6752
▁一言	-6753
▁停止	-6754
▁重量	-6755
▁女方	-6756
▁姆	-6757
▁能发	-6758
▁光线	-6759
▁凝	-6760
▁避免	-6761
▁消耗	-6762
▁打车	-6763
▁场地	-6764
▁贞	-6765
▁苟	-6766
▁南山	-6767
▁献给	-6768
▁拼命	-6769
▁aj	-6770
▁露脸	-6771
▁评测	-6772
▁重置	-6773
▁熄	-6774
▁星空	-6775
▁试卷	-6776
▁按键	-6777
▁羽绒	-6778
▁八一	-6779
ut	-6780
▁奶妈	-6781
▁欧文	-6782
▁频率	-6783
▁规律	-6784
▁乒乓	-6785
▁潇洒	-6786
▁ing	-6787
冰冰	-6788
▁稻	-6789
▁擅长	-6790
▁菠萝	-6791
▁灾	-6792
▁慢热	-6793
▁通信	-6794
▁~	-6795
▁两把	-6796
▁散步	-6797
▁盯着	-6798
▁窗户	-6799
▁粽子	-6800
▁轮回	-6801
▁外号	-6802
▁小黄	-6803
▁残忍	-6804
▁疙瘩	-6805
18	-6806
▁省电	-6807
▁囤	-6808
▁仲	-6809
▁纽	-6810
▁商品	-6811
▁主页	-6812
▁养成	-6813
▁嘉宾	-6814
▁182	-6815
▁明确	-6816
▁门派	-6817
▁忍者	-6818
▁乞	-6819
▁宰	-6820
▁合影	-6821
▁特产	-6822
▁恋人	-6823
▁斧	-6824
▁信誉	-6825
ga	-6826
▁南通	-6827
▁大于	-6828
▁莲花	-6829
▁握爪	-6830
▁硅	-6831
▁拿走	-6832
▁车票	-6833
▁保佑	-6834
▁哈尔	-6835
▁派出	-6836
▁面条	-6837
▁小店	-6838
▁SS	-6839
▁小人	-6840
▁通关	-6841
IF	-6842
▁万岁	-6843
尔西	-6844
▁猎人	-6845
▁爬山	-6846
▁女士	-6847
▁屈	-6848
▁修炼	-6849
▁th	-6850
▁屋里	-6851
▁宣布	-6852
▁大会	-6853
▁回国	-6854
▁新机	-6855
▁半价	-6856
▁上色	-6857
▁踹	-6858
▁货源	-6859
▁防御	-6860
▁暗示	-6861
▁保障	-6862
▁JJ	-6863
▁开到	-6864
▁挫	-6865
▁煎饼	-6866
▁应届	-6867
▁挨打	-6868
ge	-6869
▁连着	-6870
▁泼	-6871
▁往后	-6872
▁tf	-6873
▁口罩	-6874
▁意向	-6875
▁打发	-6876
▁一口	-6877
▁雾霾	-6878
▁173	-6879
▁工艺	-6880
▁感激不尽	-6881
▁精华	-6882
▁叛	-6883
▁补习	-6884
▁收钱	-6885
▁桃子	-6886
▁施工	-6887
▁自古	-6888
uo	-6889
▁菌	-6890
▁匆匆	-6891
▁业余	-6892
▁竖	-6893
▁富士康	-6894
▁纱	-6895
▁减少	-6896
▁用力	-6897
▁得瑟	-6898
▁眼前	-6899
▁无言	-6900
▁喃	-6901
▁尬	-6902
▁阴历	-6903
▁2013	-6904
▁深情	-6905
▁接口	-6906
▁嗒	-6907
▁金木	-6908
▁上限	-6909
▁猪肉	-6910
▁三亚	-6911
▁哈士	-6912
▁皮卡	-6913
▁白条	-6914
▁超人	-6915
▁洗面	-6916
▁气息	-6917
▁饶	-6918
▁手镯	-6919
▁试用	-6920
▁侯	-6921
▁中锋	-6922
▁小偷	-6923
▁教材	-6924
▁物业	-6925
▁遥远	-6926
▁周二	-6927
▁内衣	-6928
▁st	-6929
▁可笑	-6930
▁江浙	-6931
▁协议	-6932
▁公众	-6933
▁坚定	-6934
▁LL	-6935
▁稳稳	-6936
▁飞车	-6937
▁切尔西	-6938
▁诊	-6939
▁姥	-6940
▁一朵	-6941
▁不可	-6942
▁木头	-6943
▁该死	-6944
▁腰带	-6945
▁物质	-6946
▁姻	-6947
▁互换	-6948
▁小腿	-6949
▁访	-6950
▁吧龄	-6951
▁哈士奇	-6952
▁行政	-6953
▁邮件	-6954
▁VI	-6955
▁昭	-6956
▁毁灭	-6957
▁示	-6958
▁喝醉	-6959
▁友好	-6960
▁保罗	-6961
▁够呛	-6962
▁驾驭	-6963
▁土狗	-6964
▁2019	-6965
▁此时	-6966
▁天亮	-6967
▁常见	-6968
▁八卦	-6969
▁茶叶	-6970
▁自营	-6971
▁高贵	-6972
▁搬家	-6973
▁氏	-6974
▁嘚	-6975
17	-6976
▁刑	-6977
▁学徒	-6978
▁千年	-6979
▁库存	-6980
▁钙	-6981
▁别怕	-6982
▁形式	-6983
▁生死	-6984
▁精致	-6985
▁出货	-6986
▁备用	-6987
▁款式	-6988
▁元宵	-6989
▁休闲	-6990
▁105	-6991
▁流泪	-6992
▁少见	-6993
▁谎	-6994
▁鑫	-6995
▁月光	-6996
▁阿尔	-6997
▁鲫	-6998
▁银河	-6999
▁980	-7000
▁普及	-7001
▁浇水	-7002
▁府	-7003
▁甘心	-7004
▁诚意	-7005
▁团长	-7006
▁阿森纳	-7007
▁霸王	-7008
▁恍	-7009
▁细胞	-7010
▁背面	-7011
▁襄	-7012
心病	-7013
▁幼师	-7014
▁开会	-7015
▁辜	-7016
▁会考	-7017
▁电商	-7018
▁男性	-7019
▁录音	-7020
▁绝版	-7021
▁农药	-7022
▁粗暴	-7023
▁宋茜	-7024
▁解封	-7025
▁163	-7026
▁刘诗	-7027
▁戒烟	-7028
▁想吐	-7029
▁豁	-7030
▁反驳	-7031
▁姻缘	-7032
▁微微	-7033
▁债	-7034
▁终极	-7035
▁坤	-7036
▁芝麻	-7037
▁工人	-7038
▁拉萨	-7039
▁贝尔	-7040
▁方便面	-7041
▁促	-7042
▁阻止	-7043
▁伤口	-7044
▁择	-7045
▁趋	-7046
▁保底	-7047
▁幸亏	-7048
▁妄	-7049
▁其次	-7050
▁一个	-7051
▁大海	-7052
▁昏	-7053
▁一口气	-7054
▁鸿	-7055
▁乐趣	-7056
▁球星	-7057
▁救命	-7058
▁珠海	-7059
▁涵	-7060
▁做法	-7061
心病狂	-7062
▁丧心病狂	-7063
▁长江	-7064
▁梳	-7065
▁背包	-7066
▁观音	-7067
▁大盘	-7068
▁刷屏	-7069
▁美团	-7070
▁水泥	-7071
▁硬币	-7072
▁一见	-7073
▁小点	-7074
▁赞助	-7075
▁拾	-7076
▁歪歪	-7077
▁蛤蟆	-7078
▁实践	-7079
▁尽快	-7080
▁锁骨	-7081
▁发光	-7082
▁dn	-7083
▁数码	-7084
▁吧唧	-7085
▁KTV	-7086
▁瞳	-7087
▁轰炸	-7088
▁奥迪	-7089
▁华夏	-7090
▁承包	-7091
▁网球	-7092
▁瞄	-7093
▁大片	-7094
▁逍	-7095
▁大衣	-7096
▁皇家	-7097
▁逝	-7098
▁到达	-7099
▁流程	-7100
▁二胎	-7101
▁考验	-7102
▁惊艳	-7103
▁材质	-7104
▁格子	-7105
▁QW	-7106
▁智慧	-7107
▁出自	-7108
▁哼哼	-7109
▁椅子	-7110
▁揪	-7111
▁铂金	-7112
▁合成	-7113
▁怪兽	-7114
▁芜	-7115
▁星月	-7116
▁天龙	-7117
▁弄死	-7118
ap	-7119
▁派出所	-7120
▁中单	-7121
▁反派	-7122
▁思念	-7123
▁弦	-7124
▁顶配	-7125
▁弧	-7126
▁姐弟	-7127
▁自觉	-7128
▁疏	-7129
▁九级	-7130
▁成果	-7131
▁安好	-7132
▁红红	-7133
▁远方	-7134
▁株	-7135
▁奔驰	-7136
▁侦	-7137
▁创意	-7138
▁十九	-7139
▁咪	-7140
▁秋裤	-7141
▁邮政	-7142
▁ho	-7143
▁来电	-7144
▁诡	-7145
▁打牌	-7146
▁拆开	-7147
▁美元	-7148
▁稀有	-7149
▁卧底	-7150
▁展示	-7151
olo	-7152
▁搬到	-7153
▁心心	-7154
▁各地	-7155
▁伺	-7156
▁蝙	-7157
▁合金	-7158
▁拖鞋	-7159
▁敌人	-7160
▁拓	-7161
OT	-7162
▁生化	-7163
▁纳闷	-7164
▁发泄	-7165
▁搭讪	-7166
▁空军	-7167
▁强度	-7168
▁睫	-7169
▁三生	-7170
▁两场	-7171
▁贴纸	-7172
▁古剑	-7173
▁高层	-7174
▁征服	-7175
▁舒适	-7176
▁转到	-7177
▁活泼	-7178
▁颗粒	-7179
▁墓	-7180
▁外貌	-7181
▁犯规	-7182
▁仙人	-7183
▁往事	-7184
▁绅	-7185
▁貂	-7186
▁汕	-7187
▁邵	-7188
▁识别	-7189
▁过瘾	-7190
▁max	-7191
▁赐教	-7192
▁渴望	-7193
iao	-7194
▁一无	-7195
▁喘	-7196
▁go	-7197
▁律师	-7198
▁今儿	-7199
▁讲究	-7200
▁鹦	-7201
▁神话	-7202
▁泄	-7203
▁艺人	-7204
▁皇冠	-7205
▁卿	-7206
▁客场	-7207
▁挽回	-7208
▁坠	-7209
▁书包	-7210
▁清醒	-7211
▁造谣	-7212
▁慧	-7213
▁exo	-7214
▁课本	-7215
▁押金	-7216
▁bo	-7217
▁四中	-7218
▁起点	-7219
▁灯光	-7220
▁CC	-7221
▁胖胖	-7222
▁交大	-7223
▁头条	-7224
▁复仇	-7225
▁调理	-7226
▁人妖	-7227
ua	-7228
▁pk	-7229
▁光环	-7230
▁澡堂	-7231
▁后盖	-7232
▁复发	-7233
▁杠杠	-7234
▁轮子	-7235
▁蔬	-7236
▁江山	-7237
▁百科	-7238
▁澄	-7239
▁中旬	-7240
▁消化	-7241
▁接待	-7242
▁郊	-7243
▁房产	-7244
▁算命	-7245
▁补偿	-7246
▁侧面	-7247
22	-7248
▁回报	-7249
▁草原	-7250
▁辜负	-7251
▁榆	-7252
▁诛	-7253
▁束	-7254
▁来源	-7255
▁疗	-7256
▁可恶	-7257
▁痕迹	-7258
▁二维	-7259
▁4500	-7260
▁fa	-7261
▁奢侈	-7262
▁亲妈	-7263
▁追到	-7264
▁世间	-7265
▁很远	-7266
▁微星	-7267
▁教主	-7268
▁比分	-7269
▁刃	-7270
▁菩提	-7271
▁闪光	-7272
▁巾	-7273
▁琳	-7274
▁闺密	-7275
▁掌握	-7276
▁大桥	-7277
▁报复	-7278
▁传染	-7279
▁演出	-7280
▁家养	-7281
▁想笑	-7282
▁相思	-7283
▁饼干	-7284
▁1400	-7285
▁薪	-7286
▁突出	-7287
▁一炮	-7288
▁查看	-7289
▁记性	-7290
▁况	-7291
▁外语	-7292
▁承诺	-7293
▁贵族	-7294
▁瑟瑟	-7295
▁愣	-7296
▁立刻	-7297
▁黑点	-7298
▁吉祥	-7299
▁两家	-7300
▁鱼缸	-7301
pl	-7302
▁思路	-7303
▁执着	-7304
▁果果	-7305
▁虽说	-7306
▁鹦鹉	-7307
▁乐园	-7308
▁手臂	-7309
▁热血	-7310
▁祈祷	-7311
▁成立	-7312
▁瑜伽	-7313
▁中意	-7314
▁乐观	-7315
▁例子	-7316
▁夸奖	-7317
▁广电	-7318
▁窗口	-7319
▁闪退	-7320
▁六一	-7321
▁地域	-7322
▁瞧瞧	-7323
▁捉急	-7324
▁笙	-7325
▁苑	-7326
▁插件	-7327
▁车辆	-7328
iF	-7329
▁脱坑	-7330
▁加分	-7331
▁头盔	-7332
▁车主	-7333
▁太瘦	-7334
▁真理	-7335
▁专一	-7336
▁QWQ	-7337
▁低头	-7338
▁失业	-7339
▁虐心	-7340
▁额头	-7341
▁武警	-7342
▁拧	-7343
▁风雨	-7344
▁糯	-7345
▁住校	-7346
▁巨星	-7347
▁炸弹	-7348
▁没收	-7349
▁芬	-7350
▁异常	-7351
▁咒	-7352
▁主线	-7353
▁纤	-7354
▁出炉	-7355
▁温馨	-7356
▁公式	-7357
▁比亚	-7358
▁沉迷	-7359
▁猩猩	-7360
▁车队	-7361
▁su	-7362
▁济宁	-7363
▁嚎	-7364
▁碍	-7365
▁se	-7366
▁夜深	-7367
▁骗钱	-7368
iFi	-7369
▁自私	-7370
▁一票	-7371
▁月季	-7372
▁大夫	-7373
▁一键	-7374
▁最萌	-7375
▁卦	-7376
▁阿弥	-7377
▁AB	-7378
牺牲	-7379
ice	-7380
▁保级	-7381
▁泉州	-7382
▁团结	-7383
PS	-7384
▁午安	-7385
▁齿	-7386
▁胆小	-7387
▁洗脸	-7388
▁咽	-7389
▁水库	-7390
▁滑稽	-7391
▁通道	-7392
▁丸子	-7393
▁甄	-7394
▁势力	-7395
▁时空	-7396
▁契	-7397
▁军人	-7398
▁天台	-7399
▁雏	-7400
▁闭嘴	-7401
▁见证	-7402
▁塌	-7403
▁奖金	-7404
▁230	-7405
▁保暖	-7406
▁频繁	-7407
▁吃掉	-7408
▁大方	-7409
▁文理	-7410
▁来袭	-7411
▁呕	-7412
▁牺牲	-7413
▁贸	-7414
▁知名	-7415
▁缅	-7416
▁而言	-7417
▁衣柜	-7418
▁心事	-7419
▁手艺	-7420
▁凸	-7421
▁赔钱	-7422
▁栗	-7423
▁蓝牙	-7424
▁芯片	-7425
▁伙食	-7426
▁全民	-7427
▁小妹	-7428
▁笨蛋	-7429
▁压缩	-7430
▁刘诗诗	-7431
▁离家	-7432
▁编辑	-7433
▁娘娘	-7434
▁觉着	-7435
▁待机	-7436
▁袄	-7437
▁偶然	-7438
▁暗影	-7439
▁足协	-7440
▁淄	-7441
▁因素	-7442
▁形态	-7443
▁分辨率	-7444
▁蛆	-7445
▁情怀	-7446
ter	-7447
▁功率	-7448
▁反击	-7449
▁蜜蜂	-7450
▁利润	-7451
▁刷卡	-7452
▁吸收	-7453
▁维持	-7454
▁混合	-7455
▁道路	-7456
▁专硕	-7457
▁水电	-7458
▁风云	-7459
▁撇	-7460
▁部位	-7461
21	-7462
▁忌	-7463
▁作战	-7464
▁106	-7465
钟情	-7466
▁惊呆	-7467
▁播出	-7468
▁蝙蝠	-7469
▁一见钟情	-7470
▁原则	-7471
▁错觉	-7472
▁婴儿	-7473
▁家教	-7474
▁ste	-7475
▁仨	-7476
▁情书	-7477
▁sm	-7478
▁320	-7479
▁神兽	-7480
▁阿迪	-7481
▁余生	-7482
▁面具	-7483
▁搞错	-7484
▁101	-7485
▁超神	-7486
▁信阳	-7487
▁de	-7488
▁谜	-7489
▁城区	-7490
▁发售	-7491
▁鸡汤	-7492
▁蔬菜	-7493
▁南充	-7494
▁115	-7495
▁农大	-7496
▁女仆	-7497
▁刁	-7498
▁睫毛	-7499
▁补丁	-7500
▁连胜	-7501
▁底薪	-7502
▁对应	-7503
▁支援	-7504
▁上架	-7505
▁丧尸	-7506
▁有才	-7507
▁消防	-7508
▁进水	-7509
▁对付	-7510
▁播音	-7511
▁津	-7512
陀佛	-7513
▁阿弥陀佛	-7514
▁铅	-7515
▁末日	-7516
▁伺候	-7517
▁喜好	-7518
▁大宝	-7519
▁转身	-7520
▁宵	-7521
▁二哥	-7522
▁泰山	-7523
▁死去	-7524
▁哪样	-7525
▁老二	-7526
▁满分	-7527
▁魔术	-7528
▁耐克	-7529
▁噻	-7530
▁诅	-7531
▁往往	-7532
▁分解	-7533
▁卫校	-7534
▁死活	-7535
▁多想	-7536
▁高人	-7537
▁串串	-7538
▁南门	-7539
▁相反	-7540
▁ipad	-7541
▁ab	-7542
45	-7543
▁元宝	-7544
▁一旦	-7545
▁万事	-7546
▁碰见	-7547
▁退休	-7548
▁缺少	-7549
▁亩	-7550
▁实名	-7551
▁通话	-7552
▁一致	-7553
▁倩	-7554
▁手串	-7555
▁干活	-7556
▁皱	-7557
▁奔跑	-7558
▁赠送	-7559
▁喝完	-7560
▁天佑	-7561
▁傻傻	-7562
▁笑容	-7563
▁名称	-7564
▁自恋	-7565
▁高校	-7566
密达	-7567
▁助学	-7568
▁美瞳	-7569
▁处处	-7570
▁朝阳	-7571
▁覆盖	-7572
▁人事	-7573
▁总分	-7574
▁烟花	-7575
▁诅咒	-7576
▁书店	-7577
▁稀罕	-7578
▁勺	-7579
▁高仿	-7580
▁过人	-7581
▁免得	-7582
▁咳嗽	-7583
▁角落	-7584
▁音响	-7585
▁BU	-7586
▁芜湖	-7587
25	-7588
▁备份	-7589
▁捎	-7590
23	-7591
▁感恩	-7592
▁无双	-7593
▁原始	-7594
▁打扫	-7595
▁祸害	-7596
▁脂肪	-7597
▁叹	-7598
▁青海	-7599
▁题材	-7600
▁佐助	-7601
▁大队	-7602
▁好学	-7603
▁合并	-7604
▁1700	-7605
▁谣	-7606
▁浩气	-7607
▁点卡	-7608
▁迷路	-7609
▁哈尔滨	-7610
▁骨折	-7611
▁地产	-7612
▁绅士	-7613
▁pvp	-7614
▁上船	-7615
▁准时	-7616
▁剑圣	-7617
▁发育	-7618
▁点名	-7619
▁罗斯	-7620
▁重视	-7621
▁vip	-7622
▁小叶	-7623
▁工会	-7624
▁伙计	-7625
▁唐嫣	-7626
▁帆	-7627
▁夜里	-7628
▁get	-7629
▁晚餐	-7630
▁楼梯	-7631
▁检验	-7632
▁邹	-7633
▁顺风	-7634
▁十大	-7635
▁范冰冰	-7636
▁坏事	-7637
▁石油	-7638
▁可用	-7639
▁对眼	-7640
▁物价	-7641
▁常规	-7642
▁1100	-7643
▁倒贴	-7644
▁思密达	-7645
▁小苗	-7646
▁ovo	-7647
▁叮	-7648
▁生涯	-7649
更新	-7650
IN	-7651
▁双休	-7652
▁筒	-7653
▁孤儿	-7654
▁家用	-7655
▁留意	-7656
▁航母	-7657
▁逍遥	-7658
▁火花	-7659
▁当做	-7660
▁烦人	-7661
▁码字	-7662
▁950	-7663
24	-7664
▁人格	-7665
▁过度	-7666
▁假发	-7667
▁入住	-7668
▁原理	-7669
▁计较	-7670
▁帝都	-7671
▁嘎嘎	-7672
▁俯	-7673
▁岁数	-7674
▁珊	-7675
▁夜宵	-7676
▁姐夫	-7677
▁生长	-7678
▁街头	-7679
▁卑微	-7680
▁韭	-7681
▁黑屏	-7682
▁cs	-7683
▁往年	-7684
▁招工	-7685
▁白发	-7686
▁pc	-7687
▁嘟嘟	-7688
▁发芽	-7689
▁杆子	-7690
▁岭	-7691
▁太短	-7692
▁布丁	-7693
▁一世	-7694
▁单间	-7695
▁红灯	-7696
▁林更新	-7697
▁余额	-7698
▁坦白	-7699
▁点歌	-7700
▁申诉	-7701
▁盟	-7702
▁对口	-7703
▁疯子	-7704
▁二维码	-7705
▁逸	-7706
▁相见	-7707
▁稀饭	-7708
▁卫星	-7709
▁存款	-7710
▁月子	-7711
▁降温	-7712
▁葬	-7713
▁同居	-7714
▁贬	-7715
▁出价	-7716
▁听力	-7717
▁花心	-7718
▁怪物	-7719
kg	-7720
▁掉线	-7721
▁4.5	-7722
▁作弊	-7723
▁艺考	-7724
▁肯德	-7725
▁实战	-7726
▁庆幸	-7727
▁吐血	-7728
▁搬运	-7729
▁直言	-7730
▁丁丁	-7731
▁可比	-7732
▁头晕	-7733
▁自称	-7734
▁sk	-7735
▁筋	-7736
▁崛	-7737
▁工科	-7738
▁顿时	-7739
▁甜蜜	-7740
▁参观	-7741
▁指定	-7742
▁艰难	-7743
▁ap	-7744
▁国王	-7745
▁场面	-7746
▁切换	-7747
▁补贴	-7748
io	-7749
▁亨	-7750
▁春风	-7751
▁迷你	-7752
▁WiFi	-7753
第一	-7754
▁俺们	-7755
▁良辰	-7756
▁表姐	-7757
▁分子	-7758
▁暮	-7759
▁小丑	-7760
▁排骨	-7761
▁肯德基	-7762
▁稿	-7763
▁窄	-7764
▁视觉	-7765
▁页面	-7766
▁下限	-7767
▁可行	-7768
▁打法	-7769
▁老娘	-7770
▁超频	-7771
▁成语	-7772
▁深陷	-7773
▁天下第一	-7774
▁洲	-7775
▁心跳	-7776
▁吃喝	-7777
▁退学	-7778
▁拟	-7779
▁要紧	-7780
▁名人	-7781
▁660	-7782
▁小苹果	-7783
▁外边	-7784
▁颈	-7785
▁卡里	-7786
▁steam	-7787
▁办事	-7788
▁凄	-7789
86	-7790
▁儒	-7791
▁厨师	-7792
▁观看	-7793
▁祥	-7794
▁警告	-7795
▁隔离	-7796
▁平凡	-7797
▁猜测	-7798
UI	-7799
▁zh	-7800
▁DN	-7801
▁区域	-7802
▁蓝翔	-7803
▁重大	-7804
▁诚实	-7805
▁师哥	-7806
▁心得	-7807
▁戒赌	-7808
▁米粉	-7809
▁ac	-7810
▁嚼	-7811
▁悔	-7812
▁未知	-7813
▁馍	-7814
▁ne	-7815
▁耿	-7816
▁红烧	-7817
▁绿灯	-7818
▁哆	-7819
▁惊现	-7820
▁适当	-7821
▁小马	-7822
▁收人	-7823
▁索隆	-7824
▁编号	-7825
▁最长	-7826
▁痣	-7827
▁禽	-7828
▁攀	-7829
▁风暴	-7830
▁改进	-7831
▁背锅	-7832
▁性质	-7833
▁蜀黍	-7834
▁别墅	-7835
▁问候	-7836
▁外挂	-7837
▁老区	-7838
▁藕	-7839
▁传球	-7840
▁糟糕	-7841
▁调教	-7842
▁巷	-7843
▁后边	-7844
▁爱丽	-7845
▁都市	-7846
▁袋子	-7847
▁茂	-7848
▁薯	-7849
▁军事	-7850
▁军团	-7851
▁烤肉	-7852
▁四人	-7853
▁崛起	-7854
▁料子	-7855
▁脆弱	-7856
▁二狗	-7857
▁八级	-7858
▁186	-7859
▁下图	-7860
▁重开	-7861
▁重来	-7862
▁榴莲	-7863
▁日照	-7864
▁背叛	-7865
▁孕妇	-7866
▁580	-7867
▁药店	-7868
▁助理	-7869
▁去世	-7870
▁手法	-7871
▁手柄	-7872
▁暴躁	-7873
▁联考	-7874
▁幕	-7875
▁依赖	-7876
▁love	-7877
▁逢	-7878
▁闹心	-7879
▁脱离	-7880
▁闽	-7881
▁单人	-7882
▁压抑	-7883
▁VIP	-7884
▁后腰	-7885
▁征婚	-7886
▁意味	-7887
▁日文	-7888
▁通常	-7889
▁鞠	-7890
▁吕布	-7891
▁国企	-7892
▁新娘	-7893
▁禅	-7894
▁晚睡	-7895
▁经营	-7896
▁期望	-7897
▁格林	-7898
▁漫长	-7899
▁囊	-7900
▁logo	-7901
om	-7902
▁新华	-7903
▁装机	-7904
▁TAT	-7905
▁手段	-7906
▁狙击	-7907
▁班车	-7908
▁迎接	-7909
▁预言	-7910
▁先锋	-7911
▁总体	-7912
▁solo	-7913
▁写真	-7914
▁删减	-7915
▁加热	-7916
▁嫁接	-7917
▁长度	-7918
▁图案	-7919
▁步步	-7920
▁楠	-7921
▁荔	-7922
▁诞	-7923
▁卡组	-7924
▁鸡腿	-7925
▁泡沫	-7926
▁西亚	-7927
▁dala	-7928
▁同班	-7929
▁电竞	-7930
▁戴尔	-7931
▁死心	-7932
▁牵手	-7933
▁龄	-7934
▁下铺	-7935
▁失踪	-7936
▁平行	-7937
▁社区	-7938
▁茄	-7939
▁答疑	-7940
▁红尘	-7941
▁君子	-7942
▁薄荷	-7943
▁二月	-7944
▁初级	-7945
▁仍然	-7946
▁独自	-7947
▁母校	-7948
▁adc	-7949
▁氛	-7950
▁明哥	-7951
▁况且	-7952
▁逃课	-7953
▁压制	-7954
▁荣誉	-7955
▁PV	-7956
▁誓	-7957
▁改革	-7958
如此	-7959
▁内马	-7960
▁遗传	-7961
▁臣	-7962
▁调节	-7963
▁异界	-7964
▁汝	-7965
▁迎新	-7966
▁现任	-7967
▁辐	-7968
▁大米	-7969
▁自豪	-7970
▁鬼子	-7971
▁守望	-7972
▁魔鬼	-7973
▁挠	-7974
▁华丽	-7975
▁碾压	-7976
▁诉	-7977
▁大脑	-7978
▁韩语	-7979
▁太极	-7980
▁后门	-7981
▁网卡	-7982
▁姓氏	-7983
▁冰淇	-7984
▁看点	-7985
▁dalao	-7986
▁旭	-7987
▁自取	-7988
▁询问	-7989
▁扳	-7990
▁披风	-7991
▁停水	-7992
▁巨大	-7993
▁过于	-7994
叶草	-7995
▁母狗	-7996
▁梭	-7997
▁未婚	-7998
▁氛围	-7999
▁邮寄	-8000
19	-8001
▁没劲	-8002
▁继承	-8003
▁135	-8004
▁招募	-8005
▁绍	-8006
▁剑灵	-8007
▁闪闪	-8008
▁清洁	-8009
▁交代	-8010
▁午餐	-8011
▁犀利	-8012
▁拇	-8013
▁摩擦	-8014
▁起飞	-8015
▁阴天	-8016
▁关节	-8017
▁创新	-8018
▁2012	-8019
▁社保	-8020
▁广大	-8021
▁演绎	-8022
▁枕头	-8023
▁环保	-8024
▁危机	-8025
▁永恒	-8026
▁羞涩	-8027
▁质疑	-8028
▁仗	-8029
▁嗷嗷	-8030
▁固件	-8031
▁点心	-8032
▁西湖	-8033
▁罚款	-8034
▁祛痘	-8035
▁猫粮	-8036
▁赌博	-8037
oom	-8038
▁提成	-8039
▁木耳	-8040
▁穷游	-8041
▁嗦	-8042
▁上牌	-8043
▁270	-8044
▁惩	-8045
▁搞搞	-8046
▁踏实	-8047
28	-8048
▁湛	-8049
▁混乱	-8050
▁保守	-8051
▁出钱	-8052
▁慎重	-8053
▁蓬	-8054
▁丨	-8055
▁丢脸	-8056
AN	-8057
▁讽	-8058
▁野鸡	-8059
▁上边	-8060
▁养活	-8061
▁分裂	-8062
▁干部	-8063
▁媚	-8064
▁糕	-8065
▁奥斯	-8066
▁开工	-8067
▁彪	-8068
▁提出	-8069
▁勾引	-8070
▁剪刀	-8071
▁建立	-8072
▁分离	-8073
▁心机	-8074
▁贱人	-8075
▁小卡	-8076
▁韭菜	-8077
▁东门	-8078
▁全能	-8079
▁色彩	-8080
▁口音	-8081
▁无尽	-8082
▁直径	-8083
▁胶带	-8084
▁艾斯	-8085
▁回应	-8086
▁南站	-8087
▁认可	-8088
▁边缘	-8089
98	-8090
马逊	-8091
im	-8092
▁we	-8093
▁规模	-8094
▁蜗牛	-8095
▁176	-8096
▁噪	-8097
▁金鱼	-8098
▁安康	-8099
▁硕士	-8100
▁嚣	-8101
▁酒精	-8102
▁录像	-8103
▁电车	-8104
▁狗血	-8105
▁放水	-8106
▁绕道	-8107
▁大鱼	-8108
▁汤圆	-8109
▁同性	-8110
▁蒜	-8111
▁同胞	-8112
▁医疗	-8113
▁棒棒糖	-8114
▁1060	-8115
▁筷	-8116
▁盘子	-8117
▁万圣	-8118
▁夏季	-8119
▁小车	-8120
▁这天	-8121
▁巢	-8122
▁五官	-8123
▁公母	-8124
▁星球	-8125
▁石榴	-8126
▁改版	-8127
▁憨	-8128
▁出息	-8129
▁发誓	-8130
▁三无	-8131
▁提名	-8132
▁试一	-8133
▁PP	-8134
▁导游	-8135
▁空白	-8136
▁RM	-8137
▁李白	-8138
▁品味	-8139
▁闹钟	-8140
▁合体	-8141
▁明日	-8142
ng	-8143
▁舟	-8144
▁农业	-8145
▁卡贴	-8146
▁补办	-8147
▁818	-8148
胞胎	-8149
▁CF	-8150
▁刻意	-8151
▁折扣	-8152
▁趋势	-8153
▁言论	-8154
▁=	-8155
▁毅力	-8156
▁啰	-8157
▁换机	-8158
▁估价	-8159
▁学业	-8160
▁柚子	-8161
old	-8162
▁挣扎	-8163
▁搅	-8164
▁向往	-8165
▁隐形	-8166
▁挪	-8167
▁好使	-8168
▁尽情	-8169
▁man	-8170
▁登场	-8171
▁名气	-8172
▁处于	-8173
▁无耻	-8174
▁大将	-8175
▁刀剑	-8176
▁一座	-8177
▁干点	-8178
▁清早	-8179
▁长途	-8180
▁煲	-8181
▁850	-8182
▁标签	-8183
▁卫衣	-8184
▁新品	-8185
▁男士	-8186
▁亚马逊	-8187
▁蒙古	-8188
▁溪	-8189
▁冰淇淋	-8190
▁威海	-8191
▁忍受	-8192
▁暴雨	-8193
▁郑爽	-8194
▁也敢	-8195
▁年少	-8196
▁老表	-8197
▁绿帽	-8198
▁传媒	-8199
▁操心	-8200
▁绯	-8201
▁苏北	-8202
▁打造	-8203
▁关掉	-8204
▁嚣张	-8205
▁教务	-8206
▁试一试	-8207
▁邯	-8208
▁淄博	-8209
▁转换	-8210
▁免疫	-8211
▁无所	-8212
▁皇后	-8213
▁阿哲	-8214
▁镯	-8215
▁op	-8216
▁客人	-8217
▁赣州	-8218
▁涛	-8219
▁遥控	-8220
▁雪花	-8221
▁鲤鱼	-8222
▁嚯	-8223
▁极端	-8224
▁符文	-8225
▁美味	-8226
▁膨	-8227
▁乡镇	-8228
▁生态	-8229
▁小牛	-8230
▁挂件	-8231
▁张艺	-8232
▁理财	-8233
▁要点	-8234
▁and	-8235
▁沃尔	-8236
▁问答	-8237
▁鲨鱼	-8238
▁涩	-8239
▁义务	-8240
▁乐乐	-8241
▁直达	-8242
▁破产	-8243
▁锯	-8244
▁射门	-8245
▁年薪	-8246
▁撸啊	-8247
▁邪教	-8248
▁男方	-8249
▁dnf	-8250
▁吉利	-8251
▁小明	-8252
▁杰伦	-8253
▁MM	-8254
▁威少	-8255
▁磨合	-8256
▁cb	-8257
▁冷清	-8258
▁小猪	-8259
▁花儿	-8260
▁鲫鱼	-8261
▁撸啊撸	-8262
▁诡异	-8263
▁台球	-8264
▁开局	-8265
▁路子	-8266
▁饰品	-8267
▁js	-8268
▁土地	-8269
▁脸红	-8270
▁181	-8271
▁原来如此	-8272
▁收银	-8273
▁大地	-8274
▁210	-8275
▁卡顿	-8276
▁朱婷	-8277
▁棚	-8278
▁大本	-8279
▁抬头	-8280
▁迷彩	-8281
▁公公	-8282
▁失落	-8283
▁上山	-8284
▁更换	-8285
▁中等	-8286
▁影像	-8287
▁风水	-8288
▁口气	-8289
▁le	-8290
▁半身	-8291
▁队形	-8292
不及	-8293
▁客运	-8294
▁无辜	-8295
▁国语	-8296
▁遗忘	-8297
▁豆浆	-8298
▁视力	-8299
▁霆	-8300
▁北站	-8301
▁娘家	-8302
▁岸	-8303
▁出没	-8304
▁攒钱	-8305
▁月卡	-8306
▁火腿	-8307
▁童话	-8308
▁金钱	-8309
▁递	-8310
▁boy	-8311
▁呼呼	-8312
▁堵车	-8313
▁电工	-8314
▁乞丐	-8315
▁发霉	-8316
▁口子	-8317
▁通讯	-8318
霹雳	-8319
▁店主	-8320
▁讽刺	-8321
▁印记	-8322
▁蜜蜡	-8323
▁抽风	-8324
▁喜剧	-8325
▁惊讶	-8326
▁打磨	-8327
▁愚人	-8328
▁每晚	-8329
▁前进	-8330
▁高分	-8331
ong	-8332
▁脸型	-8333
▁阳历	-8334
▁ni	-8335
▁复查	-8336
▁外形	-8337
▁对号	-8338
▁渡劫	-8339
▁能源	-8340
▁智力	-8341
▁叙	-8342
▁新加	-8343
▁top	-8344
ind	-8345
▁灯泡	-8346
▁败家	-8347
▁大牌	-8348
▁衫	-8349
▁内向	-8350
▁滤	-8351
▁氪金	-8352
▁期中	-8353
▁花样	-8354
▁蝎子	-8355
▁内马尔	-8356
▁震撼	-8357
▁模具	-8358
▁武装	-8359
▁海外	-8360
▁还款	-8361
▁vp	-8362
▁新乡	-8363
▁红发	-8364
▁妍	-8365
▁修仙	-8366
▁大发	-8367
▁打钱	-8368
▁海盗	-8369
▁订婚	-8370
▁卖完	-8371
▁猿	-8372
▁国米	-8373
▁妖精	-8374
▁上身	-8375
▁小熊	-8376
▁TF	-8377
▁表弟	-8378
▁提莫	-8379
▁小胖	-8380
▁花盆	-8381
▁本田	-8382
▁导弹	-8383
▁拿钱	-8384
▁寡妇	-8385
▁狗肉	-8386
▁梅花	-8387
▁零件	-8388
▁军队	-8389
▁韩版	-8390
▁魔都	-8391
▁商丘	-8392
▁大侠	-8393
▁心意	-8394
▁离合	-8395
▁原地	-8396
▁泰安	-8397
▁黛	-8398
▁梯	-8399
▁哗	-8400
▁无效	-8401
▁容量	-8402
▁约炮	-8403
▁橙色	-8404
▁娘炮	-8405
▁寿命	-8406
▁盐城	-8407
▁佑	-8408
▁死机	-8409
▁高高	-8410
▁竿	-8411
▁堕落	-8412
▁夜市	-8413
▁平米	-8414
▁筷子	-8415
▁倒车	-8416
▁心眼	-8417
▁曹操	-8418
▁眠	-8419
▁buff	-8420
▁诛仙	-8421
▁妖怪	-8422
▁寻人	-8423
▁拉面	-8424
▁神舟	-8425
▁蛙	-8426
▁跪舔	-8427
▁群主	-8428
▁吃苦	-8429
▁院长	-8430
▁掏粪	-8431
▁王牌	-8432
▁AC	-8433
▁重发	-8434
▁水准	-8435
▁法院	-8436
▁琢	-8437
拉多	-8438
▁大厦	-8439
▁GDP	-8440
▁本体	-8441
▁武功	-8442
▁脉	-8443
▁二期	-8444
▁北海	-8445
▁形状	-8446
▁传播	-8447
▁邢	-8448
▁如来	-8449
▁唧	-8450
▁周岁	-8451
▁感叹	-8452
▁观望	-8453
▁放生	-8454
▁短期	-8455
▁说服	-8456
▁听得	-8457
▁心烦	-8458
▁关联	-8459
▁资深	-8460
▁茫	-8461
▁泰坦	-8462
▁寨	-8463
▁三哥	-8464
▁前景	-8465
▁嘴唇	-8466
▁良好	-8467
▁看透	-8468
▁肥皂	-8469
▁恐龙	-8470
▁忆	-8471
▁惠州	-8472
▁饵	-8473
▁复印	-8474
▁酥	-8475
▁后代	-8476
▁橡皮	-8477
▁预感	-8478
▁菇凉	-8479
▁少爷	-8480
▁城建	-8481
▁崇拜	-8482
▁本本	-8483
▁自来	-8484
▁亚索	-8485
▁主演	-8486
▁五中	-8487
▁老李	-8488
▁走心	-8489
▁铃声	-8490
▁为难	-8491
▁嘚瑟	-8492
▁两岁	-8493
▁共勉	-8494
▁ak	-8495
▁墙上	-8496
以对	-8497
▁白头	-8498
▁电费	-8499
▁辐射	-8500
▁剪辑	-8501
▁解救	-8502
▁无言以对	-8503
▁难忘	-8504
▁抱紧	-8505
▁整机	-8506
▁耐用	-8507
▁MX	-8508
▁常驻	-8509
▁柳州	-8510
▁开播	-8511
▁听懂	-8512
▁妮可	-8513
▁邯郸	-8514
▁特长	-8515
▁修罗	-8516
▁颤	-8517
▁原生	-8518
▁经纪	-8519
▁2333	-8520
▁户型	-8521
▁认同	-8522
▁轻微	-8523
▁一无所	-8524
▁愤怒	-8525
▁水冷	-8526
▁眼圈	-8527
▁独特	-8528
▁2800	-8529
▁北门	-8530
▁情敌	-8531
▁坐骑	-8532
▁好惨	-8533
▁孵	-8534
▁狠狠	-8535
▁拱	-8536
▁宿管	-8537
▁必定	-8538
▁茉	-8539
▁正片	-8540
▁可见	-8541
▁讲解	-8542
▁包容	-8543
▁手链	-8544
▁—	-8545
▁威力	-8546
▁西红	-8547
▁抠脚	-8548
▁帮会	-8549
▁日系	-8550
▁吼吼	-8551
▁矿泉	-8552
▁阜阳	-8553
▁琼	-8554
▁新歌	-8555
▁主子	-8556
▁花痴	-8557
▁比亚迪	-8558
▁不亮	-8559
▁触发	-8560
▁眼缘	-8561
▁人群	-8562
▁走开	-8563
▁小樱	-8564
▁社长	-8565
▁隐身	-8566
▁鼻涕	-8567
▁鲸	-8568
▁增强	-8569
▁常识	-8570
▁欢喜	-8571
▁郊区	-8572
▁高通	-8573
▁庞	-8574
▁zz	-8575
▁淑女	-8576
▁AM	-8577
▁橙子	-8578
▁为人	-8579
▁光临	-8580
▁翻身	-8581
▁域	-8582
▁二批	-8583
▁乐队	-8584
▁内蒙古	-8585
▁情歌	-8586
▁花都	-8587
▁例如	-8588
▁ktv	-8589
▁圣人	-8590
▁配图	-8591
▁亲身	-8592
▁亲切	-8593
▁体系	-8594
▁身价	-8595
▁世勋	-8596
▁电压	-8597
uang	-8598
▁行星	-8599
▁猪猪	-8600
▁biu	-8601
▁ht	-8602
▁平淡	-8603
▁深入	-8604
▁体能	-8605
▁长生	-8606
▁搏	-8607
▁菏	-8608
▁白痴	-8609
▁打理	-8610
▁职位	-8611
▁自在	-8612
▁同伴	-8613
▁暴风	-8614
▁霹雳	-8615
▁冒充	-8616
▁初心	-8617
▁小鸡	-8618
▁龙女	-8619
▁签证	-8620
▁匿	-8621
▁外婆	-8622
▁诞生	-8623
▁330	-8624
▁筹	-8625
▁孔雀	-8626
▁征信	-8627
▁新城	-8628
ki	-8629
▁琉	-8630
▁丑女	-8631
▁西红柿	-8632
▁刨	-8633
▁录制	-8634
▁棉花	-8635
▁开场	-8636
▁TT	-8637
▁仙剑	-8638
▁说得	-8639
▁保真	-8640
▁邮票	-8641
▁车型	-8642
▁沫	-8643
▁鲍	-8644
▁大风	-8645
▁饲	-8646
▁瞌	-8647
▁值班	-8648
▁剖	-8649
▁书法	-8650
▁No	-8651
▁糊涂	-8652
▁做错	-8653
▁拍拍	-8654
▁毛子	-8655
▁名片	-8656
▁车友	-8657
▁尹	-8658
▁苗子	-8659
▁AA	-8660
▁学友	-8661
▁有问	-8662
必答	-8663
▁壳子	-8664
▁有问必答	-8665
▁主攻	-8666
▁致敬	-8667
▁鹏	-8668
▁喉咙	-8669
▁廊	-8670
▁聘	-8671
▁水表	-8672
▁荧	-8673
ine	-8674
▁缓解	-8675
▁无名	-8676
▁景点	-8677
▁疑惑	-8678
▁up	-8679
▁人力	-8680
▁对抗	-8681
▁清仓	-8682
▁追回	-8683
▁鳄鱼	-8684
▁园林	-8685
▁悬念	-8686
▁停产	-8687
▁双卡	-8688
▁小气	-8689
▁jj	-8690
▁红豆	-8691
▁复古	-8692
▁激烈	-8693
el	-8694
▁只限	-8695
▁冬眠	-8696
▁瘦子	-8697
▁笛	-8698
▁内幕	-8699
▁松鼠	-8700
▁恁	-8701
▁钦	-8702
▁哲学	-8703
▁批评	-8704
▁洗发	-8705
▁图纸	-8706
▁水壶	-8707
▁凳	-8708
▁传单	-8709
▁嗑	-8710
▁寻思	-8711
▁残疾	-8712
▁气球	-8713
▁炉石	-8714
▁820	-8715
▁供电	-8716
▁复刻	-8717
▁行程	-8718
▁预备	-8719
▁IP	-8720
▁眼角	-8721
▁美腿	-8722
▁被盗	-8723
▁瘾	-8724
▁开张	-8725
▁空虚	-8726
▁万里	-8727
▁解惑	-8728
▁此生	-8729
▁晾	-8730
▁深度	-8731
▁远远	-8732
▁XX	-8733
▁腹黑	-8734
▁表格	-8735
▁177	-8736
▁一心	-8737
▁人大	-8738
▁看病	-8739
▁充实	-8740
▁大楼	-8741
▁食欲	-8742
▁丘	-8743
▁杰克	-8744
▁南北	-8745
▁汉中	-8746
德华	-8747
▁下边	-8748
▁早期	-8749
▁转账	-8750
▁MIUI	-8751
▁蟑	-8752
▁一幕	-8753
▁mp	-8754
▁抵制	-8755
▁熙	-8756
▁平静	-8757
▁等人	-8758
▁赠品	-8759
乍到	-8760
▁床单	-8761
▁退回	-8762
来乍到	-8763
▁miui	-8764
▁常用	-8765
▁龙哥	-8766
▁纷	-8767
▁煎熬	-8768
▁卡片	-8769
▁叻	-8770
▁七彩	-8771
▁省份	-8772
▁而来	-8773
▁街道	-8774
▁香味	-8775
▁蜕	-8776
▁首饰	-8777
▁奥利	-8778
▁BUG	-8779
到晚	-8780
拿大	-8781
▁冷漠	-8782
▁山大	-8783
▁西装	-8784
▁桔	-8785
▁打断	-8786
▁打破	-8787
▁1050	-8788
▁兰花	-8789
▁泸州	-8790
▁用处	-8791
▁误导	-8792
▁求婚	-8793
▁站街	-8794
▁终身	-8795
▁绩	-8796
▁陨	-8797
▁报废	-8798
▁溃	-8799
▁开除	-8800
▁熟练	-8801
▁努比亚	-8802
▁三种	-8803
▁菩萨	-8804
▁初来乍到	-8805
▁大龄	-8806
▁厄	-8807
▁国贸	-8808
▁溜溜	-8809
▁1070	-8810
▁西游记	-8811
▁多万	-8812
▁账户	-8813
▁违章	-8814
▁西边	-8815
▁2200	-8816
▁火机	-8817
▁虎牙	-8818
▁棺	-8819
▁古城	-8820
▁王俊	-8821
▁青山	-8822
▁冬季	-8823
▁全力	-8824
▁大图	-8825
▁张嘴	-8826
▁管家	-8827
▁说谎	-8828
▁禽兽	-8829
▁宵夜	-8830
▁梦中	-8831
▁虚伪	-8832
▁贫困	-8833
▁2600	-8834
▁六天	-8835
▁高职	-8836
▁厂子	-8837
▁情报	-8838
▁张杰	-8839
▁魔方	-8840
▁措	-8841
▁酿	-8842
▁时不	-8843
▁火龙	-8844
▁经贸	-8845
▁暗黑	-8846
▁违法	-8847
▁2020	-8848
▁药学	-8849
▁赵云	-8850
▁镶	-8851
▁遮天	-8852
▁蟑螂	-8853
▁转眼	-8854
▁付费	-8855
▁困扰	-8856
▁部长	-8857
▁gta	-8858
▁丙	-8859
▁裹	-8860
▁DI	-8861
▁MA	-8862
▁田园	-8863
▁鱼塘	-8864
▁零下	-8865
▁磅	-8866
▁亚军	-8867
▁自驾	-8868
▁配角	-8869
▁加拿大	-8870
▁旗袍	-8871
▁刘亦	-8872
▁菏泽	-8873
▁专注	-8874
▁冷水	-8875
▁序列	-8876
▁建业	-8877
▁di	-8878
OSS	-8879
▁南瓜	-8880
▁张艺兴	-8881
▁二线	-8882
▁拆封	-8883
▁挡住	-8884
▁移民	-8885
▁鼬	-8886
▁DD	-8887
▁格格	-8888
▁混沌	-8889
▁股市	-8890
▁老马	-8891
▁喜爱	-8892
▁红颜	-8893
▁美人鱼	-8894
▁霞	-8895
▁星际	-8896
▁青蛙	-8897
▁改编	-8898
▁强求	-8899
▁勤快	-8900
▁瞌睡	-8901
▁初音	-8902
▁嘉兴	-8903
▁离谱	-8904
▁fz	-8905
▁制度	-8906
▁视角	-8907
▁air	-8908
▁昆山	-8909
▁残酷	-8910
▁用钱	-8911
▁词组	-8912
▁刘亦菲	-8913
▁渝	-8914
▁小雨	-8915
▁抱住	-8916
▁jk	-8917
▁标点	-8918
▁职高	-8919
▁乍	-8920
▁建行	-8921
▁校内	-8922
▁蓉	-8923
▁支撑	-8924
▁辟	-8925
▁大红	-8926
▁双胞胎	-8927
▁轿	-8928
▁影院	-8929
▁链子	-8930
▁鲁大	-8931
▁天黑	-8932
▁应援	-8933
哈哈	-8934
▁内线	-8935
▁贩子	-8936
▁风筝	-8937
▁饥	-8938
▁AK	-8939
▁大汉	-8940
▁琢磨	-8941
▁踏板	-8942
▁声明	-8943
▁安庆	-8944
▁家属	-8945
▁借给	-8946
▁院子	-8947
▁吟	-8948
▁靖	-8949
▁从事	-8950
▁夫妇	-8951
▁流弊	-8952
▁流星	-8953
▁天河	-8954
▁bd	-8955
▁太忙	-8956
▁顾客	-8957
▁谋	-8958
▁mv	-8959
▁九江	-8960
▁丛	-8961
▁蓝天	-8962
▁挽留	-8963
▁牙套	-8964
▁五号	-8965
▁大明	-8966
▁海绵	-8967
▁愈	-8968
▁合唱	-8969
▁四代	-8970
▁亭	-8971
▁gg	-8972
▁糖糖	-8973
▁奶油	-8974
▁汕头	-8975
▁死宅	-8976
▁王俊凯	-8977
▁鼎	-8978
▁妇女	-8979
▁卡西	-8980
▁油门	-8981
▁蔷	-8982
▁XD	-8983
▁mc	-8984
▁平面	-8985
▁必胜	-8986
▁脸大	-8987
▁256	-8988
▁糖果	-8989
▁绿茶	-8990
▁剧组	-8991
▁唧唧	-8992
▁票价	-8993
▁新加坡	-8994
▁雕刻	-8995
▁禁言	-8996
▁167	-8997
▁执行	-8998
▁邱	-8999
▁团体	-9000
▁年终	-9001
▁出汗	-9002
OP	-9003
▁特征	-9004
35	-9005
▁省会	-9006
▁104	-9007
▁惜	-9008
▁划痕	-9009
▁结论	-9010
▁街舞	-9011
▁tt	-9012
▁德玛	-9013
▁老外	-9014
▁僧	-9015
▁倾向	-9016
▁锁定	-9017
▁吸烟	-9018
▁怀抱	-9019
▁正月	-9020
▁nba	-9021
▁叶插	-9022
▁恼	-9023
▁上位	-9024
▁发车	-9025
▁庭	-9026
▁养殖	-9027
▁单元	-9028
▁存钱	-9029
▁痛快	-9030
▁变速	-9031
▁领证	-9032
▁162	-9033
▁巨头	-9034
▁跳过	-9035
▁不败	-9036
▁惯例	-9037
▁拼音	-9038
▁欧尼	-9039
▁晒黑	-9040
▁牌照	-9041
▁174	-9042
75	-9043
▁惦	-9044
▁生理	-9045
sh	-9046
▁简历	-9047
▁婉	-9048
▁偏远	-9049
▁种族	-9050
▁腿毛	-9051
ku	-9052
▁停留	-9053
▁密度	-9054
▁连云	-9055
▁基金	-9056
▁比特	-9057
▁饭菜	-9058
▁一袋	-9059
▁功力	-9060
▁叶片	-9061
▁远程	-9062
▁相约	-9063
▁笑着	-9064
▁抢购	-9065
▁刘备	-9066
▁汉堡	-9067
▁休假	-9068
va	-9069
▁东风	-9070
▁垫底	-9071
▁炒股	-9072
▁推销	-9073
▁黄河	-9074
▁祁	-9075
▁BOSS	-9076
▁注重	-9077
▁修理	-9078
▁大全	-9079
▁排球	-9080
▁袭	-9081
▁吓哭	-9082
▁地面	-9083
▁大雪	-9084
▁差价	-9085
▁贸易	-9086
▁2400	-9087
▁劣	-9088
▁自理	-9089
▁阵营	-9090
▁变色	-9091
▁高于	-9092
▁幺	-9093
▁学科	-9094
▁瓣	-9095
▁ml	-9096
▁丐帮	-9097
▁伪装	-9098
▁低级	-9099
▁大婶	-9100
▁差异	-9101
▁粮食	-9102
▁西方	-9103
▁过户	-9104
▁口感	-9105
▁气势	-9106
▁附魔	-9107
▁发明	-9108
▁白酒	-9109
▁充气	-9110
▁显然	-9111
▁解脱	-9112
▁争议	-9113
▁荔枝	-9114
▁解散	-9115
▁电器	-9116
▁苍蝇	-9117
▁play	-9118
▁一听	-9119
▁轮毂	-9120
▁还钱	-9121
▁魔女	-9122
▁沙漠	-9123
▁按时	-9124
▁指标	-9125
▁合一	-9126
▁结伴	-9127
▁掀	-9128
▁CM	-9129
▁弄成	-9130
▁课表	-9131
▁重温	-9132
▁声优	-9133
▁金牌	-9134
不来	-9135
▁力度	-9136
▁一针	-9137
▁从新	-9138
▁hold	-9139
▁摆脱	-9140
▁步骤	-9141
▁病人	-9142
▁素描	-9143
▁mod	-9144
▁大唐	-9145
▁清洗	-9146
▁透气	-9147
▁高温	-9148
▁初学	-9149
▁浴室	-9150
▁药丸	-9151
▁豆子	-9152
▁长毛	-9153
▁月经	-9154
▁颁	-9155
▁后腿	-9156
▁宿迁	-9157
▁快船	-9158
▁打动	-9159
▁暑期	-9160
▁音量	-9161
▁全校	-9162
▁私下	-9163
▁下线	-9164
▁华山	-9165
▁开盘	-9166
▁无忧	-9167
▁女排	-9168
▁药水	-9169
▁蚁	-9170
▁保湿	-9171
▁再试	-9172
▁时不时	-9173
bo	-9174
▁em	-9175
▁欲望	-9176
▁女团	-9177
▁玩法	-9178
▁十足	-9179
▁真真	-9180
▁坊	-9181
▁引进	-9182
▁绍兴	-9183
▁思聪	-9184
▁自爆	-9185
▁芙蓉	-9186
▁马来	-9187
▁邦	-9188
▁关羽	-9189
▁极速	-9190
▁繁华	-9191
▁移植	-9192
▁反手	-9193
▁家园	-9194
▁夜景	-9195
▁苏联	-9196
▁伤人	-9197
▁白眼	-9198
▁发呆	-9199
▁泰达	-9200
▁矫正	-9201
▁泡妞	-9202
▁顽	-9203
▁兄台	-9204
▁奖品	-9205
▁快捷	-9206
▁蚌	-9207
▁请求	-9208
▁孬	-9209
▁黄山	-9210
▁米线	-9211
▁大帅	-9212
▁耗子	-9213
▁矜	-9214
▁焦虑	-9215
▁日出	-9216
▁王八	-9217
▁自拔	-9218
▁船长	-9219
▁黑猫	-9220
▁pve	-9221
▁茄子	-9222
▁喜感	-9223
▁187	-9224
▁机型	-9225
▁灵活	-9226
▁炒饭	-9227
▁身后	-9228
▁搭档	-9229
▁鲁大师	-9230
▁en	-9231
▁预报	-9232
▁一天到晚	-9233
▁滨	-9234
▁快餐	-9235
▁home	-9236
所欲	-9237
▁考察	-9238
▁金丝	-9239
▁风机	-9240
▁脚步	-9241
▁剪掉	-9242
▁头脑	-9243
▁宜宾	-9244
▁野外	-9245
▁青菜	-9246
▁总部	-9247
▁晚期	-9248
▁沁	-9249
▁洗车	-9250
斯加	-9251
▁午夜	-9252
▁喵喵	-9253
▁圆通	-9254
▁内测	-9255
▁名义	-9256
▁消毒	-9257
▁超大	-9258
▁鸡肉	-9259
出来	-9260
▁秤	-9261
▁故障	-9262
▁门面	-9263
▁防晒	-9264
▁凡人	-9265
▁离校	-9266
▁傅	-9267
▁峡	-9268
▁史诗	-9269
TC	-9270
▁栀	-9271
▁网咖	-9272
▁伊布	-9273
▁热心	-9274
▁脑壳	-9275
▁MVP	-9276
格兰	-9277
▁逆转	-9278
▁灿烈	-9279
▁商贸	-9280
▁徽章	-9281
▁绒	-9282
▁火力	-9283
▁技师	-9284
▁招收	-9285
▁疲劳	-9286
▁膨胀	-9287
▁东站	-9288
▁倾城	-9289
▁占领	-9290
▁推迟	-9291
▁睡衣	-9292
▁黑头	-9293
▁柿	-9294
▁义乌	-9295
▁高新	-9296
▁华东	-9297
▁微胖	-9298
▁线条	-9299
▁过关	-9300
13	-9301
▁手持	-9302
▁绳子	-9303
▁东部	-9304
▁机制	-9305
▁葵	-9306
▁傻瓜	-9307
ma	-9308
▁金华	-9309
▁繁体	-9310
▁166	-9311
▁貂蝉	-9312
▁618	-9313
▁提交	-9314
▁星爷	-9315
无故	-9316
▁寻求	-9317
▁新东	-9318
▁件套	-9319
▁层次	-9320
▁面相	-9321
▁打雷	-9322
▁区分	-9323
▁形成	-9324
▁拇指	-9325
▁苦恼	-9326
▁眼线	-9327
▁写错	-9328
▁意境	-9329
▁连云港	-9330
▁pr	-9331
▁vy	-9332
▁狗头	-9333
▁CA	-9334
▁返回	-9335
▁嵩	-9336
▁亮度	-9337
▁首都	-9338
▁冲击	-9339
▁感触	-9340
▁不朽	-9341
▁今夜	-9342
▁盈利	-9343
▁傍	-9344
▁woc	-9345
▁小型	-9346
▁担当	-9347
▁ED	-9348
▁怎能	-9349
▁球王	-9350
▁送来	-9351
▁陌陌	-9352
紫棋	-9353
▁低音	-9354
▁名次	-9355
▁吹风	-9356
▁清纯	-9357
▁牙膏	-9358
▁中途	-9359
▁爵士	-9360
▁分明	-9361
▁前台	-9362
会儿	-9363
▁热点	-9364
▁许愿	-9365
▁姑姑	-9366
▁学员	-9367
▁慕斯	-9368
▁古董	-9369
▁氵	-9370
▁合伙	-9371
▁彩色	-9372
▁公积	-9373
▁知己	-9374
▁银子	-9375
▁米娜	-9376
▁编导	-9377
26	-9378
▁五大	-9379
▁分区	-9380
▁合法	-9381
▁结实	-9382
▁已婚	-9383
▁扑街	-9384
▁荷花	-9385
▁365	-9386
▁at	-9387
▁一亿	-9388
▁眼力	-9389
▁公积金	-9390
▁机动	-9391
▁认领	-9392
▁包裹	-9393
▁对头	-9394
▁半斤	-9395
▁私密	-9396
▁卢克	-9397
▁水吧	-9398
▁犯法	-9399
▁纳尼	-9400
▁黎明	-9401
▁hd	-9402
▁多特	-9403
▁氧化	-9404
▁长寿	-9405
▁it	-9406
▁隐私	-9407
▁秦皇	-9408
▁增长	-9409
▁客厅	-9410
▁签字	-9411
▁过时	-9412
▁障	-9413
▁盛世	-9414
▁柱子	-9415
▁买菜	-9416
▁空乘	-9417
▁磕碰	-9418
▁和田	-9419
▁掏钱	-9420
▁千玺	-9421
▁闻到	-9422
▁路痴	-9423
▁骷	-9424
以为	-9425
▁涉及	-9426
▁床位	-9427
▁状元	-9428
▁全开	-9429
▁出路	-9430
▁参数	-9431
▁梓	-9432
▁乐器	-9433
▁文凭	-9434
▁燃烧	-9435
▁黑化	-9436
▁星辰	-9437
▁测评	-9438
▁建工	-9439
▁热火	-9440
▁人文	-9441
▁嫁人	-9442
▁无非	-9443
▁定做	-9444
▁死掉	-9445
▁夏日	-9446
▁mvp	-9447
▁军校	-9448
▁赔偿	-9449
▁蒲	-9450
▁不安	-9451
▁吃住	-9452
▁终老	-9453
▁新东方	-9454
▁包含	-9455
▁罐头	-9456
▁运输	-9457
▁统治	-9458
▁读研	-9459
▁钞	-9460
▁大象	-9461
▁智齿	-9462
▁is	-9463
▁难熬	-9464
▁武大	-9465
▁灵感	-9466
▁km	-9467
▁优质	-9468
▁蔷薇	-9469
▁310	-9470
▁high	-9471
▁山治	-9472
▁澳洲	-9473
▁廊坊	-9474
▁志同	-9475
▁沙雕	-9476
▁脏话	-9477
▁克拉	-9478
▁否认	-9479
▁锡	-9480
▁电力	-9481
▁领悟	-9482
▁绝壁	-9483
▁两根	-9484
▁二货	-9485
▁压惊	-9486
▁炫舞	-9487
▁109	-9488
▁德阳	-9489
衣库	-9490
▁东边	-9491
拳道	-9492
▁天一	-9493
▁旅馆	-9494
▁消灭	-9495
▁开朗	-9496
▁茉莉	-9497
▁诈骗	-9498
▁出卖	-9499
▁毛巾	-9500
▁成龙	-9501
▁优衣库	-9502
▁莹	-9503
▁排气	-9504
▁榨	-9505
▁琅	-9506
▁瞒	-9507
▁掉漆	-9508
▁自愿	-9509
▁麦当	-9510
▁欸	-9511
▁德州	-9512
▁吃糖	-9513
▁龙族	-9514
▁法拉	-9515
▁向前	-9516
▁校草	-9517
▁胖次	-9518
▁NB	-9519
▁国旗	-9520
▁小四	-9521
▁天梯	-9522
▁小镇	-9523
▁成分	-9524
▁皇上	-9525
▁vpn	-9526
▁强调	-9527
▁也罢	-9528
▁温泉	-9529
▁come	-9530
▁日游	-9531
▁炫酷	-9532
▁摸着	-9533
▁粘贴	-9534
▁手势	-9535
▁缓存	-9536
▁4.4	-9537
▁耻	-9538
▁骷髅	-9539
道合	-9540
▁元老	-9541
▁吵醒	-9542
▁干燥	-9543
▁山里	-9544
▁手环	-9545
▁武林	-9546
▁一档	-9547
▁专心	-9548
▁函数	-9549
▁宜昌	-9550
▁特典	-9551
▁解析	-9552
▁溶	-9553
▁总统	-9554
▁分身	-9555
▁电磁	-9556
▁矜持	-9557
▁志同道合	-9558
▁乱斗	-9559
▁国民	-9560
▁配饰	-9561
▁邓紫棋	-9562
▁PC	-9563
▁电路	-9564
▁喔喔	-9565
▁吴邪	-9566
▁商人	-9567
▁冲锋	-9568
▁婶	-9569
▁露露	-9570
▁茜	-9571
▁lg	-9572
▁mua	-9573
▁细小	-9574
▁陵	-9575
▁结缘	-9576
不忍	-9577
orry	-9578
▁答题	-9579
▁湛江	-9580
▁印花	-9581
▁气场	-9582
▁奇妙	-9583
▁扇子	-9584
▁wu	-9585
▁同龄	-9586
▁房东	-9587
▁春秋	-9588
▁xs	-9589
▁投篮	-9590
▁豪门	-9591
▁自闭	-9592
▁多发	-9593
▁丢失	-9594
▁跆	-9595
▁二人	-9596
▁忘掉	-9597
▁相片	-9598
▁衡阳	-9599
▁越野	-9600
▁震动	-9601
▁肇	-9602
彦祖	-9603
▁潮汕	-9604
▁献血	-9605
▁人像	-9606
▁惦记	-9607
▁唤	-9608
▁财富	-9609
▁子女	-9610
▁小红	-9611
▁武侠	-9612
▁变异	-9613
不忍睹	-9614
▁夏尔	-9615
▁观赏	-9616
▁颓	-9617
▁婷婷	-9618
▁海棠	-9619
▁渐渐	-9620
▁旋转	-9621
▁电流	-9622
▁凳子	-9623
▁调到	-9624
▁雪糕	-9625
▁惨不忍睹	-9626
鞍山	-9627
▁天鹅	-9628
▁赶不	-9629
▁烂尾	-9630
▁立场	-9631
▁混血	-9632
▁棉袄	-9633
▁短腿	-9634
aber	-9635
▁460	-9636
▁睇	-9637
▁思域	-9638
▁芦荟	-9639
▁阎	-9640
▁得出	-9641
▁扣分	-9642
▁火山	-9643
▁痘印	-9644
▁优雅	-9645
▁前方	-9646
▁太白	-9647
▁雅思	-9648
▁便便	-9649
▁720	-9650
▁发行	-9651
▁这份	-9652
▁久久	-9653
▁光荣	-9654
▁2300	-9655
ey	-9656
▁岚	-9657
▁指数	-9658
▁明朝	-9659
▁剪短	-9660
▁洗脚	-9661
▁神作	-9662
▁白兔	-9663
▁乐山	-9664
▁兵长	-9665
▁唯有	-9666
▁台州	-9667
▁推理	-9668
▁炸鸡	-9669
▁萤	-9670
▁反映	-9671
▁奸商	-9672
▁手腕	-9673
▁存档	-9674
▁寄生	-9675
▁诸位	-9676
▁起诉	-9677
▁色差	-9678
▁冠希	-9679
▁装甲	-9680
▁火烧	-9681
▁封闭	-9682
▁推特	-9683
▁远征	-9684
▁卸妆	-9685
▁早操	-9686
▁毒瘤	-9687
▁身子	-9688
▁申通	-9689
▁睿智	-9690
▁东海	-9691
▁看穿	-9692
▁一姐	-9693
▁阿拉斯加	-9694
▁凉皮	-9695
▁惩罚	-9696
▁教会	-9697
▁日月	-9698
▁微软	-9699
▁龙头	-9700
▁接收	-9701
▁便秘	-9702
▁问好	-9703
▁相识	-9704
▁刘德华	-9705
▁名牌	-9706
▁镯子	-9707
▁馨	-9708
▁卡住	-9709
▁女帝	-9710
▁终点	-9711
▁AV	-9712
▁今生	-9713
▁炫富	-9714
▁铠	-9715
▁出线	-9716
▁神龙	-9717
▁报纸	-9718
ina	-9719
▁分组	-9720
▁ig	-9721
▁多情	-9722
▁胸口	-9723
▁头饰	-9724
▁珍贵	-9725
▁mmp	-9726
▁嚒	-9727
▁传授	-9728
▁双人	-9729
▁慢点	-9730
▁猪蹄	-9731
▁花式	-9732
▁火焰	-9733
▁机关	-9734
▁小七	-9735
▁遂	-9736
▁反过	-9737
▁邮局	-9738
安特	-9739
▁si	-9740
▁合集	-9741
▁支架	-9742
▁选课	-9743
▁饮水	-9744
▁屋子	-9745
▁烧饼	-9746
▁致命	-9747
▁掺	-9748
▁毛孔	-9749
▁直升	-9750
▁舜	-9751
▁携带	-9752
▁接龙	-9753
▁1.	-9754
▁头顶	-9755
▁楼盘	-9756
▁汉族	-9757
▁中路	-9758
▁深处	-9759
▁爆棚	-9760
co	-9761
▁雁	-9762
▁新建	-9763
▁海口	-9764
▁美利	-9765
▁184	-9766
俊杰	-9767
▁sa	-9768
▁时差	-9769
▁捷安特	-9770
▁干爹	-9771
▁负担	-9772
▁三网	-9773
▁丈母	-9774
▁对外	-9775
▁缺乏	-9776
▁达州	-9777
85	-9778
MG	-9779
▁扦	-9780
糊涂	-9781
▁兄妹	-9782
▁廉价	-9783
▁郡	-9784
▁种植	-9785
▁fps	-9786
▁暂停	-9787
▁躺枪	-9788
▁全名	-9789
▁浮云	-9790
▁青龙	-9791
▁周期	-9792
▁完工	-9793
▁挑拨	-9794
▁帝王	-9795
▁真美	-9796
▁大便	-9797
▁蓝颜	-9798
▁注销	-9799
▁火爆	-9800
▁才华	-9801
▁输球	-9802
▁皮带	-9803
▁违规	-9804
▁跆拳道	-9805
▁秦皇岛	-9806
▁当场	-9807
▁箫	-9808
▁夕阳	-9809
▁阅兵	-9810
▁漳	-9811
▁骡	-9812
▁康熙	-9813
eng	-9814
▁好车	-9815
▁替代	-9816
▁牛皮	-9817
▁节食	-9818
▁反过来	-9819
▁鱿	-9820
▁师院	-9821
▁染色	-9822
▁刷牙	-9823
▁大厅	-9824
▁画师	-9825
▁香菜	-9826
▁萎	-9827
▁大刀	-9828
▁富贵	-9829
▁店名	-9830
▁汽油	-9831
▁隔着	-9832
▁shi	-9833
▁嗜	-9834
▁居住	-9835
▁带给	-9836
▁出柜	-9837
▁扭曲	-9838
▁卧室	-9839
▁拍戏	-9840
▁替换	-9841
▁解除	-9842
▁猪脚	-9843
▁泗	-9844
▁双倍	-9845
▁富婆	-9846
▁唱吧	-9847
▁大嘴	-9848
▁爽快	-9849
▁高音	-9850
▁删贴	-9851
▁调侃	-9852
▁设施	-9853
▁磨损	-9854
▁昊	-9855
▁纠缠	-9856
▁聊城	-9857
▁书籍	-9858
▁足以	-9859
▁不幸	-9860
▁怜	-9861
▁树林	-9862
▁演戏	-9863
▁iPad	-9864
▁亲密	-9865
▁客车	-9866
▁取暖	-9867
▁腊肉	-9868
▁一哥	-9869
▁周口	-9870
▁打仗	-9871
▁吴彦祖	-9872
▁冻结	-9873
▁安阳	-9874
▁炒菜	-9875
▁旷	-9876
不可	-9877
▁口号	-9878
▁前置	-9879
▁吓唬	-9880
▁士兵	-9881
▁曲子	-9882
▁汇总	-9883
▁秋冬	-9884
▁缴费	-9885
▁限时	-9886
▁禹	-9887
▁转正	-9888
▁依靠	-9889
▁礼品	-9890
▁680	-9891
▁忐	-9892
▁Qw	-9893
▁削弱	-9894
▁取得	-9895
▁潮流	-9896
▁盖子	-9897
▁宴	-9898
▁GG	-9899
▁420	-9900
▁off	-9901
▁陶瓷	-9902
▁漏洞	-9903
27	-9904
▁殇	-9905
▁中年	-9906
▁ms	-9907
▁管住	-9908
▁通风	-9909
▁高能	-9910
▁合约	-9911
▁姥姥	-9912
▁日后	-9913
▁春季	-9914
▁奥斯卡	-9915
▁坛	-9916
▁公道	-9917
▁小生	-9918
▁传送	-9919
▁男装	-9920
▁萍	-9921
▁慎入	-9922
▁地名	-9923
▁虞	-9924
▁宝鸡	-9925
▁幻影	-9926
▁西甲	-9927
▁皮卡丘	-9928
▁one	-9929
ook	-9930
▁蓝屏	-9931
▁拘	-9932
▁情深	-9933
▁sorry	-9934
▁户外	-9935
▁梧	-9936
▁大麦	-9937
▁字数	-9938
▁拖拉	-9939
▁清水	-9940
▁短篇	-9941
▁红酒	-9942
▁罗汉	-9943
▁高楼	-9944
▁RMB	-9945
▁伽	-9946
▁姚明	-9947
▁侦探	-9948
▁漫威	-9949
▁达人	-9950
▁报应	-9951
▁藏獒	-9952
▁误解	-9953
▁昕	-9954
▁养生	-9955
▁忐忑	-9956
▁猪头	-9957
▁荆州	-9958
到大	-9959
▁口语	-9960
▁尿尿	-9961
▁捣乱	-9962
▁硫	-9963
▁cv	-9964
▁临摹	-9965
▁后背	-9966
▁含义	-9967
▁圣母	-9968
▁壮哉	-9969
▁拉布	-9970
▁淮安	-9971
▁跑车	-9972
▁dx	-9973
▁tx	-9974
▁比利	-9975
▁释放	-9976
▁四叶草	-9977
▁承担	-9978
▁爆破	-9979
▁谎言	-9980
▁来临	-9981
▁舅舅	-9982
▁初代	-9983
▁戒掉	-9984
▁名声	-9985
▁峨	-9986
之谦	-9987
▁尊严	-9988
▁扮演	-9989
▁枝条	-9990
▁沙子	-9991
▁太空	-9992
▁原型	-9993
▁显存	-9994
▁老毕	-9995
▁亲生	-9996
▁章鱼	-9997
▁联机	-9998
▁双眼	-9999
▁搜搜	-10000
▁头皮	-10001
▁沧州	-10002
▁鱿鱼	-10003
IFI	-10004
▁中原	-10005
▁狠心	-10006
▁联网	-10007
▁QwQ	-10008
▁三线	-10009
▁全体	-10010
▁占用	-10011
▁鄂	-10012
▁一款	-10013
▁哭泣	-10014
▁挨着	-10015
▁赢球	-10016
▁薛之谦	-10017
▁从小到大	-10018
th	-10019
润发	-10020
▁小鹿	-10021
▁打码	-10022
▁活人	-10023
▁丈母娘	-10024
▁新欢	-10025
▁无缘	-10026
▁麦当劳	-10027
阵子	-10028
▁上铺	-10029
▁滋味	-10030
▁离职	-10031
▁无缘无故	-10032
▁药物	-10033
▁魔力	-10034
▁忍着	-10035
▁大奖	-10036
▁挂号	-10037
▁指南	-10038
▁收徒	-10039
▁木木	-10040
▁难免	-10041
▁一项	-10042
▁大坑	-10043
▁室外	-10044
▁伍	-10045
▁流血	-10046
▁LG	-10047
▁友善	-10048
▁涂装	-10049
▁三期	-10050
▁套房	-10051
▁底子	-10052
▁觅	-10053
▁果冻	-10054
zi	-10055
▁好转	-10056
▁敷衍	-10057
▁确诊	-10058
▁随着	-10059
▁场子	-10060
▁长袖	-10061
斯特	-10062
▁乌鸦	-10063
▁破烂	-10064
▁脚下	-10065
▁皖	-10066
▁发炎	-10067
▁纸巾	-10068
▁拎	-10069
▁一律	-10070
▁大名	-10071
▁情愿	-10072
▁统招	-10073
▁陈赫	-10074
▁号称	-10075
▁大炮	-10076
▁红牛	-10077
▁腔	-10078
▁to	-10079
▁气温	-10080
gb	-10081
▁两者	-10082
▁做菜	-10083
▁台灯	-10084
▁河里	-10085
不着	-10086
▁四强	-10087
▁大吉	-10088
▁捆绑	-10089
▁机车	-10090
▁宁可	-10091
▁料理	-10092
▁荣幸	-10093
▁不二	-10094
▁权健	-10095
▁分段	-10096
▁放肆	-10097
▁弟子	-10098
▁王朝	-10099
▁入职	-10100
▁赶不上	-10101
▁汉语	-10102
▁轨道	-10103
▁做题	-10104
▁中南	-10105
▁战狼	-10106
▁伯贤	-10107
▁502	-10108
▁驱虫	-10109
▁意甲	-10110
▁零点	-10111
▁集训	-10112
▁兹	-10113
▁店长	-10114
▁行车	-10115
▁互联	-10116
▁小样	-10117
▁蒽	-10118
▁脸蛋	-10119
▁瞪	-10120
73	-10121
▁付钱	-10122
▁砍死	-10123
▁背心	-10124
▁常年	-10125
▁解压	-10126
ak	-10127
▁种类	-10128
▁路费	-10129
ck	-10130
▁梵	-10131
▁光纤	-10132
▁融合	-10133
▁迅雷	-10134
▁马拉	-10135
▁觉悟	-10136
▁酷爱	-10137
▁红薯	-10138
▁财政	-10139
▁话唠	-10140
▁外交	-10141
▁蓄	-10142
▁老桩	-10143
▁说得好	-10144
之年	-10145
OM	-10146
▁军装	-10147
▁fzl	-10148
▁小强	-10149
▁碉	-10150
▁卡号	-10151
▁著名	-10152
▁大灯	-10153
▁拉稀	-10154
▁母鸡	-10155
▁敦	-10156
▁紧急	-10157
▁370	-10158
▁产业	-10159
▁组成	-10160
▁橄	-10161
▁艾伦	-10162
▁高低	-10163
▁鸦	-10164
▁大车	-10165
▁ha	-10166
▁可悲	-10167
▁可耻	-10168
▁DIY	-10169
不得	-10170
▁上交	-10171
▁细腻	-10172
boy	-10173
▁旺旺	-10174
▁补助	-10175
▁贴心	-10176
▁种草	-10177
▁摁	-10178
▁房源	-10179
▁许嵩	-10180
▁白板	-10181
▁协调	-10182
▁佳能	-10183
▁冰冰	-10184
▁喷漆	-10185
▁学子	-10186
▁DNF	-10187
▁冰雪	-10188
▁搞好	-10189
▁零售	-10190
▁褪	-10191
罗拉	-10192
▁缩水	-10193
▁跑跑	-10194
▁领域	-10195
▁附加	-10196
▁3200	-10197
▁惹不起	-10198
▁橄榄	-10199
▁资产	-10200
ra	-10201
▁提档	-10202
▁签收	-10203
▁辉煌	-10204
▁亮瞎	-10205
产期	-10206
▁棺材	-10207
▁299	-10208
▁谣言	-10209
▁北鼻	-10210
▁填报	-10211
▁小宝	-10212
▁旋风	-10213
▁预产期	-10214
▁听完	-10215
▁屠龙	-10216
▁红花	-10217
▁黑夜	-10218
▁襄阳	-10219
▁各类	-10220
▁后者	-10221
▁人教	-10222
儿八	-10223
▁中兴	-10224
▁井盖	-10225
▁大致	-10226
▁金星	-10227
▁韶	-10228
▁一匹	-10229
▁金庸	-10230
29	-10231
▁现役	-10232
▁书名	-10233
▁扦插	-10234
▁桂花	-10235
▁漫漫	-10236
▁自来水	-10237
▁py	-10238
▁作息	-10239
▁往前	-10240
▁被查	-10241
▁鞋垫	-10242
▁高档	-10243
▁Pro	-10244
ue	-10245
▁黄蜂	-10246
▁夜场	-10247
▁格斗	-10248
▁wow	-10249
▁四张	-10250
▁猝	-10251
▁配方	-10252
▁紫檀	-10253
▁解开	-10254
▁边牧	-10255
▁假面	-10256
▁封印	-10257
▁平平	-10258
▁墨镜	-10259
▁网管	-10260
▁哨	-10261
▁徘	-10262
▁卡特	-10263
▁张国	-10264
▁出院	-10265
▁仙子	-10266
▁幽灵	-10267
▁进展	-10268
▁林俊杰	-10269
▁纺	-10270
▁中通	-10271
▁当家	-10272
▁毒舌	-10273
▁财大	-10274
ub	-10275
▁万物	-10276
▁下期	-10277
▁积累	-10278
▁预防	-10279
▁马丁	-10280
▁大棚	-10281
▁油条	-10282
▁睁眼	-10283
▁焖	-10284
▁AP	-10285
▁保温	-10286
▁随身	-10287
▁外壳	-10288
▁失忆	-10289
▁阉	-10290
▁麻木	-10291
▁车费	-10292
▁大本营	-10293
▁廖	-10294
▁海底	-10295
▁试水	-10296
▁鸡翅	-10297
▁楼顶	-10298
▁鼓掌	-10299
▁一字	-10300
▁噪音	-10301
▁民政	-10302
▁直线	-10303
▁羞羞	-10304
▁高调	-10305
▁清风	-10306
▁买单	-10307
▁再战	-10308
▁尺码	-10309
▁怕死	-10310
▁血压	-10311
NG	-10312
▁毫米	-10313
▁续约	-10314
▁saber	-10315
▁写给	-10316
▁带动	-10317
▁收养	-10318
▁曦	-10319
▁gd	-10320
▁片段	-10321
▁许昌	-10322
▁一阵子	-10323
火火	-10324
▁作图	-10325
▁大厂	-10326
▁玖	-10327
▁一卡	-10328
▁缘故	-10329
▁遛狗	-10330
▁飙车	-10331
▁法拉利	-10332
▁挨骂	-10333
▁爱玩	-10334
▁VP	-10335
▁很乖	-10336
▁水神	-10337
▁好耍	-10338
▁从业	-10339
▁安检	-10340
▁先进	-10341
▁韩服	-10342
▁突击	-10343
闻乐	-10344
▁泪点	-10345
▁阁下	-10346
闻乐见	-10347
▁喜闻乐见	-10348
▁偏爱	-10349
▁洗手	-10350
▁佣	-10351
▁咿	-10352
▁my	-10353
▁货车	-10354
▁一无所有	-10355
▁轿车	-10356
▁时机	-10357
▁汽修	-10358
▁银币	-10359
▁妻子	-10360
▁瘦腿	-10361
▁予	-10362
▁乌鲁	-10363
▁摆设	-10364
▁痴情	-10365
▁SM	-10366
▁天线	-10367
▁真话	-10368
▁酸菜	-10369
▁门槛	-10370
▁麻油	-10371
▁外出	-10372
▁荧光	-10373
▁难找	-10374
▁转行	-10375
▁火线	-10376
▁灵异	-10377
▁徘徊	-10378
▁护照	-10379
▁sd	-10380
▁玄幻	-10381
▁红眼	-10382
▁碰瓷	-10383
▁雇	-10384
▁唐门	-10385
▁老友	-10386
▁水深	-10387
▁职院	-10388
▁运城	-10389
▁重播	-10390
▁捕捉	-10391
▁gtx	-10392
▁全天	-10393
▁尸鬼	-10394
▁弥补	-10395
▁车库	-10396
▁口头	-10397
▁插座	-10398
▁有生	-10399
▁鹰眼	-10400
▁郝	-10401
▁地盘	-10402
▁女婿	-10403
▁新兵	-10404
▁清除	-10405
▁唯独	-10406
▁欧阳	-10407
▁陀	-10408
▁cn	-10409
▁供暖	-10410
▁巧合	-10411
▁空中	-10412
▁质感	-10413
▁GTA	-10414
▁糯米	-10415
▁领到	-10416
▁NO	-10417
▁安妮	-10418
▁强力	-10419
▁290	-10420
▁战地	-10421
▁无趣	-10422
▁死飞	-10423
▁洁癖	-10424
▁首选	-10425
▁曰	-10426
▁侄子	-10427
▁意志	-10428
▁日服	-10429
▁碉堡	-10430
▁缝隙	-10431
▁遵义	-10432
▁一卡通	-10433
▁外校	-10434
▁公认	-10435
▁兰博	-10436
▁遭遇	-10437
▁WIFI	-10438
▁守门	-10439
▁焦作	-10440
▁脚趾	-10441
▁太矮	-10442
▁密集	-10443
▁别哭	-10444
▁剧照	-10445
▁烟火	-10446
▁衡水	-10447
▁饭堂	-10448
78	-10449
▁偷懒	-10450
▁内饰	-10451
▁学籍	-10452
▁文玩	-10453
▁肌肤	-10454
▁花鸟	-10455
▁眷	-10456
拉克	-10457
▁反光	-10458
▁哇哈哈	-10459
▁斑马	-10460
▁热烈	-10461
▁触摸	-10462
▁陆续	-10463
儿八经	-10464
▁正儿八经	-10465
▁冷战	-10466
▁沦落	-10467
▁凌乱	-10468
▁原味	-10469
▁地道	-10470
▁双清	-10471
▁宁夏	-10472
▁椰子	-10473
▁洋气	-10474
▁彦	-10475
▁圈圈	-10476
▁薰	-10477
▁145	-10478
西亚	-10479
▁反抗	-10480
▁麦迪	-10481
▁列车	-10482
▁绿豆	-10483
▁显摆	-10484
▁精通	-10485
▁唱功	-10486
▁过冬	-10487
▁霓	-10488
▁AT	-10489
▁EM	-10490
▁乌鲁木	-10491
▁拉布拉多	-10492
▁通病	-10493
▁乌鲁木齐	-10494
▁篮板	-10495
▁连跪	-10496
▁体谅	-10497
▁上街	-10498
▁答对	-10499
▁俯卧	-10500
▁地瓜	-10501
▁布鲁	-10502
▁大山	-10503
▁妄想	-10504
▁秘书	-10505
▁阴谋	-10506
▁夏目	-10507
▁对焦	-10508
▁编程	-10509
PPO	-10510
▁原文	-10511
▁发觉	-10512
▁血腥	-10513
▁慰	-10514
▁溢	-10515
▁拜年	-10516
▁捡漏	-10517
▁牙疼	-10518
▁酋	-10519
ood	-10520
▁北美	-10521
▁富力	-10522
▁带队	-10523
▁侏	-10524
▁加载	-10525
▁南大	-10526
▁肆	-10527
▁博格	-10528
▁折叠	-10529
▁读者	-10530
▁ADC	-10531
▁大包	-10532
▁本土	-10533
为力	-10534
▁上进	-10535
▁大和	-10536
▁无能	-10537
▁限速	-10538
▁无能为力	-10539
▁华北	-10540
▁南海	-10541
▁呛	-10542
▁凤姐	-10543
▁刷图	-10544
▁完好	-10545
▁违和	-10546
33	-10547
▁全包	-10548
▁出装	-10549
▁港行	-10550
▁波波	-10551
▁规格	-10552
▁雪山	-10553
▁消炎	-10554
▁129	-10555
▁全日	-10556
▁极致	-10557
▁卡尔	-10558
▁杨紫	-10559
▁比熊	-10560
▁ko	-10561
▁咸阳	-10562
尼尔	-10563
▁战胜	-10564
▁拳头	-10565
▁叨	-10566
▁途径	-10567
▁磊	-10568
▁收回	-10569
▁酷狗	-10570
▁飞天	-10571
▁乱入	-10572
▁冤枉	-10573
▁南无	-10574
▁五级	-10575
▁青梅	-10576
▁战国	-10577
▁红牌	-10578
▁车管	-10579
▁看得出来	-10580
▁杉	-10581
▁深海	-10582
▁花费	-10583
▁追星	-10584
▁鉴别	-10585
▁铅笔	-10586
▁卡牌	-10587
▁红旗	-10588
▁巩	-10589
▁传承	-10590
▁独角	-10591
▁连载	-10592
▁华南	-10593
▁身影	-10594
恍惚	-10595
▁求生	-10596
▁悠悠	-10597
▁自尊	-10598
▁贪心	-10599
▁侄女	-10600
▁光顾	-10601
▁杂物	-10602
▁爹妈	-10603
▁瘦脸	-10604
▁将会	-10605
▁幽魂	-10606
▁118	-10607
▁乏	-10608
▁奶爸	-10609
▁穿衣	-10610
▁长白	-10611
▁渺	-10612
▁发射	-10613
▁赵薇	-10614
▁黑车	-10615
▁俯卧撑	-10616
▁北上	-10617
▁真够	-10618
▁默契	-10619
▁吭	-10620
▁酷酷	-10621
▁倚	-10622
▁对战	-10623
▁懿	-10624
斯塔	-10625
▁实拍	-10626
▁澜	-10627
▁座椅	-10628
▁缅甸	-10629
▁171	-10630
▁电台	-10631
▁白班	-10632
▁酷炫	-10633
▁坝	-10634
▁剩余	-10635
▁现状	-10636
▁龙泉	-10637
▁3800	-10638
▁前世	-10639
▁张国荣	-10640
▁公演	-10641
▁发电	-10642
▁同乐	-10643
▁栗子	-10644
▁上榜	-10645
ght	-10646
▁来年	-10647
▁外屏	-10648
▁尽头	-10649
▁答辩	-10650
▁蚌埠	-10651
▁MC	-10652
▁此处	-10653
▁借鉴	-10654
▁冬至	-10655
▁独家	-10656
▁缺陷	-10657
▁进货	-10658
▁厚度	-10659
▁水利	-10660
▁2700	-10661
pr	-10662
▁着火	-10663
▁鲜花	-10664
▁抛光	-10665
▁花絮	-10666
▁斗士	-10667
▁暴雪	-10668
▁牛头	-10669
▁理综	-10670
▁老爹	-10671
▁迹	-10672
▁涡	-10673
▁白龙	-10674
▁医保	-10675
▁气候	-10676
▁煞	-10677
▁憋屈	-10678
▁获取	-10679
▁刺猬	-10680
▁前端	-10681
▁珍藏	-10682
▁羞耻	-10683
▁虾米	-10684
▁退档	-10685
▁OPPO	-10686
▁快播	-10687
▁痒痒	-10688
▁白点	-10689
▁粗糙	-10690
▁102	-10691
▁摧	-10692
▁山水	-10693
▁惭	-10694
▁凡凡	-10695
▁惨案	-10696
▁栀子	-10697
▁求职	-10698
▁全日制	-10699
▁际	-10700
▁新番	-10701
▁东哥	-10702
▁懒觉	-10703
▁老衲	-10704
▁天窗	-10705
▁按钮	-10706
▁是非	-10707
▁体测	-10708
▁写出	-10709
▁玛瑙	-10710
▁省油	-10711
▁凶残	-10712
▁国美	-10713
▁邓超	-10714
▁扰	-10715
▁一塌	-10716
▁含量	-10717
▁有生之年	-10718
▁倔	-10719
▁烘	-10720
▁拆机	-10721
▁漏光	-10722
▁贝壳	-10723
▁太平洋	-10724
▁即便	-10725
▁真名	-10726
▁研发	-10727
▁周星	-10728
▁奥巴	-10729
▁手脚	-10730
▁一塌糊涂	-10731
生素	-10732
▁委婉	-10733
▁144	-10734
▁金卡	-10735
▁词汇	-10736
▁包车	-10737
▁士官	-10738
▁跳水	-10739
▁103	-10740
生生	-10741
▁公测	-10742
▁客串	-10743
▁手抖	-10744
▁细心	-10745
▁亚瑟	-10746
▁华晨	-10747
▁定价	-10748
▁水彩	-10749
▁琅琊	-10750
▁164	-10751
▁占卜	-10752
▁驻马	-10753
95	-10754
乎乎	-10755
▁水分	-10756
▁羊毛	-10757
▁430	-10758
▁涅	-10759
▁出身	-10760
▁琉璃	-10761
▁全屏	-10762
▁虚空	-10763
▁二轮	-10764
▁心慌	-10765
▁茫茫	-10766
▁提起	-10767
▁高压	-10768
▁瘦身	-10769
▁万恶	-10770
▁中外	-10771
▁年华	-10772
▁酒窝	-10773
▁脚本	-10774
▁黄昏	-10775
畏惧	-10776
▁气垫	-10777
▁熊熊	-10778
▁雯	-10779
▁引导	-10780
▁推出	-10781
▁销魂	-10782
▁大眼	-10783
▁澳大利	-10784
▁唯美	-10785
▁布料	-10786
▁跪下	-10787
▁除夕	-10788
▁HD	-10789
▁两双	-10790
▁武士	-10791
▁龙华	-10792
▁狸	-10793
▁啵啵	-10794
▁邢台	-10795
▁燥	-10796
▁厚道	-10797
▁知乎	-10798
▁西站	-10799
▁五五	-10800
▁咕噜	-10801
▁成交	-10802
▁柿子	-10803
▁肤色	-10804
ace	-10805
▁双头	-10806
▁心声	-10807
▁心底	-10808
▁扔掉	-10809
▁鸳	-10810
如既	-10811
▁出品	-10812
如既往	-10813
▁一如既往	-10814
▁澳大利亚	-10815
▁保密	-10816
▁年份	-10817
▁投降	-10818
▁爱丽丝	-10819
▁全省	-10820
▁大清	-10821
▁小二	-10822
▁车间	-10823
▁鸡毛	-10824
▁青云	-10825
▁高峰	-10826
▁汉奸	-10827
▁一行	-10828
▁监考	-10829
▁趁早	-10830
▁社交	-10831
▁纠正	-10832
▁静音	-10833
▁原先	-10834
志龙	-10835
▁空降	-10836
▁sn	-10837
▁带领	-10838
▁二爷	-10839
▁lu	-10840
▁招商	-10841
▁机枪	-10842
▁贝贝	-10843
▁心里话	-10844
▁眨	-10845
▁初次	-10846
▁午觉	-10847
▁彼岸	-10848
▁拜师	-10849
▁月租	-10850
▁欣慰	-10851
▁盖章	-10852
▁萨摩耶	-10853
▁三和	-10854
▁举办	-10855
▁进击	-10856
▁痞	-10857
▁输赢	-10858
▁伴侣	-10859
▁无损	-10860
▁闷骚	-10861
▁充足	-10862
▁写到	-10863
▁右键	-10864
▁吊牌	-10865
▁言情	-10866
▁弩	-10867
▁几何	-10868
▁纹路	-10869
▁平等	-10870
▁翻盘	-10871
▁肥肉	-10872
▁红红火火	-10873
▁boom	-10874
▁便当	-10875
▁嘴炮	-10876
▁套套	-10877
▁改过	-10878
▁文采	-10879
▁海关	-10880
▁蛋黄	-10881
▁钢笔	-10882
▁请勿	-10883
▁罐子	-10884
▁AJ	-10885
▁冲刺	-10886
▁头痛	-10887
▁取名	-10888
▁周目	-10889
▁宝珠	-10890
▁峨眉	-10891
▁减震	-10892
▁宽松	-10893
▁手相	-10894
▁模块	-10895
▁瘦瘦	-10896
▁直营	-10897
是好	-10898
耳其	-10899
▁大饼	-10900
▁156	-10901
▁市长	-10902
▁鼻血	-10903
▁土耳其	-10904
▁七星	-10905
▁校门	-10906
▁淹死	-10907
▁疾病	-10908
▁约定	-10909
建华	-10910
▁左转	-10911
▁腰疼	-10912
▁权志龙	-10913
▁假设	-10914
▁相声	-10915
▁障碍	-10916
▁龙猫	-10917
▁周星驰	-10918
入座	-10919
▁对称	-10920
▁灿烂	-10921
▁白衣	-10922
▁对号入座	-10923
irl	-10924
▁中期	-10925
▁增肥	-10926
▁恋情	-10927
▁惭愧	-10928
▁泰州	-10929
▁live	-10930
▁三世	-10931
▁勤奋	-10932
▁改动	-10933
▁470	-10934
▁英格兰	-10935
▁出错	-10936
▁创作	-10937
▁延长	-10938
▁Ch	-10939
▁中卫	-10940
▁纽约	-10941
▁杂牌	-10942
▁如何是好	-10943
▁zx	-10944
▁武神	-10945
▁陪陪	-10946
▁督	-10947
▁菜单	-10948
▁颓废	-10949
无期	-10950
▁大写	-10951
▁颤抖	-10952
▁fi	-10953
▁乡村	-10954
▁加大	-10955
▁琛	-10956
▁常常	-10957
lc	-10958
▁脚踏	-10959
▁冷淡	-10960
▁延边	-10961
▁扫描	-10962
▁连锁	-10963
▁逃避	-10964
▁换装	-10965
▁某某	-10966
▁越位	-10967
▁AMD	-10968
▁抗日	-10969
▁河边	-10970
▁博物	-10971
▁淮南	-10972
▁美景	-10973
▁出家	-10974
▁场合	-10975
▁会所	-10976
▁暗号	-10977
▁翻唱	-10978
▁整齐	-10979
▁葡萄牙	-10980
ian	-10981
▁万万	-10982
▁忧郁	-10983
▁肾虚	-10984
▁过滤	-10985
▁美男	-10986
▁花纹	-10987
▁行驶	-10988
▁某种	-10989
▁游客	-10990
▁练字	-10991
▁豹子	-10992
▁pe	-10993
▁成型	-10994
▁麦克	-10995
▁琦	-10996
▁技校	-10997
▁挑食	-10998
▁一倍	-10999
▁差劲	-11000
▁打底	-11001
▁留校	-11002
▁跑调	-11003
▁琥	-11004
▁魔性	-11005
▁TOP	-11006
ER	-11007
▁售票	-11008
▁砍价	-11009
▁发作	-11010
▁惆	-11011
▁国防	-11012
▁无影	-11013
▁青花	-11014
▁偏向	-11015
▁资质	-11016
▁179	-11017
48	-11018
▁掰弯	-11019
▁邓肯	-11020
▁金球	-11021
▁事物	-11022
▁洗浴	-11023
▁季度	-11024
▁业主	-11025
▁简称	-11026
▁罪恶	-11027
▁宗教	-11028
▁客栈	-11029
▁月月	-11030
▁武术	-11031
▁热刺	-11032
▁转载	-11033
▁颈椎	-11034
▁附中	-11035
▁带有	-11036
▁gp	-11037
▁两斤	-11038
▁和服	-11039
▁校外	-11040
▁烂片	-11041
▁布吉	-11042
▁燕子	-11043
▁代课	-11044
▁家驹	-11045
▁盒装	-11046
▁附带	-11047
▁mix	-11048
▁人海	-11049
▁水质	-11050
▁磨砂	-11051
▁红楼	-11052
▁韵达	-11053
▁龙门	-11054
▁驻马店	-11055
▁po	-11056
▁与其	-11057
恍惚惚	-11058
▁恍恍惚惚	-11059
▁数控	-11060
▁傍晚	-11061
▁离别	-11062
▁蓝猫	-11063
ows	-11064
▁腥	-11065
▁佳人	-11066
▁千千	-11067
▁卡拉	-11068
▁胃疼	-11069
▁人鱼	-11070
▁卖点	-11071
▁门卫	-11072
▁广安	-11073
▁衬衣	-11074
▁梭哈	-11075
▁混蛋	-11076
▁红茶	-11077
▁蓝光	-11078
▁防弹	-11079
▁圆圆	-11080
▁撞死	-11081
▁璐	-11082
▁节哀	-11083
ds	-11084
▁TB	-11085
▁双击	-11086
▁担保	-11087
ank	-11088
▁侧脸	-11089
▁管子	-11090
▁bios	-11091
▁澄清	-11092
▁赔率	-11093
mg	-11094
▁伦敦	-11095
▁布置	-11096
▁当作	-11097
▁持久	-11098
▁白虎	-11099
▁美化	-11100
▁390	-11101
▁鼻孔	-11102
▁帘	-11103
▁鳖	-11104
▁屠夫	-11105
▁里番	-11106
▁辨别	-11107
▁退钱	-11108
▁烙	-11109
▁卖房	-11110
▁发球	-11111
▁维权	-11112
▁善待	-11113
▁倪	-11114
▁崩坏	-11115
▁GTX	-11116
▁今后	-11117
▁杂交	-11118
▁炮灰	-11119
▁生子	-11120
▁同名	-11121
▁流年	-11122
▁紫薇	-11123
▁绑架	-11124
▁侍	-11125
▁婚后	-11126
▁发放	-11127
▁如花	-11128
▁惊人	-11129
▁骁	-11130
▁物语	-11131
▁换货	-11132
▁群体	-11133
▁鸡血	-11134
▁使命	-11135
cc	-11136
▁擎	-11137
▁惆怅	-11138
▁机身	-11139
▁雨天	-11140
▁499	-11141
▁敞	-11142
▁煽	-11143
▁代步	-11144
▁内战	-11145
▁特种	-11146
▁破戒	-11147
▁遍地	-11148
▁钛	-11149
▁扫地	-11150
▁书荒	-11151
▁兽医	-11152
▁出版	-11153
▁剑魂	-11154
▁毒药	-11155
▁琥珀	-11156
▁娄	-11157
▁保重	-11158
▁瞎扯	-11159
▁期货	-11160
▁砖头	-11161
▁肘	-11162
▁做起	-11163
▁味儿	-11164
▁心急	-11165
▁旋律	-11166
▁天大	-11167
▁表明	-11168
马哈	-11169
▁杨过	-11170
▁星光	-11171
▁吃力	-11172
▁胸部	-11173
▁抵押	-11174
▁真空	-11175
▁送礼	-11176
ri	-11177
▁决战	-11178
▁四星	-11179
▁小乔	-11180
▁立体	-11181
▁骆	-11182
▁远古	-11183
55	-11184
▁体贴	-11185
▁均衡	-11186
▁抱团	-11187
▁娘子	-11188
▁封神	-11189
▁笔友	-11190
▁补差	-11191
▁飘飘	-11192
ans	-11193
▁坂	-11194
▁棍子	-11195
▁腮	-11196
▁店员	-11197
▁航天	-11198
▁娜美	-11199
▁狂三	-11200
▁统考	-11201
▁许久	-11202
▁较真	-11203
▁并非	-11204
▁插头	-11205
▁清考	-11206
▁陪聊	-11207
▁垮	-11208
▁南湖	-11209
▁后勤	-11210
▁截屏	-11211
▁问句	-11212
▁edg	-11213
▁卜	-11214
▁净化	-11215
▁念念	-11216
▁景区	-11217
▁菲律	-11218
▁读完	-11219
▁风光	-11220
▁歌声	-11221
▁点亮	-11222
▁纯种	-11223
▁迅速	-11224
▁核弹	-11225
▁武将	-11226
▁不屑	-11227
▁参赛	-11228
▁忍心	-11229
▁横扫	-11230
▁炮姐	-11231
▁吓跑	-11232
▁安东	-11233
▁表扬	-11234
▁the	-11235
▁听课	-11236
▁底盘	-11237
▁菲律宾	-11238
▁有福	-11239
▁霍建华	-11240
如画	-11241
▁浦东	-11242
▁留级	-11243
▁逆战	-11244
▁锦鲤	-11245
▁楞	-11246
▁歌单	-11247
▁龙王	-11248
▁家电	-11249
▁囚	-11250
▁伤病	-11251
▁蚯	-11252
▁政法	-11253
▁狗哥	-11254
▁结算	-11255
▁谅	-11256
▁农行	-11257
▁可可	-11258
▁本金	-11259
▁竹子	-11260
▁诊所	-11261
▁560	-11262
▁OMG	-11263
▁崖	-11264
▁窜	-11265
▁交叉	-11266
▁各有	-11267
▁达成	-11268
▁399	-11269
▁养眼	-11270
▁现身	-11271
▁蚯蚓	-11272
▁闭眼	-11273
▁jo	-11274
▁仰卧	-11275
▁基督	-11276
▁德牧	-11277
▁多些	-11278
▁htc	-11279
▁duang	-11280
▁轮组	-11281
▁参照	-11282
▁忽视	-11283
▁拖延	-11284
▁走向	-11285
▁中级	-11286
▁同等	-11287
▁抽筋	-11288
▁放款	-11289
▁天理	-11290
▁北边	-11291
▁无可	-11292
▁汪汪	-11293
▁蜡笔	-11294
▁焰	-11295
▁雅马哈	-11296
▁1900	-11297
fc	-11298
▁品尝	-11299
▁手枪	-11300
▁169	-11301
▁正装	-11302
▁波动	-11303
▁溺	-11304
▁蚕	-11305
▁少林	-11306
▁香菇	-11307
▁760	-11308
▁fly	-11309
▁电线	-11310
▁狂犬	-11311
▁帮主	-11312
▁配套	-11313
▁入口	-11314
▁村长	-11315
▁永昌	-11316
▁看戏	-11317
锈钢	-11318
▁九九	-11319
▁带劲	-11320
▁610	-11321
▁位子	-11322
▁天马	-11323
▁精准	-11324
▁痛经	-11325
▁例外	-11326
▁宅男	-11327
▁不锈钢	-11328
▁孝顺	-11329
▁走出	-11330
▁黑心	-11331
▁兴隆	-11332
▁天帝	-11333
▁帧数	-11334
▁禁区	-11335
▁赛车	-11336
▁大树	-11337
▁完善	-11338
▁当当	-11339
▁mac	-11340
▁CS	-11341
▁女星	-11342
▁HE	-11343
▁整套	-11344
▁事项	-11345
▁大仙	-11346
▁线索	-11347
▁鸡肋	-11348
▁ga	-11349
▁盲目	-11350
▁穹	-11351
▁孔明	-11352
▁底部	-11353
▁待见	-11354
▁基德	-11355
▁薯片	-11356
▁证券	-11357
▁适用	-11358
▁瑞文	-11359
vers	-11360
▁HTC	-11361
▁5500	-11362
▁miku	-11363
▁祝愿	-11364
▁民间	-11365
▁陆军	-11366
▁夜店	-11367
▁影帝	-11368
▁扣篮	-11369
▁直觉	-11370
▁油性	-11371
▁点券	-11372
▁编制	-11373
▁褶	-11374
▁bg	-11375
▁盆景	-11376
▁发音	-11377
▁后妈	-11378
▁家务	-11379
▁逃跑	-11380
▁159	-11381
▁濮	-11382
ore	-11383
▁水手	-11384
▁胸肌	-11385
▁黑金	-11386
▁奥利奥	-11387
▁仅供	-11388
▁心悦	-11389
▁柯基	-11390
▁油炸	-11391
▁鸳鸯	-11392
▁魄	-11393
▁功劳	-11394
▁把持	-11395
▁转学	-11396
▁戚	-11397
▁厂长	-11398
▁两字	-11399
▁养鱼	-11400
▁入伍	-11401
▁江北	-11402
▁滑板	-11403
▁眼花	-11404
▁详谈	-11405
▁3600	-11406
▁gs	-11407
▁减速	-11408
▁力学	-11409
▁调色	-11410
▁上台	-11411
▁年会	-11412
▁油腻	-11413
▁ow	-11414
▁发送	-11415
▁外甥	-11416
▁弯弯	-11417
▁195	-11418
▁个体	-11419
▁长假	-11420
▁驼	-11421
▁华晨宇	-11422
▁初见	-11423
▁超出	-11424
▁争气	-11425
▁修行	-11426
▁功耗	-11427
▁收纳	-11428
▁浆	-11429
▁Rt	-11430
▁充分	-11431
▁横店	-11432
▁糟蹋	-11433
▁蕾丝	-11434
▁配对	-11435
▁打赌	-11436
▁肚脐	-11437
▁114	-11438
▁聂	-11439
▁xp	-11440
▁外传	-11441
▁外贸	-11442
▁打掉	-11443
▁赢家	-11444
▁八五	-11445
▁喰	-11446
▁纵横	-11447
▁np	-11448
▁纯白	-11449
▁养猪	-11450
▁骑兵	-11451
▁淋雨	-11452
▁防盗	-11453
▁随心	-11454
▁力帆	-11455
▁平顶	-11456
36	-11457
▁渗	-11458
▁钳	-11459
思议	-11460
▁寿司	-11461
▁小品	-11462
▁开户	-11463
▁不可思议	-11464
▁ol	-11465
▁后街	-11466
▁学号	-11467
▁引擎	-11468
▁木兰	-11469
▁餐饮	-11470
▁Ta	-11471
▁光辉	-11472
▁太行	-11473
▁无望	-11474
▁露出	-11475
▁心愿	-11476
▁豫	-11477
▁财产	-11478
▁歼	-11479
▁叠加	-11480
▁沿海	-11481
▁车展	-11482
▁光速	-11483
▁岳阳	-11484
▁赢得	-11485
▁girl	-11486
▁痰	-11487
▁古典	-11488
巴克	-11489
▁蝙蝠侠	-11490
▁哪吒	-11491
▁日久	-11492
▁大润发	-11493
所以	-11494
▁描写	-11495
▁涨停	-11496
▁骨架	-11497
贝尔	-11498
▁楼房	-11499
▁注明	-11500
▁贝儿	-11501
▁四皇	-11502
▁尼康	-11503
▁老干	-11504
▁贤惠	-11505
▁氢	-11506
▁烊	-11507
▁一粒	-11508
▁过渡	-11509
▁增高	-11510
▁找事	-11511
▁用途	-11512
▁白马	-11513
▁额外	-11514
▁人称	-11515
▁闹腾	-11516
▁近战	-11517
尔夫	-11518
▁滤镜	-11519
▁速腾	-11520
▁棕色	-11521
▁混混	-11522
▁茅台	-11523
▁VPN	-11524
▁出行	-11525
▁快进	-11526
▁框架	-11527
▁美貌	-11528
▁6500	-11529
▁帐篷	-11530
▁ssd	-11531
▁郜	-11532
▁步枪	-11533
▁甜品	-11534
▁节约	-11535
▁模板	-11536
▁die	-11537
▁BI	-11538
▁慕容	-11539
▁控卫	-11540
▁唇膏	-11541
▁掉价	-11542
▁超长	-11543
▁康康	-11544
▁必修	-11545
▁联动	-11546
▁回首	-11547
▁天平	-11548
▁红字	-11549
▁讨好	-11550
▁漯	-11551
▁张飞	-11552
▁活力	-11553
▁八中	-11554
▁刷子	-11555
▁美利达	-11556
▁定向	-11557
▁精油	-11558
▁返厂	-11559
▁取向	-11560
▁失灵	-11561
▁清淡	-11562
▁要约	-11563
▁nice	-11564
▁吃素	-11565
▁美金	-11566
▁闵	-11567
▁白花	-11568
▁发力	-11569
▁凡事	-11570
▁绘画	-11571
▁nt	-11572
▁上涨	-11573
▁两节	-11574
▁双飞	-11575
▁138	-11576
▁彬	-11577
▁凯源	-11578
▁老兵	-11579
▁篮子	-11580
▁大话	-11581
▁战舰	-11582
▁ai	-11583
▁老三	-11584
▁考核	-11585
▁产权	-11586
▁眼球	-11587
▁耐看	-11588
▁香香	-11589
▁瑞士	-11590
▁碧瑶	-11591
▁保姆	-11592
▁技嘉	-11593
▁蓝莓	-11594
▁长辈	-11595
▁琅琊榜	-11596
▁猖	-11597
▁龚	-11598
▁新图	-11599
▁昆仑	-11600
▁牛排	-11601
▁生育	-11602
▁韩信	-11603
▁筛	-11604
▁联播	-11605
▁同类	-11606
▁顺产	-11607
无忌	-11608
▁牛牛	-11609
▁2010	-11610
尼斯	-11611
▁被抢	-11612
▁庐	-11613
斯拉	-11614
▁极度	-11615
▁结核	-11616
▁跟班	-11617
▁鉴赏	-11618
▁茨	-11619
▁小龙	-11620
▁沐浴	-11621
▁造假	-11622
▁银魂	-11623
▁昔	-11624
▁朦	-11625
▁泵	-11626
▁佛教	-11627
▁卡刷	-11628
▁伴娘	-11629
▁想像	-11630
▁颁奖	-11631
▁前场	-11632
▁找出	-11633
▁小众	-11634
▁小名	-11635
▁抱枕	-11636
▁清朝	-11637
79	-11638
dy	-11639
▁呱	-11640
▁聚餐	-11641
汉良	-11642
ink	-11643
▁美甲	-11644
▁野战	-11645
▁测量	-11646
▁漂流	-11647
▁转给	-11648
▁hey	-11649
▁椒	-11650
▁物种	-11651
▁稳重	-11652
▁绿化	-11653
▁转弯	-11654
▁通行	-11655
▁黑黑	-11656
▁否定	-11657
▁拔牙	-11658
▁李小	-11659
▁莉莉	-11660
boys	-11661
▁钟汉良	-11662
▁朔	-11663
▁麦子	-11664
FC	-11665
▁普洱	-11666
▁爆头	-11667
▁粉底	-11668
▁美工	-11669
▁何方	-11670
▁包浆	-11671
▁接送	-11672
▁汉字	-11673
▁法语	-11674
▁海淘	-11675
▁逝去	-11676
▁沂	-11677
▁深奥	-11678
▁拖着	-11679
▁长篇	-11680
三角	-11681
▁五行	-11682
▁借用	-11683
▁干货	-11684
▁心头	-11685
▁清晨	-11686
▁脚丫	-11687
▁返校	-11688
▁腿短	-11689
▁女兵	-11690
▁780	-11691
▁峡谷	-11692
▁必死	-11693
▁tpl	-11694
bi	-11695
▁恺	-11696
▁渊	-11697
▁懒人	-11698
▁热天	-11699
▁直系	-11700
▁店面	-11701
▁执法	-11702
▁玩完	-11703
▁超赞	-11704
▁卡卡西	-11705
▁匡	-11706
▁王菲	-11707
▁分校	-11708
▁言语	-11709
▁义工	-11710
▁抢劫	-11711
▁翻翻	-11712
▁意愿	-11713
ot	-11714
▁呈	-11715
▁卡巴	-11716
▁山区	-11717
▁用药	-11718
▁惊悚	-11719
▁入睡	-11720
▁底层	-11721
▁武力	-11722
▁进门	-11723
▁rng	-11724
起灵	-11725
▁害死	-11726
▁验货	-11727
▁七七	-11728
▁厂商	-11729
▁权威	-11730
▁遮住	-11731
▁博格巴	-11732
▁烤鱼	-11733
▁输液	-11734
ason	-11735
▁柒	-11736
▁德甲	-11737
▁枸	-11738
▁小钱	-11739
▁披萨	-11740
▁拿起	-11741
ED	-11742
▁旱	-11743
▁癌症	-11744
▁相逢	-11745
▁制裁	-11746
▁超高	-11747
▁吆	-11748
▁分泌	-11749
▁发黄	-11750
▁泥巴	-11751
▁玄学	-11752
▁魔道	-11753
▁独生	-11754
▁阿德	-11755
▁坐牢	-11756
▁天明	-11757
▁团子	-11758
▁温和	-11759
▁封顶	-11760
▁排量	-11761
▁政审	-11762
▁赤犬	-11763
▁马尔	-11764
▁丰田	-11765
▁揉揉	-11766
▁李子	-11767
▁绝世	-11768
▁卡罗拉	-11769
▁图文	-11770
▁寒冰	-11771
▁松石	-11772
▁阳江	-11773
▁陨石	-11774
▁答复	-11775
▁金发	-11776
▁sei	-11777
ON	-11778
▁惧	-11779
▁菜刀	-11780
▁窗帘	-11781
▁迷糊	-11782
▁黄牌	-11783
▁狄	-11784
▁万州	-11785
▁妖孽	-11786
▁明媚	-11787
▁机芯	-11788
▁沧桑	-11789
umia	-11790
▁变相	-11791
▁购入	-11792
▁星巴克	-11793
31	-11794
▁er	-11795
▁产地	-11796
▁危害	-11797
▁老汉	-11798
▁面瘫	-11799
▁2011	-11800
▁大屌	-11801
▁当下	-11802
▁权力	-11803
尔特	-11804
▁平头	-11805
▁张起灵	-11806
▁捎带	-11807
▁青州	-11808
▁音色	-11809
▁wuli	-11810
▁刀子	-11811
▁耳环	-11812
▁首次	-11813
▁殷	-11814
▁破车	-11815
不及待	-11816
▁可恨	-11817
▁天际	-11818
▁女娃	-11819
▁小五	-11820
▁常德	-11821
▁贵妃	-11822
▁啷	-11823
▁迫不及待	-11824
▁原石	-11825
▁左耳	-11826
▁手册	-11827
▁蛇精	-11828
▁119	-11829
▁510	-11830
▁金额	-11831
▁评估	-11832
▁尧	-11833
▁窒	-11834
▁上古	-11835
▁司法	-11836
▁吊坠	-11837
▁陷入	-11838
▁2100	-11839
uan	-11840
▁死后	-11841
▁稀奇	-11842
▁鲸鱼	-11843
▁107	-11844
▁oh	-11845
▁五险	-11846
▁回放	-11847
▁标价	-11848
▁清爽	-11849
▁out	-11850
▁伊斯	-11851
▁公正	-11852
▁安娜	-11853
▁方位	-11854
▁晕车	-11855
▁熔	-11856
▁城南	-11857
▁富强	-11858
▁忠诚	-11859
▁熄火	-11860
▁疤痕	-11861
▁ban	-11862
▁一品	-11863
▁出局	-11864
▁天桥	-11865
▁怕冷	-11866
▁恶搞	-11867
▁翻倍	-11868
▁菠菜	-11869
▁比利时	-11870
▁揣	-11871
▁东营	-11872
▁恼火	-11873
▁病友	-11874
▁短裙	-11875
▁诗词	-11876
▁三甲	-11877
▁分类	-11878
▁医科	-11879
▁拉姆	-11880
▁揭穿	-11881
▁冇	-11882
▁蹬	-11883
▁tp	-11884
▁甜心	-11885
不住	-11886
▁号外	-11887
▁武昌	-11888
▁蚊帐	-11889
▁蜡烛	-11890
▁萱	-11891
▁人缘	-11892
▁998	-11893
▁PVP	-11894
▁坚信	-11895
▁扩散	-11896
▁球鞋	-11897
▁emm	-11898
▁允儿	-11899
▁泰妍	-11900
▁张家口	-11901
▁九州	-11902
▁勤劳	-11903
▁受罪	-11904
▁窗外	-11905
▁渭	-11906
▁太烂	-11907
▁干掉	-11908
▁枉	-11909
▁镀	-11910
▁抗议	-11911
▁盒饭	-11912
▁红白	-11913
▁三叔	-11914
▁损坏	-11915
▁众人	-11916
▁叫声	-11917
▁歌唱	-11918
▁负面	-11919
hi	-11920
▁哑铃	-11921
▁对决	-11922
▁散打	-11923
▁奎	-11924
▁感应	-11925
▁清真	-11926
▁绝配	-11927
▁德比	-11928
▁舜天	-11929
▁谅解	-11930
▁医药	-11931
▁810	-11932
八道	-11933
▁保卫	-11934
▁年费	-11935
▁景色	-11936
▁疼痛	-11937
▁胡说八道	-11938
▁迷恋	-11939
▁闲聊	-11940
▁what	-11941
▁售价	-11942
▁揪心	-11943
▁补完	-11944
▁捶	-11945
▁镰	-11946
里斯	-11947
▁晋江	-11948
▁迷信	-11949
▁铁道	-11950
▁zf	-11951
▁伊朗	-11952
▁具有	-11953
▁呼叫	-11954
▁平局	-11955
▁340	-11956
▁促销	-11957
▁光盘	-11958
▁创建	-11959
▁及其	-11960
▁无论	-11961
▁潜伏	-11962
▁开导	-11963
▁了不起	-11964
▁赋	-11965
▁新店	-11966
▁问号	-11967
▁壹	-11968
▁Ma	-11969
▁厦大	-11970
▁灵敏	-11971
▁酷派	-11972
▁金花	-11973
▁秘籍	-11974
▁贯	-11975
▁替身	-11976
GB	-11977
▁另类	-11978
▁游玩	-11979
▁妞妞	-11980
▁黄龙	-11981
▁栖	-11982
▁展开	-11983
▁抽空	-11984
▁484	-11985
▁内江	-11986
▁挑剔	-11987
▁新书	-11988
▁4200	-11989
▁wp	-11990
▁关爱	-11991
▁好汉	-11992
▁石化	-11993
▁鄙人	-11994
歪歪	-11995
▁短句	-11996
▁礼服	-11997
▁纯净	-11998
▁大意	-11999
▁留住	-12000
▁真事	-12001
▁起名	-12002
▁ssr	-12003
▁爽歪歪	-12004
▁老爷子	-12005
▁向来	-12006
▁颇	-12007
▁咿呀	-12008
▁枪毙	-12009
▁冉	-12010
▁大蛇	-12011
▁新作	-12012
▁SA	-12013
▁窒息	-12014
▁绩点	-12015
▁网费	-12016
▁证实	-12017
▁避开	-12018
▁保时	-12019
▁负债	-12020
▁观念	-12021
▁议价	-12022
▁仰望	-12023
▁节假	-12024
▁镇江	-12025
66	-12026
▁丢掉	-12027
▁明教	-12028
▁玉林	-12029
▁试验	-12030
▁诀	-12031
▁专利	-12032
▁作家	-12033
▁代沟	-12034
▁无题	-12035
▁锈	-12036
西哥	-12037
▁出席	-12038
▁成真	-12039
▁局长	-12040
▁李晨	-12041
特尔	-12042
▁10086	-12043
▁文员	-12044
▁真情	-12045
▁莫斯	-12046
▁安东尼	-12047
▁雪碧	-12048
▁内场	-12049
▁通车	-12050
▁采购	-12051
▁螳	-12052
▁阿扎	-12053
▁鼻炎	-12054
▁SU	-12055
▁别动	-12056
▁回顾	-12057
▁果汁	-12058
▁涂鸦	-12059
▁躁	-12060
▁全队	-12061
▁八强	-12062
▁得意	-12063
▁早恋	-12064
▁咆	-12065
▁塞尔	-12066
▁俏	-12067
▁奴隶	-12068
▁神威	-12069
▁博美	-12070
▁同济	-12071
▁我叫	-12072
▁永生	-12073
▁530	-12074
▁反转	-12075
▁铺子	-12076
▁提速	-12077
▁墨西哥	-12078
▁月球	-12079
▁保研	-12080
▁保时捷	-12081
▁只怕	-12082
▁时时	-12083
▁汉人	-12084
▁鲁尼	-12085
▁檀	-12086
▁发愁	-12087
▁建国	-12088
▁明智	-12089
▁一方面	-12090
▁汪峰	-12091
▁骁龙	-12092
800	-12093
▁一封	-12094
▁小兵	-12095
▁荒野	-12096
▁公牛	-12097
▁写作	-12098
▁徒步	-12099
▁彩蛋	-12100
▁野猪	-12101
▁阻挡	-12102
▁揽	-12103
▁依据	-12104
▁包头	-12105
▁漯河	-12106
▁瘪	-12107
▁中立	-12108
▁带土	-12109
▁房贷	-12110
▁文案	-12111
▁盗号	-12112
▁装扮	-12113
▁调档	-12114
▁进阶	-12115
▁难为	-12116
▁雅阁	-12117
▁岛国	-12118
▁道士	-12119
▁典礼	-12120
▁样式	-12121
▁315	-12122
▁冀	-12123
▁fm	-12124
▁入驻	-12125
▁公婆	-12126
▁尺度	-12127
▁裴	-12128
▁入侵	-12129
▁昨日	-12130
▁站台	-12131
▁露娜	-12132
▁骨灰	-12133
▁弘	-12134
▁芷	-12135
▁墙角	-12136
▁收音	-12137
▁校车	-12138
▁880	-12139
▁骡子	-12140
拉德	-12141
▁掉帧	-12142
▁窑	-12143
▁抽象	-12144
▁风流	-12145
▁原子	-12146
▁得病	-12147
▁非法	-12148
▁可口	-12149
▁结巴	-12150
▁俞	-12151
▁轮滑	-12152
▁安图	-12153
▁株洲	-12154
▁梨花	-12155
▁胶水	-12156
▁银川	-12157
▁棱	-12158
▁呆毛	-12159
▁大黄	-12160
▁山顶	-12161
▁521	-12162
▁合资	-12163
▁深沉	-12164
▁神圣	-12165
▁苍云	-12166
▁见解	-12167
▁诱人	-12168
▁历年	-12169
▁珊瑚	-12170
▁脱发	-12171
▁鞭炮	-12172
▁狡	-12173
▁超哥	-12174
▁SD	-12175
▁剩女	-12176
▁实况	-12177
▁清空	-12178
▁麻醉	-12179
OD	-12180
ppy	-12181
▁举行	-12182
▁对线	-12183
▁拔掉	-12184
▁环艺	-12185
mo	-12186
拉斯	-12187
▁批次	-12188
▁血液	-12189
▁逐渐	-12190
▁降频	-12191
▁鞋底	-12192
▁踊	-12193
▁幅度	-12194
▁成全	-12195
▁转型	-12196
▁庸	-12197
▁下海	-12198
▁四方	-12199
▁水煮	-12200
▁独一	-12201
▁脊	-12202
▁热身	-12203
▁自知	-12204
▁馄	-12205
▁白搭	-12206
▁五菱	-12207
▁如同	-12208
▁极其	-12209
▁秃子	-12210
▁金龙	-12211
▁念头	-12212
▁掉落	-12213
▁中招	-12214
▁南宫	-12215
▁报仇	-12216
▁短暂	-12217
▁便利	-12218
▁审计	-12219
▁格局	-12220
▁热量	-12221
▁隧	-12222
▁卡哇	-12223
▁战略	-12224
▁红莲	-12225
▁畸	-12226
▁万代	-12227
▁吓坏	-12228
无二	-12229
▁认定	-12230
▁懦	-12231
▁奶酪	-12232
▁威信	-12233
▁耳洞	-12234
▁kiss	-12235
▁古镇	-12236
▁更改	-12237
▁行货	-12238
▁面孔	-12239
GO	-12240
▁咖喱	-12241
▁扑倒	-12242
▁礼仪	-12243
▁魁	-12244
晓明	-12245
▁展现	-12246
▁李宁	-12247
▁池子	-12248
▁稳住	-12249
▁能耐	-12250
▁皂片	-12251
▁啾	-12252
▁挚	-12253
▁皓	-12254
▁vn	-12255
▁尾田	-12256
▁川大	-12257
▁路透	-12258
▁黑洞	-12259
▁供应	-12260
▁光驱	-12261
▁媚娘	-12262
▁花朵	-12263
▁公关	-12264
▁尊敬	-12265
▁欧联	-12266
▁生肉	-12267
▁画图	-12268
▁务必	-12269
▁惠普	-12270
▁牙签	-12271
▁甄嬛	-12272
▁绝育	-12273
▁耿直	-12274
▁风情	-12275
▁雍	-12276
▁xi	-12277
▁一闪	-12278
▁文综	-12279
▁钩子	-12280
▁跃	-12281
▁修剪	-12282
▁千金	-12283
▁弱点	-12284
▁泛滥	-12285
▁熬过	-12286
▁确切	-12287
▁运势	-12288
▁蔓	-12289
▁堪忧	-12290
▁天策	-12291
▁溜冰	-12292
▁十次	-12293
▁无常	-12294
▁比喻	-12295
▁淘气	-12296
▁硅胶	-12297
▁fla	-12298
▁mk	-12299
▁打劫	-12300
▁探索	-12301
▁沦陷	-12302
▁阿杜	-12303
▁IOS	-12304
be	-12305
▁呆呆	-12306
▁堪比	-12307
▁广元	-12308
▁匀	-12309
▁凯多	-12310
▁普高	-12311
▁炉子	-12312
▁真皮	-12313
▁儿女	-12314
▁特写	-12315
▁雪莲	-12316
▁断续	-12317
▁水泡	-12318
▁璇	-12319
▁叶凡	-12320
▁卡哇伊	-12321
▁AI	-12322
▁毒姐	-12323
▁铁血	-12324
▁抗战	-12325
▁踊跃	-12326
▁fate	-12327
▁真伪	-12328
▁网课	-12329
▁达标	-12330
▁哎呀呀	-12331
▁独一无二	-12332
▁牵挂	-12333
▁首尔	-12334
▁彩妆	-12335
▁水怪	-12336
▁自重	-12337
▁蜗壳	-12338
▁镖	-12339
▁大庆	-12340
▁念书	-12341
▁捐款	-12342
▁格力	-12343
▁白熊	-12344
▁专场	-12345
▁维生素	-12346
▁温格	-12347
▁知心	-12348
▁虎皮	-12349
▁嗲	-12350
▁芈	-12351
▁圈钱	-12352
▁均匀	-12353
▁老兄	-12354
▁腌	-12355
▁违约	-12356
▁午睡	-12357
▁章节	-12358
▁149	-12359
▁小道	-12360
▁猴哥	-12361
▁守门员	-12362
▁胀	-12363
▁wx	-12364
▁回味	-12365
▁母猪	-12366
▁补刀	-12367
▁进场	-12368
▁咆哮	-12369
▁大餐	-12370
▁捷达	-12371
▁高原	-12372
宝强	-12373
▁蜜汁	-12374
▁al	-12375
▁kk	-12376
▁扑克	-12377
▁奥尼尔	-12378
▁四周	-12379
▁正文	-12380
▁祭天	-12381
▁车位	-12382
▁转盘	-12383
▁闪现	-12384
▁小鬼	-12385
▁嗝	-12386
▁上饶	-12387
▁健美	-12388
▁国军	-12389
▁眯	-12390
▁BG	-12391
▁玲珑	-12392
▁食用	-12393
▁点子	-12394
▁皇子	-12395
▁阴暗	-12396
▁刀片	-12397
▁实训	-12398
▁摔倒	-12399
▁考前	-12400
67	-12401
▁四处	-12402
▁强者	-12403
▁译	-12404
▁xt	-12405
雷斯	-12406
▁公益	-12407
▁厌恶	-12408
▁圆满	-12409
▁天道	-12410
▁富裕	-12411
▁浮生	-12412
▁跳槽	-12413
▁金鹰	-12414
▁闫	-12415
▁皮套	-12416
▁过往	-12417
▁奥体	-12418
▁西皮	-12419
OL	-12420
▁蜥	-12421
▁以往	-12422
▁肤浅	-12423
▁FM	-12424
▁坏蛋	-12425
▁诸城	-12426
▁裕	-12427
人心	-12428
▁赞美	-12429
▁媛	-12430
▁弄错	-12431
▁举起	-12432
▁推倒	-12433
▁空格	-12434
▁卡西欧	-12435
▁平顶山	-12436
ony	-12437
▁五折	-12438
▁液体	-12439
▁白雪	-12440
▁色调	-12441
▁锦绣	-12442
▁雪人	-12443
▁浙大	-12444
▁路程	-12445
▁形势	-12446
▁断奶	-12447
▁陷阱	-12448
▁讯	-12449
▁竞赛	-12450
▁自选	-12451
▁西西	-12452
▁抽血	-12453
▁洛克	-12454
▁漂移	-12455
▁乙肝	-12456
▁措施	-12457
▁漳州	-12458
▁表带	-12459
▁西宁	-12460
▁忠告	-12461
▁忠实	-12462
▁日元	-12463
▁面目	-12464
▁diy	-12465
▁分布	-12466
▁坚果	-12467
▁敬请	-12468
▁落落	-12469
▁瘤	-12470
▁邂	-12471
▁mg	-12472
▁同乡	-12473
▁面包车	-12474
▁只因	-12475
▁希尔	-12476
▁排斥	-12477
▁消除	-12478
▁满月	-12479
▁漫游	-12480
▁自贡	-12481
▁麻雀	-12482
▁扣子	-12483
▁毛概	-12484
68	-12485
▁主观	-12486
▁福特	-12487
▁音频	-12488
▁hah	-12489
▁沙河	-12490
▁股份	-12491
▁迎来	-12492
▁雌	-12493
▁三餐	-12494
▁亚泰	-12495
▁前者	-12496
▁整形	-12497
▁清货	-12498
▁绝地	-12499
▁行尸	-12500
▁初期	-12501
▁顺风车	-12502
dd	-12503
▁烛	-12504
▁开幕	-12505
▁忙碌	-12506
▁神雕	-12507
st	-12508
▁cl	-12509
▁元气	-12510
▁华语	-12511
▁南部	-12512
▁妥协	-12513
▁胜负	-12514
▁sw	-12515
▁当心	-12516
▁磨牙	-12517
▁脸色	-12518
▁辱	-12519
▁草稿	-12520
▁穴	-12521
▁中性	-12522
▁侏儒	-12523
▁赶集	-12524
▁转速	-12525
▁美如画	-12526
▁突发	-12527
▁细菌	-12528
▁颠倒	-12529
▁下月	-12530
▁九龙	-12531
▁明码	-12532
▁熄灯	-12533
▁爱狗	-12534
▁皮鞋	-12535
▁痔	-12536
▁am	-12537
▁出水	-12538
▁百货	-12539
▁盆栽	-12540
▁语录	-12541
▁锥	-12542
▁US	-12543
▁咱家	-12544
▁码头	-12545
▁福田	-12546
▁缺德	-12547
MA	-12548
▁三层	-12549
▁发卡	-12550
▁大户	-12551
▁气功	-12552
▁油田	-12553
▁湖州	-12554
▁视野	-12555
▁黑幕	-12556
▁小年	-12557
▁故乡	-12558
▁ar	-12559
▁伯爵	-12560
▁实时	-12561
▁执念	-12562
▁操控	-12563
▁立即	-12564
▁童子	-12565
▁垄	-12566
▁传达	-12567
▁总攻	-12568
▁聚集	-12569
▁长老	-12570
▁酵	-12571
▁大河	-12572
▁小包	-12573
▁曲面	-12574
▁绿地	-12575
▁绿箭	-12576
▁偷看	-12577
▁写信	-12578
▁濮阳	-12579
▁适配	-12580
▁难题	-12581
▁鞋带	-12582
▁宙	-12583
▁耕	-12584
▁多玩	-12585
▁奥巴马	-12586
il	-12587
▁GP	-12588
▁游侠	-12589
▁穿鞋	-12590
▁红糖	-12591
▁得慌	-12592
▁网贷	-12593
▁降临	-12594
▁漠	-12595
▁人权	-12596
▁咬死	-12597
▁好莱	-12598
▁微风	-12599
▁标记	-12600
▁籍	-12601
▁因此	-12602
▁夸夸	-12603
▁小凡	-12604
▁当前	-12605
▁韧	-12606
巴巴	-12607
▁六安	-12608
▁极光	-12609
▁策略	-12610
▁卷发	-12611
▁小哇	-12612
▁气泡	-12613
▁科密	-12614
▁组长	-12615
▁699	-12616
▁沭	-12617
▁癖	-12618
▁ie	-12619
▁切磋	-12620
▁金子	-12621
▁体制	-12622
▁内置	-12623
▁给予	-12624
▁夜跑	-12625
▁家门	-12626
▁搭车	-12627
▁泡水	-12628
▁北极	-12629
▁相伴	-12630
▁解读	-12631
▁镇魂	-12632
▁隧道	-12633
▁153	-12634
▁用不着	-12635
▁处分	-12636
▁安定	-12637
▁烟酒	-12638
▁人流	-12639
▁取决	-12640
▁断食	-12641
▁绫	-12642
▁sr	-12643
▁演义	-12644
▁王源	-12645
▁出演	-12646
▁很准	-12647
▁罚球	-12648
▁翰	-12649
100	-12650
▁巫师	-12651
▁条纹	-12652
▁父子	-12653
▁郜林	-12654
▁歹	-12655
▁DC	-12656
▁仪式	-12657
▁众筹	-12658
▁因果	-12659
▁老太	-12660
TA	-12661
▁伏笔	-12662
▁少量	-12663
▁度数	-12664
▁斗破	-12665
▁歇歇	-12666
▁好莱坞	-12667
▁xl	-12668
▁基数	-12669
▁悲观	-12670
▁藏剑	-12671
▁黑狗	-12672
▁建造	-12673
▁灰尘	-12674
▁躺下	-12675
▁邮编	-12676
▁MD	-12677
▁图像	-12678
▁脑海	-12679
▁雷达	-12680
▁青训	-12681
▁512	-12682
▁人名	-12683
▁畜	-12684
▁锦州	-12685
▁王宝强	-12686
▁金山	-12687
▁张家界	-12688
▁樊	-12689
▁BE	-12690
▁条腿	-12691
▁简洁	-12692
▁辩论	-12693
▁鬼泣	-12694
▁MB	-12695
▁中大	-12696
▁契约	-12697
▁宝剑	-12698
▁无良	-12699
▁纯正	-12700
▁lovers	-12701
▁赴	-12702
▁友人	-12703
▁岐	-12704
▁ye	-12705
▁溃疡	-12706
▁老歌	-12707
▁凉席	-12708
▁多啦	-12709
▁贝吉	-12710
▁走进	-12711
▁阿狸	-12712
▁鬼畜	-12713
65	-12714
▁奕	-12715
▁es	-12716
▁中指	-12717
▁六道	-12718
▁转运	-12719
▁太紧	-12720
▁泄露	-12721
▁会费	-12722
▁按住	-12723
▁遥遥	-12724
▁sy	-12725
▁前叉	-12726
▁建好	-12727
▁村民	-12728
▁礼盒	-12729
▁大碗	-12730
▁秋季	-12731
▁蛊	-12732
▁诋	-12733
一步	-12734
▁光谷	-12735
▁兜里	-12736
▁皇族	-12737
▁真累	-12738
▁缺水	-12739
▁面临	-12740
▁599	-12741
▁焚	-12742
士顿	-12743
▁案例	-12744
▁百花	-12745
▁连衣	-12746
▁kd	-12747
▁夜夜	-12748
▁整车	-12749
▁目录	-12750
▁蘸	-12751
▁图鉴	-12752
▁浮夸	-12753
▁电饭	-12754
▁苍穹	-12755
▁车道	-12756
▁喂食	-12757
▁闸	-12758
▁快门	-12759
▁公爵	-12760
▁利于	-12761
▁大班	-12762
▁老牛	-12763
▁悍	-12764
▁夏洛	-12765
▁置换	-12766
▁荤	-12767
▁二姐	-12768
▁取代	-12769
▁打通	-12770
▁翁	-12771
▁写成	-12772
▁虚荣	-12773
▁鬼片	-12774
▁涌	-12775
▁会展	-12776
▁小麦	-12777
▁把玩	-12778
▁油菜	-12779
▁诋毁	-12780
▁钉子	-12781
▁阿三	-12782
▁随风	-12783
▁全家福	-12784
LC	-12785
▁司令	-12786
▁嫌疑	-12787
▁郑大	-12788
▁祈福	-12789
▁航海	-12790
▁轻轨	-12791
▁闽南	-12792
ur	-12793
▁/	-12794
▁烹	-12795
不能	-12796
▁基情	-12797
▁红领	-12798
▁背带	-12799
▁迷津	-12800
▁黄晓明	-12801
▁蔚	-12802
丸子	-12803
▁口才	-12804
▁器材	-12805
▁方块	-12806
▁种地	-12807
▁访问	-12808
▁IT	-12809
▁太后	-12810
▁弹药	-12811
▁恶劣	-12812
▁放纵	-12813
▁环节	-12814
▁白人	-12815
▁189	-12816
▁BO	-12817
▁日剧	-12818
▁识货	-12819
▁喀	-12820
▁包围	-12821
▁户籍	-12822
▁飞升	-12823
▁一室	-12824
▁困惑	-12825
▁妓	-12826
▁rp	-12827
▁姿态	-12828
▁蹭蹭	-12829
▁送花	-12830
▁化身	-12831
▁布偶	-12832
▁抗体	-12833
▁持有	-12834
▁胶囊	-12835
▁连败	-12836
▁重做	-12837
▁麻子	-12838
▁狂欢	-12839
▁香烟	-12840
▁钢铁侠	-12841
▁来玩	-12842
▁赞成	-12843
▁酬	-12844
▁亏本	-12845
▁小雪	-12846
▁旁友	-12847
▁酸辣	-12848
▁狭	-12849
▁事后	-12850
▁华人	-12851
▁河西	-12852
▁之所以	-12853
▁私服	-12854
▁小丸子	-12855
▁声卡	-12856
▁希腊	-12857
▁草龟	-12858
▁转向	-12859
▁驱逐	-12860
▁王爷	-12861
▁陈晓	-12862
▁变动	-12863
▁累计	-12864
▁娟	-12865
▁括	-12866
▁郴	-12867
▁电玩	-12868
▁目光	-12869
▁黑发	-12870
▁CAD	-12871
▁day	-12872
▁印刷	-12873
▁城堡	-12874
▁贴图	-12875
▁两眼	-12876
▁百米	-12877
自语	-12878
▁惊吓	-12879
▁风气	-12880
▁高等	-12881
特林	-12882
▁水管	-12883
▁岔	-12884
▁剑士	-12885
▁去除	-12886
▁坐垫	-12887
▁天香	-12888
▁怀旧	-12889
▁拔草	-12890
▁盖伦	-12891
▁被套	-12892
维斯	-12893
▁德语	-12894
▁牢骚	-12895
▁网瘾	-12896
▁西塘	-12897
▁韩文	-12898
▁鸡皮	-12899
▁汐	-12900
▁兵器	-12901
▁墨水	-12902
▁大火	-12903
▁煮饭	-12904
▁百家	-12905
▁马克思	-12906
▁打手	-12907
▁799	-12908
▁高尔夫	-12909
▁矣	-12910
▁黔	-12911
▁心仪	-12912
▁灌木	-12913
▁这会儿	-12914
▁两倍	-12915
▁归属	-12916
▁选秀	-12917
▁3300	-12918
正大	-12919
▁快跑	-12920
▁贝吉塔	-12921
▁寓	-12922
▁簪	-12923
▁强壮	-12924
▁卖身	-12925
▁外设	-12926
▁大区	-12927
▁步入	-12928
▁烤鸭	-12929
▁转租	-12930
▁领袖	-12931
▁八哥	-12932
▁冷冷	-12933
▁华科	-12934
▁射击	-12935
▁性子	-12936
▁新房	-12937
▁邂逅	-12938
▁青青	-12939
▁im	-12940
▁下蛋	-12941
▁丧失	-12942
▁再生	-12943
▁增幅	-12944
▁女警	-12945
▁红帽	-12946
▁唐人	-12947
▁眼袋	-12948
差钱	-12949
斯坦	-12950
▁心水	-12951
▁汉口	-12952
▁堡垒	-12953
▁已有	-12954
▁纤维	-12955
▁顺着	-12956
▁预期	-12957
▁人马	-12958
▁小智	-12959
▁挑选	-12960
▁黑鬼	-12961
▁名词	-12962
▁宠爱	-12963
▁连坐	-12964
▁默哀	-12965
▁煤气	-12966
▁相貌	-12967
▁睁开	-12968
▁午休	-12969
▁围着	-12970
▁战役	-12971
▁每当	-12972
▁爆音	-12973
▁绵羊	-12974
▁TI	-12975
▁下方	-12976
▁撒谎	-12977
▁画室	-12978
▁窝火	-12979
▁转世	-12980
▁闭关	-12981
▁麻花	-12982
▁一点点	-12983
▁劲爆	-12984
▁卡通	-12985
▁红领巾	-12986
▁三室	-12987
▁感性	-12988
▁成仙	-12989
▁散心	-12990
▁欠费	-12991
▁水浒	-12992
▁莽	-12993
▁大块	-12994
▁曲线	-12995
▁馄饨	-12996
▁157	-12997
▁圭	-12998
▁久违	-12999
▁因人	-13000
▁狂野	-13001
▁线刷	-13002
▁罗宾	-13003
▁牙刷	-13004
▁球拍	-13005
▁白子	-13006
▁试探	-13007
▁斌	-13008
而异	-13009
▁留念	-13010
▁白毛	-13011
▁祖传	-13012
▁因人而异	-13013
姨子	-13014
▁一路	-13015
▁洗碗	-13016
▁袖子	-13017
▁珂	-13018
▁安吉	-13019
▁爱护	-13020
▁赛事	-13021
▁主队	-13022
▁人为	-13023
▁囤货	-13024
▁大运	-13025
▁扩大	-13026
▁摊位	-13027
▁空姐	-13028
▁各有所	-13029
▁新秀	-13030
▁虎扑	-13031
▁泥鳅	-13032
▁萤火	-13033
▁马卡	-13034
▁百搭	-13035
▁芥	-13036
▁命令	-13037
▁播种	-13038
ion	-13039
▁吉安	-13040
▁祖安	-13041
▁键帽	-13042
▁九五	-13043
▁带头	-13044
▁分装	-13045
▁笛子	-13046
▁自有	-13047
▁连衣裙	-13048
▁宛	-13049
▁万宝	-13050
▁路虎	-13051
▁阵亡	-13052
▁难民	-13053
de	-13054
▁忻	-13055
▁ly	-13056
▁东山	-13057
▁担忧	-13058
▁舰队	-13059
▁EDG	-13060
▁下联	-13061
▁过客	-13062
▁麻药	-13063
▁格式化	-13064
▁老干妈	-13065
▁乜	-13066
▁倾诉	-13067
▁垄断	-13068
▁垫子	-13069
▁提取	-13070
▁曲阜	-13071
▁棒球	-13072
▁630	-13073
▁沸	-13074
▁养肥	-13075
▁半路	-13076
▁正统	-13077
▁私立	-13078
▁项羽	-13079
▁步伐	-13080
▁红星	-13081
▁边锋	-13082
▁ppl	-13083
不同	-13084
▁煤球	-13085
▁尖叫	-13086
▁排毒	-13087
▁旅途	-13088
▁海王	-13089
▁白鼠	-13090
to	-13091
▁会议	-13092
▁施主	-13093
▁李宇	-13094
▁玄机	-13095
▁籽料	-13096
▁魔神	-13097
天依	-13098
▁套现	-13099
▁寄出	-13100
▁小鞠	-13101
▁烟雨	-13102
▁肉丝	-13103
▁偏僻	-13104
▁发条	-13105
▁啰嗦	-13106
▁大剑	-13107
▁天水	-13108
▁112	-13109
▁开灯	-13110
▁耳光	-13111
▁裁缝	-13112
▁禾	-13113
▁介入	-13114
▁呼市	-13115
▁掉色	-13116
▁自言	-13117
▁自言自语	-13118
ost	-13119
▁天长	-13120
▁特技	-13121
▁螺旋	-13122
▁初试	-13123
▁招待	-13124
▁挨揍	-13125
▁接机	-13126
▁脚踝	-13127
▁fx	-13128
▁畸形	-13129
▁贵宾	-13130
▁填写	-13131
▁孵化	-13132
▁应付	-13133
▁私家	-13134
▁风车	-13135
▁410	-13136
34	-13137
▁如家	-13138
▁数值	-13139
泊尔	-13140
▁具备	-13141
▁再版	-13142
▁同级	-13143
▁春夏	-13144
▁欧元	-13145
▁特工	-13146
▁县级	-13147
▁枣庄	-13148
▁RP	-13149
▁红龙	-13150
▁1314	-13151
▁wo	-13152
▁碎碎	-13153
▁光明正大	-13154
▁艘	-13155
▁乘务	-13156
▁全文	-13157
▁感悟	-13158
▁枸杞	-13159
▁砍头	-13160
▁细细	-13161
▁轰轰	-13162
▁套票	-13163
VA	-13164
▁人选	-13165
▁备考	-13166
▁打孔	-13167
▁知音	-13168
▁彩铅	-13169
▁冶	-13170
▁共鸣	-13171
▁太刀	-13172
▁无穷	-13173
▁系数	-13174
▁终生	-13175
▁MP	-13176
▁加装	-13177
▁足矣	-13178
▁驯	-13179
正经	-13180
▁先天	-13181
▁宝贵	-13182
▁尘埃	-13183
▁玥	-13184
▁铸	-13185
不忘	-13186
何从	-13187
▁争霸	-13188
▁何去	-13189
▁老手	-13190
▁蹲着	-13191
▁针灸	-13192
▁何去何从	-13193
▁活路	-13194
▁人身	-13195
▁双面	-13196
▁延期	-13197
▁楼道	-13198
▁讲价	-13199
▁不堪	-13200
▁划水	-13201
▁发小	-13202
▁就读	-13203
▁腐败	-13204
▁good	-13205
▁保镖	-13206
▁反面	-13207
▁瓷砖	-13208
▁缓缓	-13209
▁螳螂	-13210
▁孽	-13211
▁回想	-13212
▁布局	-13213
▁爱听	-13214
▁办好	-13215
▁长治	-13216
▁农家	-13217
▁砸死	-13218
▁生肖	-13219
▁脚气	-13220
▁镜像	-13221
克兰	-13222
▁免息	-13223
▁大钱	-13224
▁床头	-13225
▁鱼竿	-13226
▁as	-13227
▁姥爷	-13228
▁巴中	-13229
▁慈善	-13230
▁盆子	-13231
▁糊弄	-13232
▁维斯	-13233
▁裸机	-13234
▁世锦	-13235
▁帆布	-13236
▁轮流	-13237
▁闭口	-13238
▁不差钱	-13239
58	-13240
▁出色	-13241
▁台北	-13242
▁拳击	-13243
▁掩饰	-13244
▁朦胧	-13245
▁洒脱	-13246
▁东湖	-13247
▁妇幼	-13248
▁重度	-13249
▁防空	-13250
▁处罚	-13251
▁小屋	-13252
▁海上	-13253
▁特权	-13254
▁诗人	-13255
▁双梦	-13256
▁定居	-13257
▁躺赢	-13258
▁车头	-13259
▁涮	-13260
▁芸	-13261
▁鳞	-13262
▁咬牙	-13263
▁官配	-13264
▁水面	-13265
▁迷失	-13266
▁BD	-13267
▁击败	-13268
▁战车	-13269
▁海尔	-13270
▁湿度	-13271
▁绝交	-13272
▁音效	-13273
▁天下无	-13274
▁碘	-13275
▁众多	-13276
▁哼唧	-13277
▁大牛	-13278
▁横着	-13279
▁补救	-13280
▁辰东	-13281
▁野马	-13282
▁马龙	-13283
▁小将	-13284
▁开荒	-13285
▁欠钱	-13286
▁殿下	-13287
▁融入	-13288
▁哄哄	-13289
▁拉链	-13290
▁看门	-13291
▁糊糊	-13292
▁舞帝	-13293
▁做主	-13294
▁奉献	-13295
▁诈尸	-13296
▁功课	-13297
▁售楼	-13298
▁太傻	-13299
▁烧钱	-13300
▁贵人	-13301
▁香肠	-13302
鲁兹	-13303
▁威尔	-13304
▁岳父	-13305
▁星耀	-13306
▁脱皮	-13307
▁隐居	-13308
▁161	-13309
▁舆	-13310
▁一本	-13311
▁吉言	-13312
▁宝箱	-13313
▁求证	-13314
▁灭绝	-13315
▁绯闻	-13316
72	-13317
▁叫醒	-13318
▁垂直	-13319
▁帝豪	-13320
▁脸部	-13321
▁观光	-13322
▁防止	-13323
▁修养	-13324
▁市民	-13325
▁火柴	-13326
人静	-13327
▁步兵	-13328
▁湘潭	-13329
▁申论	-13330
▁阶级	-13331
▁雷同	-13332
▁低点	-13333
▁凄凉	-13334
▁别克	-13335
▁琪琪	-13336
▁审判	-13337
▁工行	-13338
▁水饺	-13339
▁超值	-13340
▁邵阳	-13341
地亚	-13342
▁MS	-13343
▁拍子	-13344
▁村子	-13345
▁租金	-13346
▁追过	-13347
▁miss	-13348
▁夜深人静	-13349
▁SE	-13350
▁喷嚏	-13351
▁在职	-13352
▁大龙	-13353
▁新都	-13354
▁正直	-13355
▁笑脸	-13356
▁绞	-13357
▁剑姬	-13358
▁新村	-13359
▁鞍山	-13360
▁马拉松	-13361
▁SP	-13362
▁古筝	-13363
▁周瑜	-13364
▁手痒	-13365
▁搜狗	-13366
▁疑似	-13367
▁空空	-13368
▁承德	-13369
▁离去	-13370
▁红衣	-13371
▁雷军	-13372
▁三秒	-13373
▁八戒	-13374
▁学完	-13375
▁林志	-13376
▁爱疯	-13377
AY	-13378
▁唐僧	-13379
▁懒癌	-13380
▁不要钱	-13381
▁阑	-13382
▁三体	-13383
▁乾坤	-13384
▁后备	-13385
▁牧师	-13386
▁本尊	-13387
▁过夜	-13388
▁JS	-13389
▁选拔	-13390
▁黄油	-13391
▁440	-13392
▁看得见	-13393
64	-13394
▁拷	-13395
▁光圈	-13396
▁恭维	-13397
▁掉毛	-13398
▁未央	-13399
▁轩辕	-13400
▁稚	-13401
金量	-13402
▁佛祖	-13403
▁烈焰	-13404
▁世锦赛	-13405
▁保值	-13406
▁未见	-13407
▁烦心	-13408
▁瓶颈	-13409
▁美眉	-13410
▁脚印	-13411
▁装嫩	-13412
▁轮换	-13413
▁伴奏	-13414
▁猖狂	-13415
▁跳绳	-13416
▁车况	-13417
▁医专	-13418
▁可做	-13419
▁居民	-13420
▁掩盖	-13421
▁咁	-13422
▁二传	-13423
▁体院	-13424
▁天花	-13425
▁含金量	-13426
▁产物	-13427
▁少时	-13428
▁摸索	-13429
▁暗病	-13430
▁马达	-13431
▁jio	-13432
▁wind	-13433
▁后裔	-13434
▁吴京	-13435
▁硅脂	-13436
▁天神	-13437
▁小罗	-13438
▁张口	-13439
▁集资	-13440
▁女鬼	-13441
▁三环	-13442
▁宝哥	-13443
▁打胎	-13444
▁机房	-13445
▁柜台	-13446
▁耳钉	-13447
▁阿特	-13448
▁南航	-13449
▁咸菜	-13450
▁外来	-13451
▁客流	-13452
▁休学	-13453
▁关灯	-13454
▁宜家	-13455
▁已然	-13456
▁新春	-13457
▁缩小	-13458
▁dei	-13459
▁乾隆	-13460
▁五毒	-13461
▁民办	-13462
▁瑞典	-13463
▁血量	-13464
▁警校	-13465
▁飞翔	-13466
▁瘸	-13467
▁平原	-13468
▁抹茶	-13469
▁罗本	-13470
▁抢救	-13471
▁洛天依	-13472
▁uc	-13473
▁敲门	-13474
▁长短	-13475
▁龙凤	-13476
▁pa	-13477
▁一晃	-13478
▁固执	-13479
▁来者	-13480
▁DJ	-13481
▁Hi	-13482
▁万花	-13483
▁凉拌	-13484
▁朱砂	-13485
▁治安	-13486
▁跟踪	-13487
▁雨伞	-13488
▁灶	-13489
▁刘邦	-13490
▁泳装	-13491
ct	-13492
▁嘴角	-13493
▁小妞	-13494
▁无证	-13495
▁筒子	-13496
▁评选	-13497
▁阉割	-13498
▁身心	-13499
ce	-13500
▁基带	-13501
▁套件	-13502
▁慢性	-13503
▁自娱	-13504
▁郴州	-13505
▁124	-13506
▁蝉	-13507
▁出台	-13508
▁勺子	-13509
▁橡胶	-13510
▁上方	-13511
▁桔梗	-13512
▁狼人	-13513
▁链条	-13514
▁纲	-13515
▁前边	-13516
▁小球	-13517
▁改行	-13518
▁文具	-13519
▁环球	-13520
士尼	-13521
▁IG	-13522
▁别走	-13523
▁天都	-13524
▁对阵	-13525
▁长歌	-13526
▁首轮	-13527
▁193	-13528
▁老胡	-13529
▁谢霆	-13530
94	-13531
▁二环	-13532
▁全景	-13533
▁占座	-13534
▁沉重	-13535
▁崴	-13536
▁小虎	-13537
▁点数	-13538
▁耍猴	-13539
▁独角兽	-13540
▁客家	-13541
以为是	-13542
▁小姨子	-13543
▁自以为是	-13544
▁婚前	-13545
▁老总	-13546
▁730	-13547
▁抉	-13548
▁mt	-13549
▁光芒	-13550
▁引发	-13551
▁用于	-13552
▁紫砂	-13553
▁侬	-13554
▁明珠	-13555
▁雪地	-13556
77	-13557
塞尔	-13558
达斯	-13559
▁唤醒	-13560
▁铃木	-13561
▁齿轮	-13562
▁迪士尼	-13563
▁edge	-13564
▁三更	-13565
▁顶尖	-13566
▁绰	-13567
▁浓浓	-13568
▁狼狗	-13569
▁轻点	-13570
▁南苑	-13571
▁建模	-13572
▁文静	-13573
▁血丝	-13574
▁顺心	-13575
▁高估	-13576
同身	-13577
▁党员	-13578
▁冰棍	-13579
▁玉露	-13580
▁看似	-13581
同身受	-13582
▁感同身受	-13583
▁匡威	-13584
▁集锦	-13585
▁乔治	-13586
▁底座	-13587
▁接班	-13588
ero	-13589
▁修路	-13590
▁奶牛	-13591
▁赏金	-13592
▁附体	-13593
▁柄	-13594
▁五分	-13595
▁提琴	-13596
▁被迫	-13597
▁坪	-13598
▁无悔	-13599
▁穆勒	-13600
▁街拍	-13601
▁尼泊尔	-13602
▁丈夫	-13603
▁撕裂	-13604
▁疾风	-13605
▁直邮	-13606
▁匪	-13607
▁骰	-13608
▁亮亮	-13609
▁人造	-13610
▁埃及	-13611
▁大使	-13612
▁当官	-13613
▁饲养	-13614
UT	-13615
▁加快	-13616
▁原画	-13617
▁反省	-13618
▁大脚	-13619
▁怨念	-13620
▁拘留	-13621
▁挖坑	-13622
▁期限	-13623
▁浪子	-13624
▁痴汉	-13625
▁考点	-13626
▁份子	-13627
▁分队	-13628
▁可人	-13629
▁背光	-13630
▁至上	-13631
▁三明	-13632
▁侵权	-13633
▁圣女	-13634
▁苏牙	-13635
▁超强	-13636
▁霸占	-13637
▁gdp	-13638
▁7500	-13639
▁tg	-13640
▁一龙	-13641
▁招牌	-13642
▁李宇春	-13643
mi	-13644
德森	-13645
生情	-13646
▁催眠	-13647
▁热带	-13648
▁跌停	-13649
▁预祝	-13650
寡闻	-13651
▁三色	-13652
▁坎坷	-13653
▁孤陋	-13654
▁张开	-13655
▁文都	-13656
▁艰辛	-13657
▁沃尔玛	-13658
▁孤陋寡闻	-13659
▁盔	-13660
▁假话	-13661
▁海里	-13662
▁首映	-13663
▁126	-13664
▁谢霆锋	-13665
▁佟	-13666
▁苞	-13667
▁卢卡	-13668
▁建成	-13669
▁波斯	-13670
▁猝死	-13671
▁五人	-13672
▁凡是	-13673
▁心寒	-13674
▁恰好	-13675
▁搜狐	-13676
德里	-13677
▁大锅	-13678
▁效应	-13679
▁概括	-13680
▁黄鳝	-13681
▁215	-13682
▁TVB	-13683
▁长白山	-13684
下留	-13685
到尾	-13686
▁劳务	-13687
▁娃子	-13688
▁染发	-13689
▁薇薇	-13690
▁EMS	-13691
▁从头到尾	-13692
▁胭	-13693
过去	-13694
▁pv	-13695
▁体操	-13696
▁前线	-13697
▁娜扎	-13698
▁郭靖	-13699
▁coser	-13700
▁tfboys	-13701
▁夭	-13702
▁锂	-13703
▁失主	-13704
▁抉择	-13705
▁遂宁	-13706
▁dc	-13707
▁喷雾	-13708
▁纳米	-13709
▁人参	-13710
▁弹簧	-13711
▁眉山	-13712
▁冷却	-13713
▁四维	-13714
▁词语	-13715
▁猫头	-13716
达尔	-13717
▁上楼	-13718
▁变性	-13719
▁威廉	-13720
▁故人	-13721
▁茂名	-13722
▁旺仔	-13723
▁气愤	-13724
▁水乳	-13725
▁沉淀	-13726
▁航班	-13727
▁雏田	-13728
▁flyme	-13729
▁tw	-13730
▁烤箱	-13731
▁联名	-13732
▁呲	-13733
▁新郎	-13734
▁方形	-13735
▁迪拜	-13736
▁黄冈	-13737
▁黄花	-13738
▁蛾	-13739
▁灾难	-13740
▁耻辱	-13741
▁辫	-13742
▁水洗	-13743
▁治病	-13744
▁砖石	-13745
▁红人	-13746
▁庚	-13747
▁勿进	-13748
▁152	-13749
▁920	-13750
▁上岗	-13751
▁保质	-13752
▁分红	-13753
▁大件	-13754
▁夹子	-13755
▁试听	-13756
▁制药	-13757
▁异响	-13758
▁留恋	-13759
▁白话	-13760
▁职工	-13761
▁位次	-13762
▁存货	-13763
▁沭阳	-13764
▁碰碰	-13765
▁秀萝	-13766
▁素素	-13767
▁象棋	-13768
▁黑马	-13769
▁犯错	-13770
▁驾到	-13771
▁坏处	-13772
▁楚乔	-13773
▁自已	-13774
▁行测	-13775
▁历程	-13776
▁场所	-13777
▁酒量	-13778
▁上届	-13779
▁圆脸	-13780
▁铜陵	-13781
▁颠覆	-13782
▁女郎	-13783
▁弓箭	-13784
▁新婚	-13785
▁田径	-13786
▁花粉	-13787
▁lpl	-13788
▁喻	-13789
▁豌	-13790
▁演讲	-13791
▁真巧	-13792
尔多	-13793
▁毁容	-13794
▁油画	-13795
▁红枣	-13796
▁胡扯	-13797
▁退换	-13798
▁阿卡	-13799
▁预留	-13800
▁冒昧	-13801
▁婆家	-13802
▁格里	-13803
▁洁面	-13804
▁xr	-13805
▁脸盲	-13806
▁栀子花	-13807
▁奇谭	-13808
▁解剖	-13809
ty	-13810
▁炭	-13811
▁TX	-13812
▁受害	-13813
▁学术	-13814
▁抚顺	-13815
▁玩偶	-13816
▁融化	-13817
▁三毛	-13818
▁安眠	-13819
▁痔疮	-13820
▁西路	-13821
▁雅安	-13822
▁rec	-13823
▁丰胸	-13824
▁均码	-13825
▁幼犬	-13826
▁擎天	-13827
▁氧气	-13828
▁沉浸	-13829
下留情	-13830
▁Note	-13831
▁手下留情	-13832
▁狱	-13833
▁天价	-13834
▁笔芯	-13835
▁绵绵	-13836
▁西华	-13837
▁复旦	-13838
▁幻觉	-13839
▁高密	-13840
▁鼓起	-13841
▁CN	-13842
▁出入	-13843
▁家常	-13844
▁拥挤	-13845
▁救急	-13846
▁河东	-13847
▁铁粉	-13848
▁斋	-13849
▁油漆	-13850
▁进城	-13851
▁半生	-13852
▁地质	-13853
▁失效	-13854
▁安琪	-13855
▁密封	-13856
▁幕后	-13857
▁杜鹃	-13858
▁黄子	-13859
▁戟	-13860
▁华强	-13861
▁单字	-13862
▁月末	-13863
▁京城	-13864
▁手掌	-13865
▁拉风	-13866
▁洗漱	-13867
▁反倒	-13868
▁哗啦	-13869
▁百里	-13870
▁联发	-13871
▁厌倦	-13872
▁教科	-13873
▁洋葱	-13874
▁生锈	-13875
▁电厂	-13876
▁罗杰	-13877
▁赛程	-13878
▁蹭饭	-13879
▁无所畏惧	-13880
▁停机	-13881
▁家中	-13882
▁虚假	-13883
▁衡量	-13884
▁走好	-13885
▁重回	-13886
▁墩	-13887
▁珍爱	-13888
▁球赛	-13889
▁仪表	-13890
▁均价	-13891
▁怪人	-13892
▁打斗	-13893
▁跟随	-13894
▁逼死	-13895
sl	-13896
▁低估	-13897
▁引援	-13898
▁泳池	-13899
▁神乐	-13900
▁4800	-13901
德尔	-13902
ool	-13903
▁东亚	-13904
▁哑巴	-13905
▁常态	-13906
▁星级	-13907
▁花臂	-13908
▁uzi	-13909
▁一寸	-13910
▁向日	-13911
▁宽容	-13912
▁白凤	-13913
▁红名	-13914
▁结石	-13915
▁苦瓜	-13916
▁钢板	-13917
TE	-13918
▁交集	-13919
▁哈利	-13920
▁大罗	-13921
▁弄坏	-13922
▁fgo	-13923
ord	-13924
▁一桌	-13925
▁指着	-13926
▁药膏	-13927
▁汾	-13928
▁勇者	-13929
▁大蒜	-13930
▁恍惚	-13931
▁油管	-13932
▁王国	-13933
▁耍耍	-13934
▁莱万	-13935
▁WIN	-13936
eel	-13937
▁减脂	-13938
▁无修	-13939
▁炮哥	-13940
▁血糖	-13941
▁770	-13942
▁八一八	-13943
▁羁	-13944
▁妖姬	-13945
▁途中	-13946
ker	-13947
▁度假	-13948
▁打榜	-13949
▁插队	-13950
▁注射	-13951
▁车厢	-13952
▁黑莓	-13953
普森	-13954
▁GS	-13955
▁所示	-13956
▁白玉	-13957
▁究极	-13958
▁郭嘉	-13959
▁区间	-13960
▁园区	-13961
▁妇科	-13962
▁新百	-13963
▁背书	-13964
▁认知	-13965
▁omg	-13966
油条	-13967
▁pg	-13968
▁倔强	-13969
▁猫腻	-13970
▁rom	-13971
▁受骗	-13972
▁德莱	-13973
▁战列	-13974
▁格外	-13975
▁煽情	-13976
▁苦苦	-13977
▁落叶	-13978
▁访谈	-13979
▁happy	-13980
▁张翰	-13981
▁斗罗	-13982
▁江门	-13983
▁舆论	-13984
▁评委	-13985
▁购置	-13986
▁东城	-13987
▁发疯	-13988
▁手心	-13989
▁抽屉	-13990
▁挨个	-13991
▁清秀	-13992
▁野心	-13993
unn	-13994
▁TG	-13995
▁崩盘	-13996
▁石膏	-13997
▁黑板	-13998
▁冈	-13999
▁厢	-14000
▁碑	-14001
▁银卡	-14002
▁345	-14003
▁肋	-14004
▁妇联	-14005
▁对此	-14006
▁提款	-14007
▁没落	-14008
▁酋长	-14009
▁高产	-14010
▁察	-14011
▁瓢	-14012
▁三峡	-14013
▁博爱	-14014
▁春哥	-14015
得来	-14016
▁协商	-14017
▁招财	-14018
▁胭脂	-14019
▁除去	-14020
▁克隆	-14021
▁通货	-14022
▁116	-14023
▁ouo	-14024
▁悉	-14025
▁杖	-14026
▁灼	-14027
▁陇	-14028
▁女声	-14029
▁车门	-14030
▁骑马	-14031
ish	-14032
▁ph	-14033
▁图源	-14034
▁如愿	-14035
▁两面	-14036
▁服饰	-14037
▁毫安	-14038
▁特性	-14039
▁预览	-14040
▁饲料	-14041
▁139	-14042
▁筱	-14043
气壮	-14044
▁出击	-14045
▁塞子	-14046
▁珠宝	-14047
▁理直	-14048
▁续集	-14049
▁陪玩	-14050
▁不知所	-14051
▁理直气壮	-14052
▁民生	-14053
▁胡思	-14054
▁解毒	-14055
▁起源	-14056
▁龙卷	-14057
▁弊	-14058
▁云盘	-14059
▁多美	-14060
▁崎	-14061
▁亨利	-14062
▁包月	-14063
▁复兴	-14064
▁黑红	-14065
▁硝	-14066
▁内外	-14067
▁后人	-14068
▁太和	-14069
▁母乳	-14070
▁淋巴	-14071
▁铠甲	-14072
▁柬	-14073
▁天山	-14074
▁眨眼	-14075
▁030	-14076
▁双十二	-14077
▁畔	-14078
▁大猫	-14079
▁眼影	-14080
▁硫酸	-14081
▁芭比	-14082
▁业绩	-14083
▁号召	-14084
▁女巫	-14085
▁捷豹	-14086
▁掌声	-14087
▁转接	-14088
▁阿玛	-14089
▁双重	-14090
▁婆娘	-14091
▁特警	-14092
▁福克斯	-14093
▁老油条	-14094
▁罕	-14095
▁中暑	-14096
▁体积	-14097
▁私奔	-14098
▁黄毛	-14099
▁斐	-14100
尼奥	-14101
▁临汾	-14102
▁安置	-14103
▁猫砂	-14104
乱想	-14105
▁强攻	-14106
▁老鹰	-14107
▁裸考	-14108
▁鬼火	-14109
ond	-14110
▁冷面	-14111
▁判定	-14112
▁发病	-14113
▁诊断	-14114
▁嗖	-14115
▁功效	-14116
▁斯坦	-14117
▁银狐	-14118
▁胡思乱想	-14119
路口	-14120
▁东路	-14121
▁卧铺	-14122
▁园艺	-14123
▁碧桂	-14124
▁元帅	-14125
▁独孤	-14126
▁附属	-14127
▁十字路口	-14128
ed	-14129
▁tr	-14130
▁Th	-14131
▁交际	-14132
▁日报	-14133
▁清流	-14134
▁青旅	-14135
▁骆驼	-14136
▁公办	-14137
▁猫眼	-14138
▁生成	-14139
霉素	-14140
▁凉水	-14141
▁凤眼	-14142
▁动动	-14143
▁千古	-14144
▁扩招	-14145
▁日日	-14146
▁劳尔	-14147
▁四海	-14148
▁钙片	-14149
▁高危	-14150
▁小黄人	-14151
▁头球	-14152
▁套子	-14153
▁总成	-14154
▁抽签	-14155
▁海水	-14156
▁脆皮	-14157
▁铁皮	-14158
▁鳗	-14159
▁SH	-14160
▁她俩	-14161
▁热干	-14162
▁躺尸	-14163
▁完胜	-14164
▁本能	-14165
▁眼科	-14166
▁黄石	-14167
▁NP	-14168
▁发火	-14169
▁点火	-14170
▁烟雾	-14171
▁HI	-14172
▁UC	-14173
▁后跟	-14174
▁纯情	-14175
▁一本正经	-14176
▁dj	-14177
▁冰心	-14178
▁洋洋	-14179
▁浪琴	-14180
▁耶稣	-14181
▁迈腾	-14182
▁厨艺	-14183
▁好象	-14184
▁汇报	-14185
▁经费	-14186
▁热干面	-14187
▁履	-14188
▁叫法	-14189
▁搞懂	-14190
▁象牙	-14191
▁响应	-14192
▁林子	-14193
▁男团	-14194
▁胆大	-14195
▁碧桂园	-14196
AM	-14197
▁蜈	-14198
▁SK	-14199
▁克罗	-14200
▁入围	-14201
▁升值	-14202
▁cry	-14203
▁克服	-14204
▁反思	-14205
▁团员	-14206
▁尤克	-14207
▁登顶	-14208
▁二婚	-14209
▁哦哟	-14210
▁右转	-14211
▁拟人	-14212
▁私房	-14213
▁花卉	-14214
▁馅饼	-14215
▁下垂	-14216
▁夜间	-14217
▁挑衅	-14218
▁掌控	-14219
▁木马	-14220
▁灰灰	-14221
▁联络	-14222
▁青轴	-14223
▁白子画	-14224
▁台子	-14225
▁山楂	-14226
▁禁赛	-14227
▁采用	-14228
▁饥饿	-14229
▁192	-14230
当然	-14231
▁aa	-14232
▁主管	-14233
▁内在	-14234
▁四驱	-14235
▁小六	-14236
▁残废	-14237
▁钰	-14238
▁PR	-14239
▁切糕	-14240
▁武当	-14241
▁生吃	-14242
▁省略	-14243
▁suv	-14244
96	-14245
▁憔	-14246
一世	-14247
▁拍片	-14248
▁水温	-14249
▁去处	-14250
▁血管	-14251
▁隔音	-14252
▁顾问	-14253
▁联发科	-14254
▁为师	-14255
▁电扇	-14256
▁职教	-14257
▁蜥蜴	-14258
▁重伤	-14259
▁缪	-14260
▁台服	-14261
▁指示	-14262
▁泡菜	-14263
▁自留	-14264
▁人脉	-14265
▁定律	-14266
▁转播	-14267
▁胚	-14268
▁pi	-14269
▁标注	-14270
▁部曲	-14271
▁霍霍	-14272
▁指路	-14273
▁阮	-14274
▁OT	-14275
▁前腰	-14276
▁卖肉	-14277
▁赛亚	-14278
▁淳	-14279
▁悬崖	-14280
▁死刑	-14281
▁喧	-14282
▁一族	-14283
▁寄养	-14284
▁海景	-14285
▁豌豆	-14286
43	-14287
▁仕	-14288
▁栓	-14289
▁璃	-14290
▁双刀	-14291
▁粘土	-14292
▁罪过	-14293
▁马来西亚	-14294
▁与众	-14295
▁漏水	-14296
▁玉溪	-14297
▁矮油	-14298
▁与众不同	-14299
▁谐	-14300
▁拆穿	-14301
▁拦截	-14302
▁海豚	-14303
▁狮虎	-14304
▁畅玩	-14305
▁莒	-14306
烈烈	-14307
▁交房	-14308
▁公立	-14309
▁晶晶	-14310
▁稍后	-14311
▁鞋盒	-14312
取闹	-14313
▁互赞	-14314
▁出于	-14315
▁出彩	-14316
▁无理	-14317
▁肚皮	-14318
▁钢筋	-14319
▁无理取闹	-14320
▁轰轰烈烈	-14321
▁嘣	-14322
▁一枝	-14323
▁三胖	-14324
▁俄语	-14325
▁小爱	-14326
▁巴士	-14327
▁放送	-14328
▁讲课	-14329
▁货币	-14330
▁野兽	-14331
▁鳄龟	-14332
▁臀	-14333
难尽	-14334
▁上镜	-14335
▁克洛	-14336
▁票子	-14337
▁脚垫	-14338
▁App	-14339
▁dps	-14340
▁一言难尽	-14341
▁篱	-14342
▁偷袭	-14343
▁心虚	-14344
▁灰心	-14345
▁眼看	-14346
所欲为	-14347
▁凶手	-14348
▁呼唤	-14349
▁就学	-14350
▁霖	-14351
▁教导	-14352
▁练级	-14353
▁话语	-14354
▁重建	-14355
▁向日葵	-14356
▁为所欲为	-14357
▁日久生情	-14358
鲁斯	-14359
▁外围	-14360
▁绝情	-14361
▁万象	-14362
▁憔悴	-14363
▁报酬	-14364
▁气象	-14365
▁眼霜	-14366
▁盏	-14367
▁Lo	-14368
▁单刀	-14369
▁开拓	-14370
▁摆渡	-14371
▁美观	-14372
▁进一步	-14373
▁双开	-14374
▁流动	-14375
▁百事	-14376
▁豆芽	-14377
▁铺垫	-14378
▁117	-14379
▁槐	-14380
▁膀	-14381
▁板面	-14382
▁浓眉	-14383
▁318	-14384
play	-14385
▁丛林	-14386
▁泪水	-14387
▁卒	-14388
▁冬瓜	-14389
▁发酵	-14390
▁桐人	-14391
▁直销	-14392
▁逗逗	-14393
▁长草	-14394
▁人形	-14395
▁决斗	-14396
▁凯恩	-14397
▁无极	-14398
▁正比	-14399
▁调配	-14400
▁金银	-14401
▁窦	-14402
▁邋	-14403
▁代发	-14404
▁大虾	-14405
▁奢望	-14406
▁无邪	-14407
▁清远	-14408
▁逮住	-14409
▁靓仔	-14410
▁鸭蛋	-14411
▁288	-14412
ko	-14413
▁DV	-14414
▁哟西	-14415
▁妹控	-14416
▁潮州	-14417
▁三元	-14418
▁军区	-14419
▁增肌	-14420
▁挂失	-14421
▁绿皮	-14422
▁腊月	-14423
▁难产	-14424
▁平价	-14425
▁病娇	-14426
▁语法	-14427
▁308	-14428
▁调档线	-14429
▁撬	-14430
▁买断	-14431
▁紫金	-14432
▁若干	-14433
▁薪资	-14434
▁钢丝	-14435
▁师徒	-14436
▁新星	-14437
▁武磊	-14438
▁舰娘	-14439
▁雨中	-14440
▁中信	-14441
▁病情	-14442
▁稍稍	-14443
▁胃炎	-14444
▁见效	-14445
▁集成	-14446
▁貔	-14447
▁基层	-14448
▁穆里	-14449
▁连发	-14450
▁低压	-14451
▁入选	-14452
▁原色	-14453
▁古人	-14454
▁外景	-14455
▁强袭	-14456
▁绿城	-14457
▁花瓣	-14458
▁靶	-14459
▁da	-14460
▁妖刀	-14461
▁悠闲	-14462
▁教堂	-14463
▁法术	-14464
▁臭味	-14465
弹子	-14466
▁主体	-14467
▁国道	-14468
▁涡轮	-14469
▁淮北	-14470
▁开战	-14471
▁炮弹	-14472
▁转变	-14473
晓彤	-14474
▁零零	-14475
▁148	-14476
▁七彩虹	-14477
▁主宰	-14478
▁台阶	-14479
▁成名	-14480
▁rap	-14481
▁念念不忘	-14482
▁offer	-14483
▁夜光	-14484
▁拉票	-14485
▁王力	-14486
▁SSD	-14487
▁科鲁兹	-14488
▁淤	-14489
▁二建	-14490
▁以此	-14491
▁冰激	-14492
▁火鸡	-14493
▁野钓	-14494
▁上演	-14495
▁公示	-14496
▁口径	-14497
▁防水	-14498
▁妲	-14499
▁尊享	-14500
▁拉丁	-14501
▁民工	-14502
▁白骨	-14503
▁德莱文	-14504
▁烽	-14505
竹马	-14506
▁共和	-14507
▁分成	-14508
▁名校	-14509
▁怀化	-14510
▁朗逸	-14511
▁牛人	-14512
▁王祖	-14513
▁迪迦	-14514
▁ra	-14515
▁亏损	-14516
▁小王	-14517
▁巴结	-14518
▁机甲	-14519
▁知了	-14520
▁面粉	-14521
▁青梅竹马	-14522
▁歉	-14523
▁主食	-14524
▁助力	-14525
▁得知	-14526
▁抢手	-14527
▁结晶	-14528
▁颜料	-14529
▁金弹子	-14530
▁估分	-14531
▁修为	-14532
▁剖腹	-14533
▁启事	-14534
▁两口	-14535
▁加温	-14536
▁间隔	-14537
▁tou	-14538
如何	-14539
▁传闻	-14540
▁低保	-14541
▁小圆	-14542
▁赤峰	-14543
▁饭钱	-14544
▁枭	-14545
以待	-14546
▁女权	-14547
▁情景	-14548
▁支教	-14549
▁无赖	-14550
▁课堂	-14551
▁dlc	-14552
里里	-14553
▁损伤	-14554
▁无论如何	-14555
▁妾	-14556
▁ct	-14557
▁攻防	-14558
▁盘龙	-14559
▁透视	-14560
▁尤克里里	-14561
ul	-14562
▁咚	-14563
▁嚷	-14564
▁要饭	-14565
▁沛	-14566
ita	-14567
▁俗称	-14568
▁图解	-14569
▁坏话	-14570
▁托运	-14571
▁疼爱	-14572
▁虐文	-14573
▁feel	-14574
▁宪	-14575
▁乐福	-14576
▁挺住	-14577
▁盖世	-14578
▁纸质	-14579
▁芹	-14580
▁大纲	-14581
▁小美	-14582
▁打压	-14583
▁拼图	-14584
▁揭阳	-14585
▁梦游	-14586
▁清凉	-14587
▁瑾	-14588
▁赎	-14589
▁兵种	-14590
▁奔三	-14591
▁富豪	-14592
▁巡演	-14593
▁波兰	-14594
▁波特	-14595
▁耳塞	-14596
▁般配	-14597
▁较好	-14598
▁540	-14599
基尼	-14600
▁受过	-14601
▁地段	-14602
▁帕萨	-14603
▁强悍	-14604
▁拐弯	-14605
▁脑筋	-14606
▁301	-14607
▁801	-14608
▁事务	-14609
▁住房	-14610
▁后山	-14611
▁小康	-14612
▁所见	-14613
▁插画	-14614
▁沉香	-14615
▁笔画	-14616
▁胡同	-14617
▁部件	-14618
▁625	-14619
▁偏见	-14620
▁晕倒	-14621
▁老张	-14622
▁元芳	-14623
▁别处	-14624
▁大鳄	-14625
▁835	-14626
死不	-14627
▁切记	-14628
▁初步	-14629
▁安息	-14630
▁推测	-14631
▁温水	-14632
▁三通	-14633
▁人声	-14634
▁大姨	-14635
▁慢跑	-14636
▁笑声	-14637
▁十堰	-14638
▁神机	-14639
▁美院	-14640
▁腰围	-14641
▁饭后	-14642
▁131	-14643
▁CBA	-14644
▁骏	-14645
▁土著	-14646
▁官司	-14647
▁OP	-14648
▁平房	-14649
▁手撕	-14650
▁暴走	-14651
▁量产	-14652
▁阿兰	-14653
▁面值	-14654
于晏	-14655
▁印尼	-14656
▁迟迟	-14657
▁升学	-14658
▁县里	-14659
▁山庄	-14660
▁海豹	-14661
▁飞飞	-14662
▁侵犯	-14663
▁当今	-14664
▁凹凸	-14665
▁寓意	-14666
▁得一	-14667
▁港口	-14668
▁狗市	-14669
▁蜈蚣	-14670
靓颖	-14671
▁一击	-14672
▁乱想	-14673
▁大鹏	-14674
▁山河	-14675
▁归路	-14676
▁头部	-14677
▁彩排	-14678
▁文盲	-14679
▁稳如	-14680
▁追加	-14681
▁霓虹	-14682
▁彭于晏	-14683
▁伤身	-14684
▁星云	-14685
油精	-14686
▁BL	-14687
▁八部	-14688
▁分量	-14689
▁改掉	-14690
▁法则	-14691
▁视线	-14692
▁帕萨特	-14693
▁卖肾	-14694
▁暗夜	-14695
▁空位	-14696
▁试纸	-14697
▁风油精	-14698
▁前奏	-14699
▁哪所	-14700
▁异端	-14701
▁罗伊	-14702
▁骰子	-14703
▁are	-14704
▁张靓颖	-14705
38	-14706
▁免税	-14707
▁存活	-14708
▁小额	-14709
▁梅州	-14710
▁马力	-14711
▁两口子	-14712
▁下拉	-14713
▁乌龙	-14714
▁好闻	-14715
▁开枪	-14716
▁条子	-14717
▁枯燥	-14718
▁神烦	-14719
▁面部	-14720
▁东南亚	-14721
▁佩戴	-14722
▁标的	-14723
▁贱卖	-14724
▁赫赫	-14725
▁太卡	-14726
▁美发	-14727
▁资历	-14728
▁SUV	-14729
▁驿	-14730
▁批量	-14731
▁砂纸	-14732
▁脱毛	-14733
▁鸡排	-14734
▁凯撒	-14735
▁大喊	-14736
▁年糕	-14737
and	-14738
▁丝毫	-14739
▁天命	-14740
▁游民	-14741
▁490	-14742
▁彤	-14743
ono	-14744
▁sl	-14745
▁一搜	-14746
▁喜酒	-14747
▁好似	-14748
▁存储	-14749
▁掉进	-14750
▁象征	-14751
▁陆地	-14752
▁腋	-14753
▁双龙	-14754
▁轨迹	-14755
▁迎春	-14756
▁860	-14757
▁冰凉	-14758
▁拉米	-14759
▁松江	-14760
▁自费	-14761
▁丈人	-14762
▁学区	-14763
▁尼奥	-14764
▁沧海	-14765
▁粘着	-14766
▁还清	-14767
▁倦	-14768
▁下坡	-14769
▁可儿	-14770
▁小队	-14771
▁期盼	-14772
▁爆率	-14773
▁偃	-14774
▁泊	-14775
▁亲近	-14776
▁空闲	-14777
▁英才	-14778
oe	-14779
▁征求	-14780
▁连连	-14781
▁催收	-14782
▁八楼	-14783
▁大笑	-14784
▁天籁	-14785
▁硬度	-14786
▁兰博基尼	-14787
▁汶	-14788
▁驰	-14789
▁多米	-14790
▁孝感	-14791
▁车身	-14792
▁近来	-14793
▁里皮	-14794
▁长裤	-14795
OW	-14796
▁大阪	-14797
▁投影	-14798
▁本钱	-14799
▁重楼	-14800
▁闪避	-14801
▁大成	-14802
▁少于	-14803
▁影片	-14804
▁秘诀	-14805
▁铁板	-14806
之明	-14807
▁jd	-14808
▁懦弱	-14809
▁晕死	-14810
▁蛮子	-14811
▁警惕	-14812
无愧	-14813
▁KO	-14814
▁QY	-14815
▁习俗	-14816
▁唐朝	-14817
▁梧桐	-14818
▁毛笔	-14819
▁漏气	-14820
▁皮尔	-14821
▁补发	-14822
ba	-14823
▁小李	-14824
▁朵朵	-14825
▁渐变	-14826
▁邋遢	-14827
▁WE	-14828
▁美军	-14829
▁长裙	-14830
▁闹闹	-14831
▁鼓浪	-14832
▁畏	-14833
▁争论	-14834
▁壮观	-14835
▁支配	-14836
▁肇庆	-14837
▁FPS	-14838
莱斯	-14839
▁公鸡	-14840
▁宿州	-14841
▁杂货	-14842
▁羁绊	-14843
▁说道	-14844
▁雅典	-14845
▁首保	-14846
▁乌克兰	-14847
▁芋	-14848
▁下款	-14849
▁严谨	-14850
▁大厨	-14851
▁暴毙	-14852
▁烹饪	-14853
▁边境	-14854
▁遵守	-14855
▁why	-14856
▁亳	-14857
▁嫣	-14858
▁红线	-14859
▁棠	-14860
▁漩	-14861
▁ML	-14862
▁木瓜	-14863
▁租车	-14864
▁噬	-14865
▁衔	-14866
▁辙	-14867
丈夫	-14868
▁吉大	-14869
▁挣得	-14870
▁提议	-14871
▁获奖	-14872
▁狩	-14873
▁晒图	-14874
▁沙县	-14875
▁离异	-14876
▁租借	-14877
▁解约	-14878
▁书本	-14879
▁五金	-14880
▁代付	-14881
▁偷情	-14882
▁场次	-14883
▁小于	-14884
▁镜片	-14885
▁大丈夫	-14886
▁新百伦	-14887
无不	-14888
▁os	-14889
▁压死	-14890
▁梁山	-14891
▁档期	-14892
▁泥嚎	-14893
▁英俊	-14894
▁补天	-14895
▁钱币	-14896
▁鼻屎	-14897
▁金士顿	-14898
gbang	-14899
▁bgm	-14900
▁掠	-14901
▁阀	-14902
▁丽丽	-14903
▁微单	-14904
▁东大	-14905
▁小姑	-14906
▁迹象	-14907
▁808	-14908
▁An	-14909
▁止损	-14910
▁猜猜	-14911
▁电网	-14912
▁透析	-14913
▁雪琪	-14914
▁194	-14915
▁屡	-14916
顶盒	-14917
▁九尾	-14918
▁稳妥	-14919
▁翻拍	-14920
▁自欺	-14921
▁见鬼	-14922
▁3700	-14923
▁cg	-14924
▁两头	-14925
▁神似	-14926
▁粉刺	-14927
▁西昌	-14928
▁鱼儿	-14929
▁阿拉伯	-14930
97	-14931
▁圆珠	-14932
▁琴行	-14933
▁五角	-14934
▁单个	-14935
▁斗争	-14936
▁毫升	-14937
▁留情	-14938
▁胡椒	-14939
▁龙岗	-14940
▁浸	-14941
▁迦	-14942
▁隋	-14943
▁一一	-14944
▁传递	-14945
▁便携	-14946
▁合算	-14947
▁火葬	-14948
▁英朗	-14949
▁鼓浪屿	-14950
▁苔	-14951
▁主唱	-14952
▁执照	-14953
▁靠边	-14954
▁三者	-14955
▁储存	-14956
▁叮当	-14957
▁悬疑	-14958
▁死光	-14959
▁跳跳	-14960
▁机顶盒	-14961
▁栾	-14962
▁酝	-14963
▁ic	-14964
▁坚守	-14965
▁树叶	-14966
▁盐水	-14967
▁美洲	-14968
▁调试	-14969
▁新郑	-14970
▁海岸	-14971
▁貔貅	-14972
indle	-14973
则天	-14974
▁叛逆	-14975
▁奖杯	-14976
▁嫁妆	-14977
▁摩天	-14978
▁摸鱼	-14979
▁艰苦	-14980
▁蝌	-14981
OTA	-14982
▁侠客	-14983
▁古龙	-14984
▁右侧	-14985
▁少恭	-14986
▁正缘	-14987
▁海鸥	-14988
▁激励	-14989
▁肠子	-14990
▁良药	-14991
▁草帽	-14992
▁别跑	-14993
▁协和	-14994
▁卫庄	-14995
▁好书	-14996
▁物美	-14997
江堰	-14998
▁众生	-14999
▁宁静	-15000
▁斯科	-15001
▁片花	-15002
▁话筒	-15003
▁费钱	-15004
▁英特尔	-15005
▁窟	-15006
▁专治	-15007
▁城际	-15008
▁整合	-15009
▁气味	-15010
▁洗掉	-15011
▁鲍鱼	-15012
▁都江堰	-15013
▁九阴	-15014
▁水草	-15015
▁花间	-15016
▁飞龙	-15017
▁茬	-15018
▁偷吃	-15019
▁挂掉	-15020
▁身旁	-15021
▁阿扎尔	-15022
ji	-15023
姗姗	-15024
欺人	-15025
▁fo	-15026
▁乱跑	-15027
▁实行	-15028
▁武则天	-15029
▁焕	-15030
▁逊	-15031
▁投胎	-15032
▁贬值	-15033
▁韩红	-15034
▁骗局	-15035
▁才艺	-15036
▁眼珠	-15037
▁鱼人	-15038
ND	-15039
▁痊	-15040
▁作孽	-15041
▁抛开	-15042
▁抹黑	-15043
▁摇滚	-15044
▁放宽	-15045
▁网银	-15046
▁药剂	-15047
▁重力	-15048
▁乛	-15049
▁北漂	-15050
▁和弦	-15051
▁抓拍	-15052
▁混子	-15053
▁自创	-15054
▁西大	-15055
▁ck	-15056
▁不醉	-15057
▁临近	-15058
▁四轮	-15059
▁国籍	-15060
▁天意	-15061
▁市政	-15062
▁枫叶	-15063
▁站岗	-15064
▁语种	-15065
▁说唱	-15066
500	-15067
▁CB	-15068
▁ge	-15069
▁产量	-15070
▁人脸	-15071
▁忽冷	-15072
▁急性	-15073
▁打倒	-15074
▁掌柜	-15075
▁掐死	-15076
▁深水	-15077
▁盛开	-15078
▁莎莎	-15079
▁蜕皮	-15080
▁试图	-15081
▁队服	-15082
▁科斯塔	-15083
▁华中	-15084
▁小笼	-15085
▁招办	-15086
有可	-15087
▁好色	-15088
▁术士	-15089
▁楚楚	-15090
▁每场	-15091
▁点卷	-15092
▁玄武	-15093
▁转车	-15094
▁里程	-15095
▁ppt	-15096
▁腕	-15097
化腾	-15098
拉里	-15099
▁CV	-15100
▁LP	-15101
▁三小	-15102
▁农场	-15103
▁看淡	-15104
▁穹妹	-15105
▁选举	-15106
▁预购	-15107
▁菱	-15108
▁先知	-15109
▁勋章	-15110
▁癫	-15111
▁聋	-15112
▁大兴	-15113
▁渺茫	-15114
▁短路	-15115
▁路灯	-15116
▁渤	-15117
▁一抹	-15118
▁先后	-15119
▁剑豪	-15120
▁卡车	-15121
▁喂养	-15122
▁备战	-15123
▁枪手	-15124
▁痊愈	-15125
▁苦力	-15126
▁退烧	-15127
▁铁丝	-15128
华德	-15129
▁一念	-15130
▁双层	-15131
▁清单	-15132
▁诺诺	-15133
▁跳蚤	-15134
▁骨骼	-15135
▁黄子韬	-15136
▁蹄	-15137
▁千米	-15138
▁各国	-15139
▁周董	-15140
▁尾款	-15141
▁接生	-15142
▁真货	-15143
▁贝爷	-15144
▁镁	-15145
▁lb	-15146
▁原配	-15147
▁客队	-15148
▁收割	-15149
▁破碎	-15150
▁肠粉	-15151
▁里约	-15152
▁鼓楼	-15153
▁930	-15154
▁裱	-15155
▁巴斯	-15156
▁行者	-15157
▁马化腾	-15158
▁一同	-15159
▁万家	-15160
▁后置	-15161
▁忌口	-15162
▁电热	-15163
▁种田	-15164
▁调料	-15165
▁集美	-15166
▁ji	-15167
▁叨叨	-15168
▁川崎	-15169
▁庄园	-15170
▁电容	-15171
▁钟意	-15172
▁音箱	-15173
▁楷	-15174
▁伊利	-15175
▁底气	-15176
▁甜美	-15177
▁看花	-15178
▁花瓶	-15179
▁触动	-15180
▁过高	-15181
▁百分比	-15182
▁绥	-15183
▁小票	-15184
▁左眼	-15185
▁手电	-15186
▁歌迷	-15187
▁疗程	-15188
▁老吴	-15189
▁亚丝	-15190
▁借款	-15191
▁壮士	-15192
▁废品	-15193
▁日韩	-15194
▁沙拉	-15195
▁辟谣	-15196
▁阵型	-15197
▁食指	-15198
▁冰激凌	-15199
▁曜	-15200
▁坚挺	-15201
▁碍事	-15202
▁899	-15203
▁掘	-15204
▁太郎	-15205
▁香槟	-15206
▁恩施	-15207
▁梅林	-15208
▁620	-15209
▁字典	-15210
▁延安	-15211
▁股东	-15212
▁薰衣	-15213
▁霸主	-15214
▁陛	-15215
ack	-15216
▁保利	-15217
▁前妻	-15218
▁男儿	-15219
▁亚丝娜	-15220
▁拭	-15221
年华	-15222
▁六星	-15223
▁嘴脸	-15224
▁天数	-15225
▁拆线	-15226
▁铲屎	-15227
▁抒	-15228
▁绽	-15229
▁校队	-15230
▁至宝	-15231
▁莱阳	-15232
▁连冠	-15233
▁汤普森	-15234
▁马德里	-15235
▁拙	-15236
▁功底	-15237
▁四块	-15238
▁女皇	-15239
▁榆林	-15240
▁113	-15241
▁飒	-15242
▁情趣	-15243
▁纯色	-15244
▁xy	-15245
▁分割	-15246
▁回校	-15247
▁声望	-15248
▁套图	-15249
▁孤岛	-15250
▁容忍	-15251
▁崖柏	-15252
▁护卫	-15253
▁烈士	-15254
▁物体	-15255
▁猜想	-15256
▁秦始	-15257
▁纯真	-15258
▁艳遇	-15259
▁雄起	-15260
▁高利	-15261
▁1230	-15262
▁下旬	-15263
▁中铁	-15264
▁军爷	-15265
▁刀锋	-15266
▁厚厚	-15267
▁能手	-15268
▁007	-15269
▁255	-15270
▁声乐	-15271
▁宝来	-15272
▁小路	-15273
▁至尊宝	-15274
忽热	-15275
▁教养	-15276
▁花屏	-15277
▁205	-15278
▁忽冷忽热	-15279
61	-15280
▁南开	-15281
▁释怀	-15282
▁RO	-15283
▁ki	-15284
▁回民	-15285
▁归宿	-15286
▁摔死	-15287
▁管道	-15288
▁自备	-15289
▁花色	-15290
▁随口	-15291
▁570	-15292
▁北苑	-15293
▁卖钱	-15294
▁插卡	-15295
▁温顺	-15296
▁精美	-15297
▁精选	-15298
▁防线	-15299
▁传家	-15300
▁拦网	-15301
▁挂钩	-15302
▁爱美	-15303
▁现价	-15304
▁霍华德	-15305
▁高利贷	-15306
▁纬	-15307
▁低频	-15308
▁呀呀	-15309
▁大佛	-15310
▁小法	-15311
▁左脚	-15312
▁真菌	-15313
▁USB	-15314
se	-15315
▁内屏	-15316
▁小青	-15317
▁性情	-15318
▁疑难	-15319
▁福气	-15320
▁may	-15321
▁pt	-15322
▁劝退	-15323
▁加时	-15324
▁妲己	-15325
▁老湿	-15326
▁长夜	-15327
▁单调	-15328
▁苍天	-15329
▁弱鸡	-15330
▁远处	-15331
▁272	-15332
▁DOTA	-15333
▁遁	-15334
▁丫丫	-15335
▁丹东	-15336
▁乘客	-15337
▁伤疤	-15338
▁向阳	-15339
▁希特	-15340
▁景德	-15341
▁灰熊	-15342
▁蒸汽	-15343
▁贬低	-15344
▁露天	-15345
▁面皮	-15346
▁飘逸	-15347
▁龙湖	-15348
▁一生一世	-15349
▁冷冻	-15350
▁板砖	-15351
▁河口	-15352
▁火热	-15353
▁秋风	-15354
▁艳阳	-15355
▁镰刀	-15356
▁麟	-15357
▁代工	-15358
▁哇靠	-15359
▁渭南	-15360
▁漫步	-15361
▁示范	-15362
▁蜂窝	-15363
▁配送	-15364
▁雷蛇	-15365
▁青椒	-15366
▁vans	-15367
罗兰	-15368
▁发起	-15369
▁奇瑞	-15370
▁造反	-15371
▁酝酿	-15372
▁预习	-15373
▁应当	-15374
▁浮动	-15375
▁白皮	-15376
▁翻脸	-15377
▁秦始皇	-15378
▁windows	-15379
▁啸	-15380
▁口粮	-15381
▁抢票	-15382
▁追随	-15383
▁skt	-15384
ok	-15385
▁径	-15386
▁互助	-15387
▁寒冷	-15388
▁西山	-15389
▁账单	-15390
▁PL	-15391
▁相应	-15392
▁算法	-15393
▁蝌蚪	-15394
▁轴承	-15395
▁问道	-15396
消息	-15397
▁yu	-15398
▁冰雹	-15399
▁只认	-15400
▁各省	-15401
▁日产	-15402
▁正当	-15403
▁油箱	-15404
▁露面	-15405
▁乱来	-15406
▁假球	-15407
▁士郎	-15408
▁汇通	-15409
▁路亚	-15410
▁甭	-15411
▁衍	-15412
▁二郎	-15413
▁前往	-15414
▁吾皇	-15415
▁天尊	-15416
▁帮派	-15417
▁常熟	-15418
▁指出	-15419
▁烽火	-15420
▁跳跃	-15421
▁辣子	-15422
▁郑智	-15423
▁小道消息	-15424
CD	-15425
▁九寨	-15426
▁奔腾	-15427
▁返利	-15428
▁猕	-15429
▁双肩	-15430
▁名著	-15431
▁土匪	-15432
▁烫手	-15433
▁窥	-15434
▁前行	-15435
▁半边	-15436
▁参谋	-15437
▁小霸	-15438
▁服役	-15439
▁酷跑	-15440
▁闪亮	-15441
▁面签	-15442
▁黄皮	-15443
▁ns	-15444
▁出库	-15445
▁紧身	-15446
▁高光	-15447
▁自欺欺人	-15448
活来	-15449
▁MT	-15450
▁元首	-15451
▁反射	-15452
▁小菜	-15453
▁蛋挞	-15454
▁螺蛳	-15455
▁151	-15456
▁死去活来	-15457
▁茹	-15458
▁ba	-15459
▁官员	-15460
▁抄底	-15461
▁拉伸	-15462
▁桥头	-15463
▁雷电	-15464
▁饵料	-15465
▁鼻梁	-15466
浩特	-15467
▁恶毒	-15468
▁木工	-15469
▁榜样	-15470
▁献丑	-15471
▁转卖	-15472
ara	-15473
▁巷子	-15474
▁浩克	-15475
▁消肿	-15476
▁薰衣草	-15477
加尔	-15478
▁康师	-15479
▁攒够	-15480
▁无痕	-15481
▁榜单	-15482
▁毒死	-15483
▁温差	-15484
▁重心	-15485
▁音源	-15486
▁李小龙	-15487
▁入场	-15488
▁加水	-15489
▁反差	-15490
▁招惹	-15491
▁现房	-15492
▁红外	-15493
▁蜕变	-15494
▁845	-15495
▁茧	-15496
▁中海	-15497
▁丽水	-15498
▁光洙	-15499
▁挥手	-15500
▁日历	-15501
▁较多	-15502
▁人种	-15503
▁仇人	-15504
▁双性	-15505
▁帕克	-15506
▁洪荒	-15507
▁潜艇	-15508
▁电筒	-15509
▁西决	-15510
▁RNG	-15511
西兰	-15512
▁一等	-15513
▁乔巴	-15514
▁吾王	-15515
▁弹跳	-15516
▁春暖	-15517
▁烈酒	-15518
▁生源	-15519
▁那英	-15520
▁黄海	-15521
▁恰恰	-15522
▁掏空	-15523
▁机率	-15524
▁火炮	-15525
▁联谊	-15526
▁贫穷	-15527
▁重制	-15528
▁间接	-15529
▁鲁迅	-15530
▁yes	-15531
拉蒂	-15532
▁云中	-15533
▁撩人	-15534
▁方子	-15535
▁猛龙	-15536
▁瓶盖	-15537
▁误差	-15538
▁伊拉克	-15539
▁1530	-15540
▁做作	-15541
▁发红	-15542
▁实事	-15543
▁物件	-15544
▁猕猴	-15545
▁英灵	-15546
▁204	-15547
▁署	-15548
▁衢	-15549
▁俗话	-15550
▁开拍	-15551
▁排线	-15552
▁贞德	-15553
▁镶嵌	-15554
▁低落	-15555
▁利哥	-15556
▁显眼	-15557
▁精装	-15558
▁COS	-15559
▁匕	-15560
▁膈	-15561
▁螨	-15562
▁kp	-15563
▁出山	-15564
▁勿忘	-15565
▁德克	-15566
▁猴王	-15567
▁绣花	-15568
▁安宁	-15569
▁望远	-15570
▁陛下	-15571
▁仆	-15572
▁凋	-15573
▁郫	-15574
▁UI	-15575
▁冷风	-15576
▁白费	-15577
▁稻米	-15578
▁续费	-15579
▁匈	-15580
▁亳州	-15581
▁左侧	-15582
▁泰勒	-15583
▁漩涡	-15584
▁男娃	-15585
▁保送	-15586
▁指正	-15587
是人	-15588
▁后轮	-15589
▁局部	-15590
▁愉悦	-15591
▁浅浅	-15592
▁美服	-15593
▁转圈	-15594
▁钟情	-15595
▁康师傅	-15596
▁潭	-15597
▁天启	-15598
▁流通	-15599
▁空腹	-15600
▁红魔	-15601
是人非	-15602
▁830	-15603
▁物是人非	-15604
▁桓	-15605
▁放炮	-15606
▁松动	-15607
▁瞧一	-15608
▁迷惑	-15609
▁曙	-15610
▁笋	-15611
来说	-15612
▁IS	-15613
▁丝丝	-15614
▁分散	-15615
▁北斗	-15616
▁红黑	-15617
▁秩	-15618
200	-15619
▁东华	-15620
▁划分	-15621
▁失散	-15622
▁消极	-15623
cd	-15624
▁昙	-15625
▁夏普	-15626
▁有道	-15627
▁破案	-15628
▁订购	-15629
▁121	-15630
▁710	-15631
▁世家	-15632
▁卡普	-15633
▁时辰	-15634
▁风衣	-15635
▁Or	-15636
▁pm	-15637
▁强哥	-15638
▁神州	-15639
▁韶关	-15640
▁龙套	-15641
▁小霸王	-15642
▁啄	-15643
▁撵	-15644
▁容颜	-15645
▁泡脚	-15646
▁灭亡	-15647
▁纠纷	-15648
▁长门	-15649
▁闭合	-15650
▁一等奖	-15651
▁瞧一瞧	-15652
▁憧	-15653
▁gh	-15654
▁后场	-15655
▁应对	-15656
▁抗拒	-15657
▁无畏	-15658
▁暴食	-15659
▁瞄准	-15660
▁群殴	-15661
▁耀眼	-15662
▁老罗	-15663
▁腰子	-15664
▁叙利亚	-15665
ml	-15666
▁ep	-15667
▁三七	-15668
▁师资	-15669
▁直辖	-15670
▁4.0	-15671
▁惬	-15672
敬明	-15673
▁乐天	-15674
▁开眼	-15675
▁沙特	-15676
▁西餐	-15677
▁造孽	-15678
▁1066	-15679
▁漂泊	-15680
▁裁决	-15681
▁景德镇	-15682
▁IN	-15683
▁二院	-15684
▁以身	-15685
▁天宫	-15686
▁甜点	-15687
▁QU	-15688
▁ks	-15689
▁加菲	-15690
▁双流	-15691
▁辛酸	-15692
▁金克	-15693
▁厮	-15694
▁蛛	-15695
▁小宇	-15696
▁母子	-15697
▁红轴	-15698
▁郭敬明	-15699
病相	-15700
走肉	-15701
▁围脖	-15702
▁婚庆	-15703
▁波尔	-15704
▁火气	-15705
▁认清	-15706
▁讲座	-15707
▁逼真	-15708
▁领主	-15709
病相怜	-15710
▁同病相怜	-15711
▁行尸走肉	-15712
▁崭	-15713
▁古墓	-15714
▁圣剑	-15715
▁扩展	-15716
▁炼金	-15717
▁美妙	-15718
▁蜀山	-15719
▁连体	-15720
▁钓友	-15721
▁新西兰	-15722
▁乱世	-15723
▁倒地	-15724
▁剑网	-15725
▁国度	-15726
▁姓李	-15727
▁巨龙	-15728
▁携手	-15729
▁色素	-15730
▁趣味	-15731
▁Lz	-15732
▁炫迈	-15733
▁猎豹	-15734
▁看房	-15735
▁足疗	-15736
ico	-15737
▁佩佩	-15738
▁好强	-15739
▁开奖	-15740
▁浮躁	-15741
▁细致	-15742
▁茶花	-15743
▁阿克	-15744
▁活生生	-15745
▁矢	-15746
▁争锋	-15747
▁剑魔	-15748
▁图腾	-15749
▁塞纳	-15750
▁跑道	-15751
心没	-15752
▁入戏	-15753
▁双核	-15754
▁方舟	-15755
▁玩腻	-15756
▁病院	-15757
▁简约	-15758
▁胡乱	-15759
▁避暑	-15760
心没肺	-15761
▁阿特兹	-15762
▁没心没肺	-15763
59	-15764
一度	-15765
▁与否	-15766
▁包场	-15767
▁后会	-15768
▁隐隐	-15769
▁911	-15770
▁CCTV	-15771
lo	-15772
依林	-15773
▁凉爽	-15774
▁周琦	-15775
▁对联	-15776
▁科研	-15777
▁顾虑	-15778
▁game	-15779
▁前卫	-15780
▁构图	-15781
▁试玩	-15782
▁钟爱	-15783
▁各有所爱	-15784
▁一吨	-15785
▁异形	-15786
▁折耳	-15787
▁通俗	-15788
▁魔怔	-15789
▁劵	-15790
▁国宝	-15791
▁斧头	-15792
▁晨曦	-15793
▁片头	-15794
▁玻尿	-15795
▁讲述	-15796
▁过早	-15797
▁高斯	-15798
▁car	-15799
▁绷	-15800
▁切割	-15801
▁爱到	-15802
▁群雄	-15803
▁进军	-15804
▁铃铛	-15805
▁闹事	-15806
▁640	-15807
▁玻尿酸	-15808
▁沥	-15809
▁富有	-15810
▁惬意	-15811
▁虚无	-15812
▁诉说	-15813
▁贫道	-15814
▁车灯	-15815
▁鸭脖	-15816
▁荒废	-15817
▁衬托	-15818
▁火麒麟	-15819
▁一年一度	-15820
▁卖花	-15821
▁塑造	-15822
▁德罗	-15823
▁急救	-15824
▁时速	-15825
▁普工	-15826
▁胜过	-15827
▁败笔	-15828
▁咏	-15829
▁嘀	-15830
▁光电	-15831
▁玛莎	-15832
▁硬座	-15833
▁芝士	-15834
▁孔卡	-15835
400	-15836
▁中东	-15837
▁中美	-15838
▁卷毛	-15839
▁瓶邪	-15840
▁腻歪	-15841
▁远光	-15842
▁右眼	-15843
▁抽出	-15844
▁查收	-15845
▁百变	-15846
▁纸条	-15847
▁老四	-15848
▁惹事	-15849
▁明目	-15850
▁氯	-15851
▁参军	-15852
▁过午	-15853
▁雍正	-15854
jo	-15855
八两	-15856
▁书桌	-15857
▁偏激	-15858
▁尊贵	-15859
▁胞	-15860
▁世事	-15861
▁南美	-15862
▁嗷呜	-15863
▁库尔	-15864
▁蓝雨	-15865
▁华强北	-15866
▁半斤八两	-15867
▁掂	-15868
▁倚天	-15869
▁哦豁	-15870
▁天子	-15871
▁框框	-15872
▁灿白	-15873
▁被撞	-15874
▁谈心	-15875
▁讹	-15876
▁中职	-15877
▁友尽	-15878
▁发哥	-15879
▁图钉	-15880
▁家境	-15881
▁开销	-15882
▁微波	-15883
▁湿疹	-15884
▁舟山	-15885
▁详解	-15886
▁还价	-15887
▁炕	-15888
▁业界	-15889
▁仅次	-15890
▁出题	-15891
▁薯条	-15892
▁调音	-15893
▁靴子	-15894
▁黑卡	-15895
▁擂	-15896
▁四肢	-15897
▁情结	-15898
▁时常	-15899
▁纷纷	-15900
▁通宝	-15901
▁蔡依林	-15902
▁三包	-15903
▁九宫	-15904
▁凄惨	-15905
▁围棋	-15906
▁复检	-15907
▁补钙	-15908
▁望远镜	-15909
吹灯	-15910
▁五音	-15911
▁延续	-15912
▁异国	-15913
▁推车	-15914
▁灯笼	-15915
▁麻袋	-15916
▁殊	-15917
▁显瘦	-15918
▁祛斑	-15919
▁ez	-15920
▁二流	-15921
▁多亏	-15922
▁梅毒	-15923
▁万宝路	-15924
▁鬼吹灯	-15925
▁12345	-15926
而不	-15927
ess	-15928
▁认命	-15929
▁逃脱	-15930
丽莎	-15931
▁憨憨	-15932
▁石英	-15933
▁飞哥	-15934
93	-15935
BO	-15936
▁意料	-15937
▁焊接	-15938
▁经销	-15939
▁装死	-15940
▁西医	-15941
▁525	-15942
ick	-15943
▁勋鹿	-15944
▁化验	-15945
▁原油	-15946
▁sta	-15947
▁zu	-15948
▁仁兄	-15949
▁佳佳	-15950
▁八宝	-15951
▁哈密	-15952
▁拒收	-15953
▁梦境	-15954
▁怠	-15955
gle	-15956
▁将要	-15957
▁白日	-15958
▁补给	-15959
▁触手	-15960
▁匠	-15961
▁WW	-15962
▁cy	-15963
▁乖巧	-15964
▁天机	-15965
▁查出	-15966
▁爱惜	-15967
▁电锯	-15968
▁秋秋	-15969
▁箭头	-15970
▁野人	-15971
▁间谍	-15972
▁瀑	-15973
▁褐	-15974
▁制图	-15975
▁加多	-15976
▁星河	-15977
▁晋城	-15978
▁莫拉	-15979
▁赣榆	-15980
▁拴	-15981
▁乌拉	-15982
▁别笑	-15983
▁大卫	-15984
▁开光	-15985
▁成活	-15986
▁先行	-15987
▁抓狂	-15988
▁护甲	-15989
▁张无忌	-15990
▁4300	-15991
▁孜	-15992
▁琵	-15993
有余	-15994
▁主办	-15995
▁传话	-15996
▁小贝	-15997
▁徒手	-15998
▁河大	-15999
▁虚弱	-16000
▁天下无敌	-16001
▁佰	-16002
▁噎	-16003
▁光影	-16004
▁唠叨	-16005
▁惊奇	-16006
▁摔跤	-16007
▁新兰	-16008
▁无量	-16009
▁满天	-16010
▁牙医	-16011
▁订票	-16012
▁鬼才	-16013
▁绮	-16014
▁六岁	-16015
▁外包	-16016
▁比尔	-16017
▁齐鲁	-16018
▁乐高	-16019
▁书吧	-16020
▁压轴	-16021
▁喷水	-16022
▁影驰	-16023
▁立案	-16024
▁舔舔	-16025
▁艺体	-16026
▁龙骑	-16027
▁302	-16028
▁BIOS	-16029
▁韬	-16030
▁刀塔	-16031
▁城北	-16032
▁女娲	-16033
▁柬埔	-16034
▁金城	-16035
▁食谱	-16036
▁鱼雷	-16037
▁龙马	-16038
▁6700	-16039
▁千秋	-16040
▁呕吐	-16041
▁天仙	-16042
▁端正	-16043
▁逆风	-16044
▁霸刀	-16045
▁柬埔寨	-16046
▁信赖	-16047
▁倒追	-16048
▁哈佛	-16049
▁工体	-16050
▁散发	-16051
▁水中	-16052
▁短板	-16053
▁花椒	-16054
▁萨拉	-16055
▁3400	-16056
▁6300	-16057
▁不知所措	-16058
▁晗	-16059
里克	-16060
▁串门	-16061
▁亲吻	-16062
▁人偶	-16063
▁拭目	-16064
▁蓬莱	-16065
▁黄钻	-16066
▁LED	-16067
▁俾	-16068
▁毙	-16069
▁乌镇	-16070
▁嗨森	-16071
▁白纸	-16072
▁空运	-16073
▁胃病	-16074
▁门市	-16075
▁仅次于	-16076
▁屑	-16077
▁hg	-16078
▁互补	-16079
▁信念	-16080
▁哈维	-16081
▁城镇	-16082
▁如雪	-16083
▁海大	-16084
▁白夜	-16085
▁简章	-16086
▁精辟	-16087
▁糖葫芦	-16088
▁拭目以待	-16089
▁中控	-16090
▁全年	-16091
▁每张	-16092
▁膈应	-16093
▁防火	-16094
▁tb	-16095
▁上联	-16096
▁佳木	-16097
▁刚需	-16098
▁小飞	-16099
▁tvb	-16100
▁丰收	-16101
▁公车	-16102
▁四核	-16103
▁天门	-16104
▁愈合	-16105
▁篱笆	-16106
▁老街	-16107
▁试驾	-16108
▁sc	-16109
▁三笠	-16110
▁喜悦	-16111
▁多元	-16112
▁好话	-16113
▁巢湖	-16114
▁方特	-16115
▁汽水	-16116
▁靓女	-16117
▁王力宏	-16118
▁唾	-16119
▁专项	-16120
▁亚麻	-16121
▁射程	-16122
▁映山	-16123
▁肩高	-16124
▁近照	-16125
▁锤石	-16126
▁面霜	-16127
▁408	-16128
▁nex	-16129
VE	-16130
▁拢	-16131
▁氨	-16132
▁苛	-16133
舅子	-16134
▁人中	-16135
▁作怪	-16136
▁剃刀	-16137
▁汇率	-16138
▁番号	-16139
▁维奇	-16140
▁end	-16141
▁kindle	-16142
63	-16143
▁兖	-16144
香糖	-16145
▁gk	-16146
▁中日	-16147
▁分担	-16148
▁摇摆	-16149
▁精工	-16150
▁澈	-16151
▁MG	-16152
▁mu	-16153
▁保管	-16154
▁冰龙	-16155
▁口琴	-16156
▁喂奶	-16157
▁失调	-16158
▁弹出	-16159
▁柴油	-16160
▁127	-16161
▁298	-16162
▁遥遥无期	-16163
▁UP	-16164
▁gr	-16165
▁憧憬	-16166
▁摇头	-16167
▁苏大	-16168
▁试题	-16169
▁轻薄	-16170
▁鬼神	-16171
▁伸出	-16172
▁双标	-16173
▁昨夜	-16174
▁白脸	-16175
▁耳熟	-16176
▁采纳	-16177
▁门诊	-16178
▁高架	-16179
▁黄铜	-16180
▁房屋	-16181
▁透镜	-16182
▁郫县	-16183
相识	-16184
▁力挺	-16185
▁原话	-16186
▁吉鲁	-16187
▁弹琴	-16188
▁捂脸	-16189
▁新增	-16190
▁福音	-16191
▁荷包	-16192
▁零钱	-16193
▁口香糖	-16194
▁三高	-16195
▁全图	-16196
▁求知	-16197
▁网点	-16198
▁质保	-16199
▁迪奥	-16200
▁夏洛特	-16201
▁rm	-16202
▁妖娆	-16203
▁清零	-16204
▁雪女	-16205
▁黑执	-16206
情愿	-16207
▁回路	-16208
▁推进	-16209
▁玩命	-16210
▁立志	-16211
▁嘅	-16212
▁fu	-16213
▁克莱	-16214
▁水母	-16215
▁映山红	-16216
▁flag	-16217
▁禧	-16218
▁舱	-16219
▁养鸡	-16220
▁后退	-16221
▁外科	-16222
▁淋淋	-16223
▁炸毛	-16224
▁蛾子	-16225
▁首播	-16226
▁122	-16227
▁脐	-16228
▁师生	-16229
▁忻州	-16230
▁戒酒	-16231
▁西施	-16232
▁马超	-16233
▁黑客	-16234
▁卟	-16235
▁农夫	-16236
▁报案	-16237
▁招式	-16238
▁田螺	-16239
▁精简	-16240
▁运用	-16241
▁阿米	-16242
▁佣金	-16243
▁平底	-16244
▁海拔	-16245
▁海马	-16246
▁种菜	-16247
▁财神	-16248
▁csgo	-16249
加索	-16250
▁加长	-16251
▁检讨	-16252
▁测绘	-16253
▁造化	-16254
▁青涩	-16255
▁cba	-16256
▁ddr	-16257
▁prpr	-16258
▁代入	-16259
▁尔等	-16260
▁换钱	-16261
▁放养	-16262
▁斯巴	-16263
▁斯文	-16264
▁称霸	-16265
book	-16266
▁闰	-16267
▁借书	-16268
▁原料	-16269
▁善于	-16270
▁宙斯	-16271
▁掏出	-16272
▁lumia	-16273
格里	-16274
▁六花	-16275
▁宜春	-16276
▁封建	-16277
▁牙龈	-16278
▁着凉	-16279
▁草地	-16280
▁赖床	-16281
▁金马	-16282
▁DVD	-16283
▁妒	-16284
▁喜庆	-16285
▁尼姑	-16286
▁巡逻	-16287
▁散件	-16288
▁日落	-16289
▁秩序	-16290
▁足坛	-16291
▁2900	-16292
69	-16293
▁睢	-16294
ats	-16295
柏然	-16296
花开	-16297
▁到头	-16298
▁派对	-16299
▁港币	-16300
▁神曲	-16301
▁集邮	-16302
▁214	-16303
▁gpu	-16304
▁3100	-16305
▁襦	-16306
▁临沭	-16307
▁咸宁	-16308
▁抗压	-16309
▁缺货	-16310
▁井柏然	-16311
乐祸	-16312
▁In	-16313
▁te	-16314
▁不详	-16315
▁修正	-16316
▁幸灾	-16317
▁梯子	-16318
▁江宁	-16319
▁苏南	-16320
▁血族	-16321
▁跑着	-16322
▁幸灾乐祸	-16323
▁分院	-16324
▁定点	-16325
▁敏捷	-16326
▁皮子	-16327
▁运转	-16328
▁134	-16329
▁佳木斯	-16330
▁圣地	-16331
▁挚爱	-16332
▁木屑	-16333
▁校企	-16334
▁纺织	-16335
▁贫民	-16336
▁金沙	-16337
▁三科	-16338
▁使徒	-16339
▁入耳	-16340
▁外教	-16341
▁睡姿	-16342
▁翻天	-16343
▁这时	-16344
▁野蛮	-16345
▁黑执事	-16346
▁SN	-16347
▁优美	-16348
▁军官	-16349
▁小声	-16350
▁正气	-16351
▁翻页	-16352
▁行列	-16353
ifa	-16354
▁CR	-16355
▁偏方	-16356
▁后援	-16357
▁国税	-16358
▁大熊	-16359
▁妨碍	-16360
▁相聚	-16361
▁规范	-16362
▁亢	-16363
▁喵哥	-16364
▁攀枝	-16365
▁来生	-16366
▁负重	-16367
▁榕	-16368
▁乳液	-16369
▁凯凯	-16370
▁实测	-16371
▁寂静	-16372
▁点头	-16373
▁精确	-16374
▁薪水	-16375
▁认输	-16376
▁over	-16377
▁擀	-16378
▁半点	-16379
▁屏保	-16380
▁新旧	-16381
▁中学生	-16382
ig	-16383
▁床垫	-16384
▁底蕴	-16385
▁琴女	-16386
▁破军	-16387
▁耳根	-16388
▁谢娜	-16389
▁贴切	-16390
▁雨后	-16391
▁塘沽	-16392
▁怀恋	-16393
▁门牙	-16394
▁光照	-16395
▁围攻	-16396
▁局面	-16397
▁搬迁	-16398
▁民大	-16399
▁江阴	-16400
▁费力	-16401
▁轩逸	-16402
▁逃离	-16403
▁ttl	-16404
▁攀枝花	-16405
▁荐	-16406
莱士	-16407
▁出众	-16408
▁星战	-16409
▁油钱	-16410
▁璐璐	-16411
▁红军	-16412
▁npc	-16413
▁春暖花开	-16414
▁变胖	-16415
▁喷泉	-16416
▁小草	-16417
▁曙光	-16418
▁水桶	-16419
▁离线	-16420
▁已知	-16421
▁生根	-16422
▁fc	-16423
▁交费	-16424
▁凯旋	-16425
▁天安	-16426
▁成教	-16427
▁粉碎	-16428
▁草坪	-16429
▁郑秀	-16430
▁步步高	-16431
▁柯震	-16432
▁牵引	-16433
▁独占	-16434
▁NPC	-16435
水长	-16436
▁抢走	-16437
▁收分	-16438
▁灭霸	-16439
▁焦点	-16440
▁犬舍	-16441
▁顺畅	-16442
▁234	-16443
▁嗅	-16444
▁债务	-16445
▁前轮	-16446
▁受苦	-16447
▁喝奶	-16448
▁堂堂	-16449
▁宏碁	-16450
▁我方	-16451
▁手提	-16452
▁投稿	-16453
▁玩弄	-16454
▁监理	-16455
▁臣妾	-16456
▁冰岛	-16457
▁塔罗	-16458
▁撸串	-16459
▁本山	-16460
▁瓜皮	-16461
▁古诗	-16462
▁月影	-16463
▁朱雀	-16464
▁火神	-16465
▁药品	-16466
▁旦	-16467
▁机体	-16468
▁海淀	-16469
▁真武	-16470
▁秃头	-16471
▁迷宫	-16472
▁8500	-16473
▁涟	-16474
▁蟒	-16475
▁两三	-16476
▁作风	-16477
▁太湖	-16478
▁小威	-16479
▁惊醒	-16480
▁漏电	-16481
▁紧紧	-16482
▁订车	-16483
est	-16484
▁修身	-16485
▁可动	-16486
▁圣杯	-16487
▁天文	-16488
▁实施	-16489
▁斑点	-16490
▁水都	-16491
▁艾米	-16492
▁骨科	-16493
▁下药	-16494
▁倾听	-16495
▁排列	-16496
▁揍他	-16497
▁炎症	-16498
▁真品	-16499
▁罗技	-16500
▁脓	-16501
顺风	-16502
▁刮风	-16503
▁断货	-16504
▁温江	-16505
▁甩锅	-16506
▁饭量	-16507
布斯	-16508
▁举例	-16509
▁信封	-16510
▁兜风	-16511
▁叛徒	-16512
▁崭新	-16513
▁文风	-16514
▁无人	-16515
▁牙盘	-16516
▁被毁	-16517
▁隐瞒	-16518
▁马鞍山	-16519
ip	-16520
▁绊	-16521
▁干巴	-16522
▁晚班	-16523
▁长跑	-16524
▁骨气	-16525
▁高傲	-16526
▁鲶	-16527
▁ui	-16528
▁九零	-16529
▁富翁	-16530
▁灵宝	-16531
▁王冠	-16532
▁羞辱	-16533
▁试吃	-16534
▁鬼父	-16535
▁yo	-16536
▁宜兴	-16537
▁杉杉	-16538
▁蒙蒙	-16539
▁身陷	-16540
▁黛玉	-16541
▁一路顺风	-16542
▁分家	-16543
▁命名	-16544
▁引力	-16545
▁征兵	-16546
▁评级	-16547
VO	-16548
▁XP	-16549
▁dw	-16550
▁偏高	-16551
▁前程	-16552
▁方程	-16553
▁腹部	-16554
▁董事	-16555
▁lv	-16556
▁丑丑	-16557
▁光剑	-16558
▁沙滩	-16559
▁河马	-16560
▁番禺	-16561
▁百草	-16562
▁西城	-16563
▁面谈	-16564
32	-16565
▁烩	-16566
后感	-16567
▁仙侠	-16568
▁促进	-16569
▁做多	-16570
▁天府	-16571
▁失联	-16572
▁奶秀	-16573
▁救人	-16574
▁鸟儿	-16575
▁华莱士	-16576
▁加重	-16577
▁填空	-16578
▁并列	-16579
▁枯萎	-16580
▁正道	-16581
▁瞎话	-16582
▁秒钟	-16583
▁柯震东	-16584
▁萤火虫	-16585
▁肮	-16586
张胆	-16587
▁弹弓	-16588
▁慰问	-16589
▁简体	-16590
▁苏打	-16591
▁转告	-16592
▁1995	-16593
▁明目张胆	-16594
▁光阴	-16595
▁客源	-16596
▁死于	-16597
▁神魔	-16598
▁原矿	-16599
▁头衔	-16600
▁拉克	-16601
▁杨颖	-16602
▁痞子	-16603
▁这般	-16604
▁预警	-16605
▁高炮	-16606
▁三好	-16607
▁丑八	-16608
▁压床	-16609
▁可得	-16610
▁心率	-16611
▁批准	-16612
▁括号	-16613
▁淡水	-16614
▁眼红	-16615
▁转化	-16616
▁辟邪	-16617
▁冕	-16618
▁CT	-16619
▁倒流	-16620
▁内功	-16621
▁奇遇	-16622
▁更衣	-16623
▁遭罪	-16624
▁金钟	-16625
▁一起吧	-16626
▁1499	-16627
▁la	-16628
▁人际	-16629
▁助产	-16630
▁混养	-16631
▁风华	-16632
▁躯	-16633
▁小船	-16634
▁月神	-16635
▁hel	-16636
▁吞噬	-16637
▁学士	-16638
▁烧死	-16639
▁爱慕	-16640
▁银座	-16641
▁高频	-16642
▁136	-16643
▁五黄	-16644
▁审批	-16645
▁校庆	-16646
▁漫天	-16647
▁爱车	-16648
▁种花	-16649
▁马里	-16650
▁薏	-16651
不理	-16652
▁使者	-16653
▁厨子	-16654
▁忍痛	-16655
▁扯蛋	-16656
▁拆掉	-16657
▁拉莫	-16658
▁村姑	-16659
▁督促	-16660
▁蒙迪	-16661
▁重返	-16662
▁嫦	-16663
▁八折	-16664
▁取款	-16665
▁打伞	-16666
▁白首	-16667
▁败类	-16668
▁通州	-16669
▁酵素	-16670
▁鉴于	-16671
▁隔天	-16672
oney	-16673
▁208	-16674
▁一朵花	-16675
▁1998	-16676
▁HK	-16677
▁习题	-16678
▁前传	-16679
▁华侨	-16680
▁增生	-16681
▁派送	-16682
▁福喜	-16683
▁虎头	-16684
▁鬼步	-16685
▁十一点	-16686
尼亚	-16687
▁五彩	-16688
▁冥王	-16689
▁排练	-16690
▁搭伙	-16691
▁碟刹	-16692
▁黄渤	-16693
▁丑八怪	-16694
▁浣	-16695
▁万千	-16696
▁三清	-16697
▁丑男	-16698
▁小兰	-16699
▁接住	-16700
▁站位	-16701
▁违反	-16702
▁say	-16703
▁DA	-16704
▁固始	-16705
▁车险	-16706
▁采集	-16707
▁筑	-16708
▁余量	-16709
▁吊带	-16710
▁孤身	-16711
▁安然	-16712
▁抑制	-16713
▁拿掉	-16714
▁混搭	-16715
▁穆里尼奥	-16716
▁自知之明	-16717
▁撮	-16718
900	-16719
▁僵硬	-16720
▁冰火	-16721
▁孙女	-16722
▁山羊	-16723
▁满满	-16724
▁潜质	-16725
▁黑轴	-16726
▁碱	-16727
▁三爷	-16728
▁制定	-16729
▁耐力	-16730
▁Win	-16731
▁dog	-16732
夜叉	-16733
达内	-16734
▁悉尼	-16735
▁空号	-16736
▁邪神	-16737
▁金光	-16738
▁糜	-16739
而论	-16740
▁夫子	-16741
▁宽度	-16742
▁抠门	-16743
▁电大	-16744
▁谱子	-16745
▁退步	-16746
▁BA	-16747
▁基于	-16748
▁政委	-16749
▁睡意	-16750
之力	-16751
▁CG	-16752
▁三门	-16753
▁中部	-16754
▁似曾	-16755
▁每秒	-16756
▁气纯	-16757
▁看望	-16758
▁精髓	-16759
▁超车	-16760
▁踏踏	-16761
▁防伪	-16762
▁303	-16763
▁仪器	-16764
▁包涵	-16765
▁私戳	-16766
▁葵花	-16767
▁躲避	-16768
▁蜻	-16769
▁上机	-16770
▁体温	-16771
▁有特	-16772
▁蕊	-16773
ust	-16774
▁半截	-16775
▁回眸	-16776
▁安丘	-16777
▁暴龙	-16778
▁灌篮	-16779
▁金秀	-16780
▁风俗	-16781
▁258	-16782
▁328	-16783
▁456	-16784
▁588	-16785
▁齐达内	-16786
▁婵	-16787
▁藻	-16788
▁Id	-16789
▁中北	-16790
▁休眠	-16791
▁地藏	-16792
▁搬去	-16793
▁斗篷	-16794
▁磨练	-16795
▁高薪	-16796
▁三门峡	-16797
▁1000	-16798
▁touch	-16799
▁bigbang	-16800
▁主卧	-16801
▁宝山	-16802
▁实质	-16803
▁清蒸	-16804
▁立绘	-16805
▁紧凑	-16806
▁舒畅	-16807
▁董香	-16808
▁金针	-16809
▁饭碗	-16810
▁络	-16811
▁动摇	-16812
▁半岛	-16813
▁小帅	-16814
▁熟肉	-16815
▁组建	-16816
▁褪色	-16817
▁酒馆	-16818
▁驴友	-16819
▁加特林	-16820
▁犬夜叉	-16821
▁入党	-16822
▁哇噻	-16823
▁土鸡	-16824
▁大涨	-16825
▁夹克	-16826
▁德赫	-16827
▁手刹	-16828
▁祖师	-16829
▁阿里巴巴	-16830
▁泣	-16831
不到	-16832
▁OL	-16833
▁余地	-16834
▁出征	-16835
▁吃奶	-16836
▁喝汤	-16837
▁普京	-16838
▁浴衣	-16839
▁爱思	-16840
▁着迷	-16841
▁脉动	-16842
▁黑衣	-16843
▁501	-16844
▁4600	-16845
▁king	-16846
▁下行	-16847
▁奔波	-16848
▁宁德	-16849
▁对打	-16850
▁意想	-16851
▁成衣	-16852
▁改正	-16853
▁涉外	-16854
▁肺炎	-16855
▁落泪	-16856
▁鳗鱼	-16857
▁拉莫斯	-16858
▁意想不到	-16859
▁褙	-16860
▁坟头	-16861
▁才子	-16862
▁晴雪	-16863
▁棉被	-16864
▁牵扯	-16865
▁红蓝	-16866
▁纯爱	-16867
▁胜算	-16868
▁首富	-16869
▁格里芬	-16870
▁枢	-16871
▁钠	-16872
▁多头	-16873
▁放飞	-16874
▁板栗	-16875
▁401	-16876
▁三叶草	-16877
▁猕猴桃	-16878
▁淇	-16879
▁蛀	-16880
▁PE	-16881
▁发声	-16882
▁家暴	-16883
▁异能	-16884
▁波霸	-16885
▁竞猜	-16886
ha	-16887
泽马	-16888
▁VX	-16889
▁指头	-16890
▁绝食	-16891
▁话痨	-16892
▁香格里	-16893
37	-16894
▁腼	-16895
▁zy	-16896
▁关卡	-16897
▁左拐	-16898
▁张扬	-16899
▁断腿	-16900
▁爱妃	-16901
▁餐馆	-16902
▁648	-16903
▁QUQ	-16904
▁交点	-16905
▁含蓄	-16906
▁呦呦	-16907
▁圣经	-16908
▁城墙	-16909
▁得奖	-16910
▁必看	-16911
▁拖欠	-16912
▁救援	-16913
▁歌神	-16914
▁电镀	-16915
▁问卷	-16916
▁雕像	-16917
日天	-16918
▁掌门	-16919
▁躲过	-16920
▁麻疹	-16921
▁狒	-16922
box	-16923
eed	-16924
▁芈月	-16925
▁衣架	-16926
▁马犬	-16927
▁丞	-16928
▁下跌	-16929
▁副业	-16930
▁嫦娥	-16931
▁托福	-16932
▁白字	-16933
▁cx	-16934
▁fs	-16935
▁印章	-16936
▁合计	-16937
▁宣城	-16938
▁屈臣	-16939
▁撕掉	-16940
▁朝代	-16941
▁盘口	-16942
▁神速	-16943
▁羊奶	-16944
▁酷冷	-16945
▁ems	-16946
▁紫罗兰	-16947
▁阿玛尼	-16948
▁CH	-16949
▁凉鞋	-16950
▁卓越	-16951
▁射雕	-16952
▁暴晒	-16953
▁清净	-16954
▁笨笨	-16955
▁耐操	-16956
▁造福	-16957
41	-16958
▁PA	-16959
▁倒卖	-16960
▁直发	-16961
▁詹密	-16962
▁轮廓	-16963
▁魔笛	-16964
▁real	-16965
ere	-16966
▁动听	-16967
▁姓张	-16968
▁宝安	-16969
▁树洞	-16970
▁桃园	-16971
▁牵强	-16972
▁面议	-16973
▁diao	-16974
ug	-16975
▁鲲	-16976
▁三菱	-16977
▁乔恩	-16978
▁心甘	-16979
▁戏剧	-16980
▁省级	-16981
▁达尔	-16982
▁长者	-16983
unes	-16984
▁不要紧	-16985
▁屈臣氏	-16986
▁本泽马	-16987
▁心甘情愿	-16988
心如	-16989
▁灵性	-16990
▁特定	-16991
▁犬瘟	-16992
▁空心	-16993
▁竹马	-16994
▁西苑	-16995
▁到头来	-16996
▁影音	-16997
▁暂住	-16998
▁禁用	-16999
▁肥料	-17000
▁金砖	-17001
▁132	-17002
▁可爱多	-17003
▁喏	-17004
▁aw	-17005
▁寄托	-17006
▁接力	-17007
▁清白	-17008
▁游乐	-17009
▁西蒙	-17010
▁配装	-17011
▁黄蓉	-17012
▁xiao	-17013
▁AR	-17014
▁国航	-17015
▁孔子	-17016
▁炸药	-17017
▁褙子	-17018
▁车价	-17019
▁钞票	-17020
无不言	-17021
▁知无不言	-17022
▁吉尔	-17023
▁蒙迪欧	-17024
▁香格里拉	-17025
▁眩	-17026
▁窃	-17027
▁中肯	-17028
▁八大	-17029
▁大哭	-17030
▁妆娘	-17031
▁底价	-17032
▁摇号	-17033
▁益阳	-17034
▁肮脏	-17035
▁费曼	-17036
▁锐雯	-17037
▁FC	-17038
▁可耐	-17039
▁堵住	-17040
▁定级	-17041
▁消音	-17042
▁盛典	-17043
▁纯阳	-17044
▁蹦极	-17045
▁选中	-17046
▁门店	-17047
▁黄土	-17048
▁1997	-17049
▁单亲	-17050
▁压迫	-17051
▁变压	-17052
▁右脚	-17053
▁奖项	-17054
▁扫雷	-17055
▁绽放	-17056
▁莫雷	-17057
▁落魄	-17058
▁请到	-17059
▁超重	-17060
▁轻狂	-17061
▁传家宝	-17062
八九	-17063
▁出镜	-17064
▁大跌	-17065
▁摊子	-17066
▁珠江	-17067
▁盾牌	-17068
▁腼腆	-17069
▁起伏	-17070
▁殴	-17071
▁焉	-17072
▁上级	-17073
▁人行	-17074
▁伴随	-17075
▁奶瓶	-17076
▁弹唱	-17077
▁稳赢	-17078
▁铜钱	-17079
▁对不住	-17080
▁1996	-17081
▁侥	-17082
▁恬	-17083
▁蹂	-17084
ent	-17085
▁情调	-17086
▁月牙	-17087
▁桑切	-17088
▁死皮	-17089
▁苏菲	-17090
▁阿布	-17091
▁嘉年华	-17092
▁下岗	-17093
▁买入	-17094
▁乱搞	-17095
▁双打	-17096
▁幸会	-17097
▁捣鼓	-17098
▁揭露	-17099
▁感叹号	-17100
▁妩	-17101
▁ll	-17102
▁副攻	-17103
▁如初	-17104
▁带球	-17105
▁总管	-17106
▁轻度	-17107
52	-17108
▁唷	-17109
▁拓印	-17110
▁杨梅	-17111
▁汤姆	-17112
▁焦急	-17113
▁肿瘤	-17114
▁萨博	-17115
▁魔幻	-17116
▁雅典娜	-17117
▁ff	-17118
▁冰糖	-17119
▁动感	-17120
▁琵琶	-17121
▁视镜	-17122
▁黄鹤	-17123
善感	-17124
▁定妆	-17125
▁抚州	-17126
▁破财	-17127
▁鸡爪	-17128
SS	-17129
▁暹	-17130
▁牟	-17131
▁微妙	-17132
▁舒坦	-17133
▁连击	-17134
▁高山	-17135
▁蕴	-17136
▁维尔	-17137
▁比鲁斯	-17138
价廉	-17139
▁一览	-17140
▁古老	-17141
▁地形	-17142
▁多愁	-17143
▁大扎	-17144
▁水肿	-17145
▁沉睡	-17146
▁深蹲	-17147
▁美梦	-17148
▁诺克	-17149
▁赌场	-17150
▁集结	-17151
▁桑切斯	-17152
▁物美价廉	-17153
▁傀	-17154
▁医务	-17155
▁四平	-17156
▁夏侯	-17157
▁砂锅	-17158
▁肤质	-17159
▁贝克	-17160
▁走读	-17161
▁长远	-17162
▁闲人	-17163
▁un	-17164
▁化石	-17165
▁地雷	-17166
▁旁观	-17167
▁车行	-17168
▁小铺	-17169
▁法兰	-17170
玩乐	-17171
▁定州	-17172
▁当代	-17173
▁推介	-17174
▁暴君	-17175
▁盔甲	-17176
▁站点	-17177
▁繁星	-17178
▁线稿	-17179
▁ntr	-17180
▁吃喝玩乐	-17181
▁_	-17182
▁寸头	-17183
▁植发	-17184
▁清河	-17185
▁多愁善感	-17186
▁一贯	-17187
▁乐坛	-17188
▁五四	-17189
▁月儿	-17190
▁本色	-17191
▁演艺	-17192
▁老化	-17193
▁血汗	-17194
▁2.	-17195
▁XL	-17196
▁住宅	-17197
▁兰兰	-17198
▁呆子	-17199
▁开元	-17200
▁挖矿	-17201
▁瑶瑶	-17202
▁虐菜	-17203
▁蹂躏	-17204
水长流	-17205
▁细水长流	-17206
▁五仁	-17207
▁刺绣	-17208
▁往届	-17209
▁横幅	-17210
▁王妃	-17211
▁瞎眼	-17212
▁蜻蜓	-17213
▁488	-17214
▁刘翔	-17215
▁北欧	-17216
▁升职	-17217
▁好戏	-17218
▁时段	-17219
▁水杯	-17220
▁自强	-17221
▁道教	-17222
▁雪儿	-17223
▁Mac	-17224
▁cosplay	-17225
▁军娘	-17226
▁可贵	-17227
▁柔软	-17228
▁油皮	-17229
▁虹桥	-17230
▁风范	-17231
▁925	-17232
▁5200	-17233
▁取经	-17234
▁咔嚓	-17235
▁泡澡	-17236
▁被褥	-17237
▁趁机	-17238
▁敖	-17239
▁黯	-17240
▁写手	-17241
▁太上	-17242
▁定型	-17243
▁富人	-17244
▁注水	-17245
▁消遣	-17246
▁禹州	-17247
▁算计	-17248
▁罕见	-17249
▁脚底	-17250
▁试管	-17251
▁阎王	-17252
▁后会无期	-17253
▁下跪	-17254
▁书架	-17255
▁威风	-17256
▁进价	-17257
▁追逐	-17258
▁高深	-17259
▁豚	-17260
▁如实	-17261
▁旅程	-17262
▁早些	-17263
▁极差	-17264
▁牧羊	-17265
▁静夜	-17266
世界	-17267
奈儿	-17268
▁下床	-17269
▁割肉	-17270
▁器械	-17271
▁密保	-17272
▁开卖	-17273
▁来世	-17274
▁郭德	-17275
▁BGM	-17276
▁槟	-17277
▁筐	-17278
▁匕首	-17279
▁学园	-17280
▁平邑	-17281
▁流传	-17282
▁相公	-17283
▁题型	-17284
▁鬼鬼	-17285
▁东关	-17286
▁侥幸	-17287
▁内定	-17288
▁初衷	-17289
▁单价	-17290
▁往返	-17291
▁法医	-17292
▁sao	-17293
▁别离	-17294
▁噗噗	-17295
▁强强	-17296
▁法宝	-17297
▁运球	-17298
▁银杏	-17299
▁糗	-17300
▁冰冷	-17301
▁冰冻	-17302
▁可喜	-17303
▁宝玉	-17304
▁愧疚	-17305
▁插曲	-17306
▁浦发	-17307
▁花店	-17308
▁迁就	-17309
▁通透	-17310
▁202	-17311
▁看得起	-17312
▁三金	-17313
▁割腕	-17314
▁升高	-17315
▁忠犬	-17316
▁滋润	-17317
▁落花	-17318
▁警车	-17319
▁蹦迪	-17320
▁限购	-17321
▁备案	-17322
▁奢求	-17323
▁小林	-17324
▁引体	-17325
▁杨家	-17326
▁启示	-17327
▁天国	-17328
▁灵儿	-17329
▁蒙蔽	-17330
▁西乡	-17331
▁连号	-17332
▁通告	-17333
▁too	-17334
▁TP	-17335
▁弹性	-17336
▁押韵	-17337
▁煮熟	-17338
▁跳出	-17339
▁疆	-17340
注定	-17341
▁vr	-17342
▁几米	-17343
▁打气	-17344
▁捧花	-17345
▁收敛	-17346
▁文秘	-17347
▁方圆	-17348
▁烘焙	-17349
▁辫子	-17350
▁隐约	-17351
▁首胜	-17352
▁Orz	-17353
▁嗮	-17354
天宇	-17355
▁人族	-17356
▁凉粉	-17357
▁外网	-17358
▁纪委	-17359
▁缝纫	-17360
▁自律	-17361
▁雀斑	-17362
▁sir	-17363
▁惑	-17364
哈尔	-17365
▁vv	-17366
▁上坡	-17367
▁打拼	-17368
▁百倍	-17369
▁419	-17370
▁535	-17371
▁锄	-17372
▁阆	-17373
▁黝	-17374
接再	-17375
▁偏执	-17376
▁下不来	-17377
▁再接再	-17378
▁利器	-17379
▁只愿	-17380
▁悬浮	-17381
▁海带	-17382
▁老鸟	-17383
▁茶杯	-17384
▁选购	-17385
▁郑恺	-17386
▁似曾相识	-17387
▁践	-17388
▁佳节	-17389
▁前缀	-17390
▁占据	-17391
▁短线	-17392
▁飞轮	-17393
▁001	-17394
▁一剑	-17395
▁先走	-17396
▁张宇	-17397
▁抵达	-17398
▁玉石	-17399
▁神功	-17400
▁红叶	-17401
▁萧山	-17402
▁衢州	-17403
▁誓言	-17404
▁镜面	-17405
▁长颈	-17406
▁PRO	-17407
▁2008	-17408
弗森	-17409
▁一格	-17410
▁亚当	-17411
▁他来	-17412
▁句号	-17413
▁国货	-17414
▁肥婆	-17415
▁见习	-17416
▁飞船	-17417
▁高尚	-17418
▁1988	-17419
▁DX	-17420
▁刀妹	-17421
▁太软	-17422
▁奉劝	-17423
▁对照	-17424
▁欧亚	-17425
▁牛角	-17426
▁超能	-17427
▁锦江	-17428
▁Air	-17429
▁NOT	-17430
▁兜兜	-17431
▁原宿	-17432
▁小兔	-17433
▁检察	-17434
▁电音	-17435
▁禁忌	-17436
▁225	-17437
▁娅	-17438
是处	-17439
▁VR	-17440
▁内力	-17441
▁暂定	-17442
▁祭奠	-17443
▁new	-17444
▁一无是处	-17445
▁拂	-17446
▁主城	-17447
▁书写	-17448
▁平和	-17449
▁排序	-17450
▁排版	-17451
▁沙坪	-17452
▁英镑	-17453
▁言辞	-17454
▁贫血	-17455
▁还珠	-17456
▁黄岛	-17457
▁克星	-17458
▁出走	-17459
▁外向	-17460
▁大势	-17461
▁女侠	-17462
▁对视	-17463
▁王府	-17464
▁碗莲	-17465
▁记仇	-17466
▁面码	-17467
▁铁三角	-17468
▁狍	-17469
▁出世	-17470
▁吸取	-17471
▁抢镜	-17472
▁拜访	-17473
▁池塘	-17474
▁灌水	-17475
▁维多	-17476
▁询价	-17477
▁领带	-17478
▁马卡龙	-17479
▁侨	-17480
▁京津	-17481
▁化疗	-17482
▁单行	-17483
▁天赐	-17484
▁恐慌	-17485
▁肥猪	-17486
▁资助	-17487
▁门头	-17488
▁366	-17489
▁郭德纲	-17490
▁哺	-17491
▁谬	-17492
▁贰	-17493
▁下沙	-17494
▁下注	-17495
▁书签	-17496
▁五花	-17497
▁巴蒂	-17498
▁忙内	-17499
▁歌姬	-17500
▁瀑布	-17501
▁佛珠	-17502
▁儿科	-17503
▁回避	-17504
▁回馈	-17505
▁山沟	-17506
▁构思	-17507
▁蹲点	-17508
▁透支	-17509
▁wan	-17510
▁沼	-17511
▁减轻	-17512
▁大枪	-17513
▁科室	-17514
▁签售	-17515
▁算卦	-17516
▁螺母	-17517
▁韩寒	-17518
完没	-17519
▁各项	-17520
▁嘴边	-17521
▁挽救	-17522
▁来气	-17523
▁童装	-17524
▁路况	-17525
▁马油	-17526
完没了	-17527
▁香奈儿	-17528
▁没完没了	-17529
▁庵	-17530
▁但求	-17531
▁甲鱼	-17532
▁说不	-17533
▁逝者	-17534
▁面馆	-17535
▁待会儿	-17536
▁说不过去	-17537
▁踪	-17538
▁云浮	-17539
▁切开	-17540
▁化解	-17541
▁奇想	-17542
▁忍耐	-17543
▁轻工	-17544
▁遮瑕	-17545
▁锅盖	-17546
澎湃	-17547
▁FB	-17548
▁六六	-17549
▁册子	-17550
▁减去	-17551
▁救赎	-17552
▁流出	-17553
▁糖尿	-17554
▁索泰	-17555
▁雷诺	-17556
▁黑店	-17557
▁天花板	-17558
▁fifa	-17559
▁璧	-17560
▁SR	-17561
▁听闻	-17562
▁周迅	-17563
▁张良	-17564
▁撞车	-17565
▁淡化	-17566
▁碧玉	-17567
▁黑手	-17568
▁龟粮	-17569
▁wy	-17570
▁冷暖	-17571
▁幻城	-17572
▁掉渣	-17573
▁胆量	-17574
▁贴身	-17575
▁迎宾	-17576
▁阿门	-17577
▁合得来	-17578
91	-17579
▁噱	-17580
▁洱	-17581
姑娘	-17582
美瑞	-17583
▁ag	-17584
▁ur	-17585
▁太君	-17586
▁拼搏	-17587
▁按揭	-17588
▁树枝	-17589
▁精细	-17590
▁美亚	-17591
44	-17592
▁磷	-17593
▁太急	-17594
▁奇异	-17595
▁时而	-17596
▁表盘	-17597
▁嫡	-17598
▁ro	-17599
▁佳作	-17600
▁停播	-17601
▁反攻	-17602
▁搜集	-17603
▁末世	-17604
▁污蔑	-17605
▁简易	-17606
▁超速	-17607
▁重名	-17608
▁owo	-17609
▁克罗地亚	-17610
天乐	-17611
IFA	-17612
▁内侧	-17613
▁凯子	-17614
▁利率	-17615
▁发话	-17616
▁呼噜	-17617
▁宫崎	-17618
▁李健	-17619
▁热恋	-17620
▁pia	-17621
▁单恋	-17622
▁哥伦	-17623
▁泥煤	-17624
▁琼斯	-17625
▁芹菜	-17626
▁返还	-17627
▁遗迹	-17628
▁针织	-17629
▁OS	-17630
▁刹那	-17631
▁官服	-17632
▁智孝	-17633
▁曼巴	-17634
▁红狗	-17635
▁闪婚	-17636
▁雪景	-17637
▁崂	-17638
▁TC	-17639
▁三段	-17640
▁仙王	-17641
▁内内	-17642
▁向着	-17643
▁孕期	-17644
▁易购	-17645
▁背部	-17646
▁转折	-17647
▁辈分	-17648
▁面食	-17649
▁425	-17650
▁nike	-17651
▁凰	-17652
▁宸	-17653
▁洼	-17654
▁诠	-17655
▁ot	-17656
▁乌鸡	-17657
▁斗牛	-17658
▁甘蔗	-17659
▁虚岁	-17660
▁cod	-17661
▁德赫亚	-17662
▁两码	-17663
▁依依	-17664
▁六合	-17665
▁咕咕	-17666
▁如梦	-17667
▁打狗	-17668
▁诺伊	-17669
▁败给	-17670
▁顺德	-17671
▁凯美瑞	-17672
着点	-17673
▁ES	-17674
▁单体	-17675
▁学府	-17676
▁怪异	-17677
▁纯纯	-17678
▁耳鸣	-17679
▁自愈	-17680
▁通报	-17681
▁雨水	-17682
▁风采	-17683
▁1280	-17684
▁命中注定	-17685
▁裆	-17686
▁醇	-17687
▁地暖	-17688
▁暹罗	-17689
▁纳什	-17690
▁龙岩	-17691
▁1994	-17692
▁FIFA	-17693
▁卅	-17694
不顾	-17695
▁导入	-17696
▁瘦肉	-17697
▁草鱼	-17698
▁西卡	-17699
▁豹纹	-17700
▁车次	-17701
▁风口	-17702
ose	-17703
▁出乎	-17704
▁欧版	-17705
▁牧尘	-17706
▁老一	-17707
▁老林	-17708
▁车神	-17709
▁转生	-17710
▁闪迪	-17711
▁You	-17712
▁but	-17713
ho	-17714
▁滕	-17715
▁中韩	-17716
▁兖州	-17717
▁妆容	-17718
▁妮妮	-17719
▁抢先	-17720
▁树脂	-17721
▁深大	-17722
▁鱼头	-17723
▁ST	-17724
▁伤透	-17725
▁冷场	-17726
▁壮大	-17727
▁小面	-17728
▁幼教	-17729
▁收发	-17730
▁木板	-17731
▁架势	-17732
▁桑塔	-17733
▁西关	-17734
▁西药	-17735
▁要塞	-17736
▁跨界	-17737
▁迟钝	-17738
▁透彻	-17739
▁304	-17740
▁利索	-17741
▁卡瓦	-17742
▁发麻	-17743
▁嗜好	-17744
▁字辈	-17745
▁少儿	-17746
▁巡航	-17747
▁总局	-17748
▁死角	-17749
▁粉笔	-17750
▁阴险	-17751
油器	-17752
▁储蓄	-17753
▁匿名	-17754
▁吃惊	-17755
▁同期	-17756
▁团委	-17757
▁战机	-17758
▁早死	-17759
▁燕麦	-17760
▁速写	-17761
▁670	-17762
76	-17763
▁戊	-17764
▁Li	-17765
▁余罪	-17766
▁小巧	-17767
▁文档	-17768
▁无形	-17769
▁科尔	-17770
▁肉松	-17771
▁臭美	-17772
▁陀螺	-17773
▁两码事	-17774
▁淅	-17775
ife	-17776
▁反串	-17777
▁品位	-17778
▁女足	-17779
▁床铺	-17780
▁悬赏	-17781
▁挂牌	-17782
▁李世	-17783
▁狂风	-17784
▁理念	-17785
▁级数	-17786
▁足彩	-17787
▁gif	-17788
▁psv	-17789
▁天长地	-17790
色列	-17791
▁千寻	-17792
▁华西	-17793
▁血型	-17794
▁货号	-17795
▁边度	-17796
▁重阳	-17797
▁风声	-17798
▁风度	-17799
▁以色列	-17800
▁化油器	-17801
▁天长地久	-17802
▁停课	-17803
▁噱头	-17804
▁对白	-17805
▁尾灯	-17806
▁年末	-17807
▁民航	-17808
▁短毛	-17809
▁耐磨	-17810
▁订阅	-17811
▁box	-17812
ka	-17813
山人	-17814
▁冰山	-17815
▁大英	-17816
▁家居	-17817
▁小野	-17818
▁打铁	-17819
▁托尼	-17820
▁旷课	-17821
▁春游	-17822
▁服用	-17823
▁稿子	-17824
▁阳泉	-17825
▁饰演	-17826
▁154	-17827
▁305	-17828
▁急眼	-17829
▁潇潇	-17830
▁灰姑娘	-17831
▁二七	-17832
▁减掉	-17833
▁出牌	-17834
▁千层	-17835
▁呼和	-17836
▁夜华	-17837
▁天梭	-17838
▁庙会	-17839
▁提督	-17840
▁源于	-17841
▁点滴	-17842
▁酒后	-17843
▁阻碍	-17844
▁gx	-17845
▁世俗	-17846
▁喷火	-17847
▁多级	-17848
▁夜空	-17849
▁宗师	-17850
▁小妖	-17851
▁断流	-17852
▁理所	-17853
▁飞度	-17854
▁齐齐	-17855
▁理所当然	-17856
▁以至	-17857
▁千山	-17858
▁器官	-17859
▁延时	-17860
▁弥勒	-17861
▁影评	-17862
▁清澈	-17863
▁谈论	-17864
▁车模	-17865
▁不才	-17866
▁保鲜	-17867
▁天成	-17868
▁脱落	-17869
▁舍弃	-17870
▁逆行	-17871
▁NOTE	-17872
▁勘	-17873
▁一朝	-17874
▁丑陋	-17875
▁先手	-17876
▁加倍	-17877
▁受益	-17878
▁皮蛋	-17879
▁翟	-17880
▁只顾	-17881
▁头绪	-17882
▁巨魔	-17883
▁愤青	-17884
▁杯具	-17885
▁班服	-17886
▁私心	-17887
▁稻草	-17888
▁388	-17889
▁玛利亚	-17890
▁呼和浩特	-17891
维亚	-17892
致富	-17893
观音	-17894
▁密室	-17895
▁建材	-17896
▁打入	-17897
▁敞开	-17898
▁朝天	-17899
▁白糖	-17900
▁竿子	-17901
▁key	-17902
▁寺庙	-17903
▁小德	-17904
▁彩超	-17905
▁影楼	-17906
▁批判	-17907
▁撒尿	-17908
▁泉水	-17909
▁爆冷	-17910
▁Do	-17911
▁初六	-17912
▁医师	-17913
▁学问	-17914
▁宿命	-17915
▁斧子	-17916
▁萍乡	-17917
▁虹口	-17918
▁沙坪坝	-17919
▁龙卷风	-17920
▁齐齐哈尔	-17921
▁廷	-17922
转眼	-17923
▁中和	-17924
▁代办	-17925
▁南康	-17926
▁女用	-17927
▁工贸	-17928
▁血缘	-17929
▁贝拉	-17930
▁麻友	-17931
▁铁观音	-17932
宥嘉	-17933
tel	-17934
▁微距	-17935
▁撞墙	-17936
▁毒蛇	-17937
▁点菜	-17938
▁线程	-17939
▁配种	-17940
▁饱和	-17941
▁黑鱼	-17942
▁储备	-17943
▁内伤	-17944
▁拉丝	-17945
▁水银	-17946
▁窗台	-17947
▁鲁班	-17948
山人海	-17949
▁九寨沟	-17950
▁罗伊斯	-17951
▁人山人海	-17952
▁再接再厉	-17953
▁冒菜	-17954
▁大工	-17955
▁幻化	-17956
▁怕人	-17957
▁注会	-17958
▁照应	-17959
▁着落	-17960
▁绣球	-17961
▁缺氧	-17962
▁良人	-17963
▁风向	-17964
▁鲜艳	-17965
▁5800	-17966
▁刊	-17967
▁初八	-17968
▁妩媚	-17969
▁小蓝	-17970
▁思修	-17971
▁拔刀	-17972
▁烟草	-17973
▁麻利	-17974
心动	-17975
▁sv	-17976
▁冰块	-17977
▁厚实	-17978
▁姚贝	-17979
▁娄底	-17980
▁子龙	-17981
▁布冯	-17982
▁束缚	-17983
▁超标	-17984
▁过山	-17985
▁弑	-17986
▁禄	-17987
▁荀	-17988
▁山路	-17989
▁文言	-17990
▁毁掉	-17991
▁草丛	-17992
▁装傻	-17993
▁婧	-17994
▁抡	-17995
▁FA	-17996
▁入魔	-17997
▁出师	-17998
▁无头	-17999
▁江边	-18000
▁深山	-18001
▁脚架	-18002
▁133	-18003
▁古天乐	-18004
▁1020	-18005
▁gl	-18006
▁丁香	-18007
▁作废	-18008
▁侦查	-18009
▁桑拿	-18010
▁牛叉	-18011
▁诠释	-18012
▁245	-18013
▁325	-18014
▁擎天柱	-18015
▁撂	-18016
▁傀儡	-18017
▁劣势	-18018
▁周天	-18019
▁怪癖	-18020
▁标本	-18021
▁湿地	-18022
▁破鞋	-18023
▁203	-18024
OC	-18025
▁偷渡	-18026
▁办完	-18027
▁卫冕	-18028
▁后院	-18029
▁周黑	-18030
▁命苦	-18031
▁带鱼	-18032
▁得劲	-18033
▁未曾	-18034
▁案件	-18035
▁白手	-18036
▁岑	-18037
▁溅	-18038
司命	-18039
相许	-18040
▁初五	-18041
▁孙杨	-18042
▁福尔	-18043
▁老贼	-18044
▁路桥	-18045
▁高德	-18046
▁WOW	-18047
▁男子汉	-18048
▁硬生生	-18049
▁以身相许	-18050
▁昼	-18051
▁伊人	-18052
▁双生	-18053
▁更正	-18054
▁赛尔	-18055
▁锅炉	-18056
▁驴肉	-18057
▁590	-18058
▁天狗	-18059
▁太祖	-18060
▁川藏	-18061
▁提神	-18062
▁缺钙	-18063
▁近代	-18064
▁魂链	-18065
▁一转眼	-18066
▁涯	-18067
▁哆嗦	-18068
▁尖尖	-18069
▁港台	-18070
▁皮筋	-18071
▁苗条	-18072
▁yi	-18073
▁城关	-18074
▁少侠	-18075
▁江夏	-18076
▁狠人	-18077
▁脱俗	-18078
▁黝黑	-18079
▁猫头鹰	-18080
▁平庸	-18081
▁披着	-18082
▁犯困	-18083
▁糟心	-18084
▁阆中	-18085
LL	-18086
▁毯	-18087
▁莘	-18088
得上	-18089
▁上篮	-18090
▁争吵	-18091
▁屋顶	-18092
▁庐山	-18093
▁方正	-18094
▁泡茶	-18095
▁在校生	-18096
▁桑塔纳	-18097
▁过山车	-18098
▁龌	-18099
仁杰	-18100
▁hk	-18101
▁司徒	-18102
▁大胜	-18103
▁大葱	-18104
▁天行	-18105
▁局限	-18106
▁崂山	-18107
▁故宫	-18108
▁救助	-18109
▁敢于	-18110
▁盖住	-18111
▁跨越	-18112
▁天安门	-18113
而知	-18114
▁创世	-18115
▁向下	-18116
▁木质	-18117
▁毒液	-18118
▁油价	-18119
▁署名	-18120
▁自残	-18121
▁郑秀晶	-18122
▁阿迪达斯	-18123
▁衷	-18124
▁OR	-18125
▁君临	-18126
▁大大	-18127
▁早年	-18128
▁犹如	-18129
▁狩猎	-18130
▁用料	-18131
▁纱布	-18132
▁胖妞	-18133
▁做客	-18134
▁叉叉	-18135
▁围城	-18136
▁围绕	-18137
▁大乔	-18138
▁如玉	-18139
▁干扰	-18140
▁抬杠	-18141
▁谈话	-18142
▁进藏	-18143
▁通天	-18144
▁邹城	-18145
▁饼子	-18146
▁魄力	-18147
▁絮	-18148
▁光大	-18149
▁图形	-18150
▁尼克	-18151
▁比武	-18152
▁皮质	-18153
▁衔接	-18154
▁葫芦岛	-18155
▁1990	-18156
▁嬷	-18157
▁SF	-18158
▁SL	-18159
▁中西	-18160
▁刘明	-18161
▁弗利	-18162
▁柏林	-18163
▁道姑	-18164
71	-18165
▁二叔	-18166
▁开卷	-18167
▁罢工	-18168
▁节能	-18169
▁药房	-18170
▁西服	-18171
▁魏晨	-18172
▁486	-18173
oogle	-18174
▁抓人	-18175
▁法定	-18176
▁演习	-18177
▁狒狒	-18178
▁林宥嘉	-18179
▁子孙	-18180
▁昌平	-18181
▁深藏	-18182
▁节省	-18183
▁周黑鸭	-18184
▁三宝	-18185
▁依稀	-18186
▁加州	-18187
▁大牙	-18188
▁布莱	-18189
▁散光	-18190
▁海涛	-18191
▁点燃	-18192
▁虎斑	-18193
▁轻功	-18194
▁狄仁杰	-18195
▁壬	-18196
立得	-18197
eep	-18198
▁AE	-18199
▁剧毒	-18200
▁支线	-18201
▁暴跌	-18202
▁肖像	-18203
▁141	-18204
▁少司命	-18205
▁姊	-18206
▁中亚	-18207
▁二档	-18208
▁停赛	-18209
▁太一	-18210
▁山药	-18211
▁应急	-18212
▁放歌	-18213
▁敦煌	-18214
▁绿萝	-18215
▁ub	-18216
▁xz	-18217
▁万亿	-18218
▁二锅	-18219
▁但凡	-18220
▁刁民	-18221
▁初七	-18222
▁彪悍	-18223
▁昔日	-18224
▁福清	-18225
▁纤体	-18226
▁茜茜	-18227
▁还债	-18228
▁con	-18229
tal	-18230
▁KG	-18231
▁埋线	-18232
▁天晴	-18233
▁宝骏	-18234
▁年限	-18235
▁法力	-18236
▁燃气	-18237
▁纷飞	-18238
▁飞扬	-18239
▁hz	-18240
▁土建	-18241
▁天书	-18242
▁容貌	-18243
▁小城	-18244
▁川师	-18245
▁弟兄	-18246
▁恩怨	-18247
▁水仙	-18248
▁炒面	-18249
▁爆满	-18250
▁资阳	-18251
▁赵日天	-18252
▁谍	-18253
白白	-18254
▁劳斯	-18255
▁大院	-18256
▁巨轮	-18257
▁巴里	-18258
▁流光	-18259
▁鬼王	-18260
▁挎	-18261
▁矩	-18262
▁外快	-18263
▁盘古	-18264
▁芦苇	-18265
▁财团	-18266
▁闲钱	-18267
53	-18268
▁传言	-18269
▁出海	-18270
▁快走	-18271
▁李敏	-18272
▁满脸	-18273
▁紫霞	-18274
▁难懂	-18275
▁518	-18276
▁万幸	-18277
▁何事	-18278
▁就近	-18279
▁水培	-18280
▁治理	-18281
▁疫情	-18282
▁翻牌	-18283
▁而又	-18284
▁落户	-18285
▁飚	-18286
▁北面	-18287
▁合川	-18288
▁徒儿	-18289
▁晚霞	-18290
▁气管	-18291
▁爽爽	-18292
▁碰巧	-18293
▁自治	-18294
▁采摘	-18295
▁陌路	-18296
▁8700	-18297
aha	-18298
▁偏差	-18299
▁巴卫	-18300
▁巴适	-18301
▁死者	-18302
▁洪水	-18303
▁狡辩	-18304
▁375	-18305
七杂	-18306
▁南极	-18307
▁城西	-18308
▁推开	-18309
▁法网	-18310
▁涅盘	-18311
▁灵犀	-18312
▁跳闸	-18313
▁鹤壁	-18314
▁杂七杂	-18315
▁小楼	-18316
▁斯基	-18317
▁星魂	-18318
▁普陀	-18319
▁裂缝	-18320
▁黄杨	-18321
▁404	-18322
▁杂七杂八	-18323
▁rx	-18324
▁xd	-18325
▁商铺	-18326
▁洛杉	-18327
▁老城	-18328
▁退赛	-18329
▁韧带	-18330
▁433	-18331
▁5300	-18332
IA	-18333
▁媲	-18334
▁哥特	-18335
▁接线	-18336
▁矿大	-18337
▁许可	-18338
▁豆角	-18339
▁二锅头	-18340
ss	-18341
自达	-18342
▁下棋	-18343
▁冷落	-18344
▁刺眼	-18345
▁坟墓	-18346
▁年货	-18347
▁换片	-18348
▁暗金	-18349
▁欢欢	-18350
▁此事	-18351
▁灵气	-18352
▁线性	-18353
▁蓝蓝	-18354
▁钦州	-18355
▁1.5	-18356
▁淀	-18357
▁缤	-18358
多拉	-18359
▁一臂	-18360
▁哺乳	-18361
▁字帖	-18362
▁家庄	-18363
▁416	-18364
▁洛杉矶	-18365
▁诺伊尔	-18366
▁一臂之力	-18367
▁艇	-18368
▁初四	-18369
▁喜糖	-18370
▁提早	-18371
▁猛烈	-18372
▁甜食	-18373
▁蜀国	-18374
▁谈判	-18375
▁豆沙	-18376
▁陆毅	-18377
▁8400	-18378
▁涪	-18379
▁钝	-18380
▁不便	-18381
▁偃师	-18382
▁公馆	-18383
▁天荒	-18384
▁巴尔	-18385
▁广泛	-18386
▁斗鸡	-18387
▁特惠	-18388
▁蚂蚱	-18389
▁长乐	-18390
▁321	-18391
▁PVE	-18392
▁CE	-18393
▁修真	-18394
▁兰陵	-18395
▁巴塞	-18396
▁布欧	-18397
▁盖聂	-18398
▁腊八	-18399
▁腰酸	-18400
▁金手	-18401
▁钦定	-18402
▁鸟叔	-18403
▁mar	-18404
▁麦克风	-18405
▁暨	-18406
▁孤立	-18407
▁懒惰	-18408
▁此地	-18409
▁画眉	-18410
▁神通	-18411
▁秀气	-18412
▁贝利	-18413
▁软弱	-18414
▁钢印	-18415
ye	-18416
▁中英	-18417
▁乐子	-18418
▁低俗	-18419
▁倩女	-18420
▁外置	-18421
▁弱队	-18422
▁总站	-18423
▁泪痕	-18424
▁裂开	-18425
▁齐胸	-18426
▁137	-18427
▁235	-18428
▁马自达	-18429
▁上药	-18430
▁乡亲	-18431
▁搬走	-18432
▁数不	-18433
▁无暇	-18434
▁理化	-18435
▁米国	-18436
▁拍立得	-18437
▁荨	-18438
▁七武	-18439
▁上官	-18440
▁亲情	-18441
▁伤痕	-18442
▁傻笑	-18443
▁台面	-18444
▁大张	-18445
▁往来	-18446
▁新颖	-18447
▁无罪	-18448
▁果粉	-18449
▁用人	-18450
▁檬	-18451
▁ob	-18452
▁划船	-18453
▁排水	-18454
▁施肥	-18455
▁渐层	-18456
▁牙科	-18457
▁狼狈	-18458
▁百岁	-18459
▁苍山	-18460
▁蚊香	-18461
▁辑	-18462
▁兴起	-18463
▁兽人	-18464
▁大金	-18465
▁手气	-18466
▁杂音	-18467
▁白起	-18468
▁追梦	-18469
▁218	-18470
▁袍	-18471
冬雨	-18472
得住	-18473
▁中关	-18474
▁卫龙	-18475
▁摧残	-18476
▁无私	-18477
▁袭击	-18478
▁警官	-18479
▁七武海	-18480
▁荼	-18481
▁蔫	-18482
▁丹麦	-18483
▁奇特	-18484
▁奥拉	-18485
▁榆次	-18486
▁死鱼	-18487
▁男声	-18488
▁传感	-18489
▁加深	-18490
▁卖票	-18491
▁圆润	-18492
▁墙头	-18493
▁救护	-18494
▁武藏	-18495
▁长颈鹿	-18496
▁茗	-18497
无完	-18498
▁出书	-18499
▁君威	-18500
▁墓地	-18501
▁盛大	-18502
▁糖醋	-18503
▁终将	-18504
▁罗湖	-18505
▁让座	-18506
▁金陵	-18507
▁饭圈	-18508
死不活	-18509
▁悠着点	-18510
▁橱	-18511
▁弱势	-18512
▁扶贫	-18513
▁日志	-18514
▁河源	-18515
▁白沙	-18516
▁胖虎	-18517
▁自虐	-18518
▁蒙面	-18519
▁谢天	-18520
▁陌上	-18521
▁吴磊	-18522
▁心法	-18523
▁效益	-18524
▁映像	-18525
▁曼谷	-18526
▁泡椒	-18527
▁海信	-18528
▁漆黑	-18529
▁爹爹	-18530
▁姚贝娜	-18531
▁芊	-18532
并论	-18533
▁LV	-18534
▁三思	-18535
▁刷票	-18536
▁哀家	-18537
▁大石	-18538
▁好歌	-18539
▁媲美	-18540
▁小班	-18541
▁昆虫	-18542
▁棉衣	-18543
▁水灵	-18544
▁相提	-18545
▁诗句	-18546
▁高地	-18547
▁146	-18548
▁diss	-18549
▁相提并论	-18550
不湿	-18551
▁NT	-18552
▁hp	-18553
▁任丘	-18554
▁军工	-18555
▁十中	-18556
▁反胃	-18557
▁小羊	-18558
▁流苏	-18559
▁点差	-18560
▁穿透	-18561
▁莱芜	-18562
▁警方	-18563
▁课间	-18564
▁跨服	-18565
▁靓号	-18566
▁nan	-18567
▁靳	-18568
斯顿	-18569
▁两侧	-18570
▁团圆	-18571
▁崽崽	-18572
▁手雷	-18573
▁无为	-18574
▁海事	-18575
▁竞选	-18576
▁脱掉	-18577
▁斟	-18578
不足	-18579
▁泡芙	-18580
▁续命	-18581
▁职称	-18582
very	-18583
▁374	-18584
▁不能自	-18585
▁两三千	-18586
▁三维	-18587
▁交心	-18588
▁作曲	-18589
▁开锁	-18590
▁得救	-18591
▁涛哥	-18592
▁用车	-18593
▁祖先	-18594
▁课文	-18595
▁飞过	-18596
▁周冬雨	-18597
FF	-18598
▁上期	-18599
▁争夺	-18600
▁快穿	-18601
▁揭晓	-18602
▁春梦	-18603
▁老母	-18604
▁触控	-18605
▁订做	-18606
▁远射	-18607
▁追踪	-18608
▁隐蔽	-18609
▁预热	-18610
▁君子兰	-18611
▁黄鹤楼	-18612
意料	-18613
▁专车	-18614
▁四面	-18615
▁大额	-18616
▁转职	-18617
▁远去	-18618
▁亚克力	-18619
▁jojo	-18620
日方	-18621
▁摩尔	-18622
▁海选	-18623
▁西街	-18624
▁门牌	-18625
有可无	-18626
▁275	-18627
▁sam	-18628
▁中关村	-18629
▁可有可无	-18630
US	-18631
▁惟	-18632
▁ZZ	-18633
▁qq	-18634
▁不痒	-18635
▁写生	-18636
▁小九	-18637
▁庄家	-18638
▁智者	-18639
▁格雷	-18640
▁磕碜	-18641
▁联邦	-18642
▁脸颊	-18643
▁花梨	-18644
▁老一辈	-18645
得起	-18646
▁GM	-18647
▁多层	-18648
▁清香	-18649
▁缺席	-18650
▁钢管	-18651
▁饭盒	-18652
▁马戏	-18653
日方长	-18654
▁gal	-18655
▁以至于	-18656
▁来日方长	-18657
▁office	-18658
▁枇	-18659
▁亚运	-18660
▁利群	-18661
▁南非	-18662
▁叉子	-18663
▁大惊	-18664
▁芥末	-18665
▁角质	-18666
▁615	-18667
▁cctv	-18668
▁濑	-18669
▁缀	-18670
▁革	-18671
▁前夫	-18672
▁大板	-18673
▁巴神	-18674
▁戏子	-18675
▁找茬	-18676
▁槟榔	-18677
▁樱木	-18678
▁黑户	-18679
▁暂住证	-18680
▁艾弗森	-18681
▁怦	-18682
▁桨	-18683
▁原形	-18684
▁后羿	-18685
▁抵挡	-18686
▁狂战	-18687
▁盼望	-18688
▁缓慢	-18689
▁被砸	-18690
▁野狗	-18691
▁鬼节	-18692
▁鸟巢	-18693
▁147	-18694
▁515	-18695
▁钾	-18696
萨斯	-18697
▁PG	-18698
▁wc	-18699
▁丹青	-18700
▁小字	-18701
▁总监	-18702
▁皱眉	-18703
▁简陋	-18704
▁蛮王	-18705
▁返现	-18706
▁非凡	-18707
▁牡丹江	-18708
▁瘟	-18709
▁代售	-18710
▁宏光	-18711
▁张继	-18712
▁曲靖	-18713
▁野采	-18714
▁唬	-18715
▁借条	-18716
▁奇缘	-18717
▁御魂	-18718
▁扑通	-18719
▁昂克	-18720
▁核实	-18721
▁泳衣	-18722
▁深思	-18723
▁港囧	-18724
▁玩伴	-18725
▁苦海	-18726
▁谐音	-18727
▁有特色	-18728
圆圆	-18729
▁BT	-18730
▁bp	-18731
▁下部	-18732
▁拨打	-18733
▁拿回	-18734
▁灭火	-18735
▁锻造	-18736
▁犟	-18737
四千	-18738
尔克	-18739
▁净水	-18740
▁昌邑	-18741
▁残暴	-18742
▁确保	-18743
▁雪莉	-18744
▁store	-18745
▁穗	-18746
▁gv	-18747
▁全军	-18748
▁发根	-18749
▁听错	-18750
▁绿水	-18751
▁辱骂	-18752
▁海底捞	-18753
▁soga	-18754
▁万世	-18755
▁亡灵	-18756
▁传到	-18757
▁倒退	-18758
▁冷血	-18759
▁叫唤	-18760
▁坎特	-18761
▁探险	-18762
▁洱海	-18763
▁花草	-18764
▁计生	-18765
▁领奖	-18766
▁PPT	-18767
▁who	-18768
▁德克士	-18769
▁4100	-18770
▁GO	-18771
▁五环	-18772
▁京都	-18773
▁亲子	-18774
▁公仔	-18775
▁半球	-18776
▁华府	-18777
▁吊死	-18778
▁后座	-18779
▁地虎	-18780
▁填完	-18781
▁弯曲	-18782
▁烫伤	-18783
▁pad	-18784
▁高圆圆	-18785
IC	-18786
▁二小	-18787
▁导购	-18788
▁待定	-18789
▁永川	-18790
▁爆珠	-18791
▁空城	-18792
▁起哄	-18793
▁7850	-18794
▁惶	-18795
德勒	-18796
▁IE	-18797
▁二宝	-18798
▁唱片	-18799
▁埋汰	-18800
▁强硬	-18801
▁比拼	-18802
▁用尽	-18803
▁电阻	-18804
▁石子	-18805
▁跑腿	-18806
▁马天宇	-18807
▁溧	-18808
▁肢	-18809
▁蒿	-18810
小怪	-18811
▁两元	-18812
▁奥义	-18813
▁宝物	-18814
▁男篮	-18815
▁袋鼠	-18816
▁林心如	-18817
▁大惊小怪	-18818
▁晏	-18819
▁贿	-18820
纳哥	-18821
▁偏心	-18822
▁华仔	-18823
▁友军	-18824
▁城乡	-18825
▁嬷嬷	-18826
▁紫薯	-18827
▁读取	-18828
▁野猫	-18829
▁高效	-18830
▁4790	-18831
▁嬴	-18832
▁灬	-18833
内特	-18834
▁书生	-18835
▁刻骨	-18836
▁方方	-18837
▁昙花	-18838
▁机遇	-18839
▁结账	-18840
▁编码	-18841
▁考拉	-18842
▁饭团	-18843
▁传感器	-18844
▁滥	-18845
为人	-18846
▁割爱	-18847
▁改良	-18848
▁蒂亚	-18849
▁虞姬	-18850
▁赛罗	-18851
▁金鸡	-18852
▁403	-18853
▁Eason	-18854
▁颐	-18855
汉姆	-18856
▁ri	-18857
▁主见	-18858
▁代号	-18859
▁叽叽	-18860
▁尼禄	-18861
▁战法	-18862
▁皱纹	-18863
▁醉酒	-18864
▁陆战	-18865
▁仙桃	-18866
▁大都	-18867
▁宋朝	-18868
▁红唇	-18869
▁量子	-18870
▁韵味	-18871
ne	-18872
事论	-18873
子怡	-18874
现眼	-18875
▁ka	-18876
▁名言	-18877
▁木子	-18878
▁河图	-18879
▁结痂	-18880
▁警报	-18881
▁鲶鱼	-18882
事论事	-18883
▁摩纳哥	-18884
▁1299	-18885
▁丢人现眼	-18886
▁就事论事	-18887
▁明明白白	-18888
YS	-18889
▁吝	-18890
▁位移	-18891
▁卑鄙	-18892
▁宾利	-18893
▁拌饭	-18894
▁直通	-18895
▁面向	-18896
zy	-18897
▁煜	-18898
▁蕉	-18899
▁三日	-18900
▁剑客	-18901
▁名宿	-18902
▁哗哗	-18903
▁嚷嚷	-18904
▁打碎	-18905
▁撒旦	-18906
▁村庄	-18907
▁游行	-18908
▁腐蚀	-18909
▁营口	-18910
▁贴合	-18911
▁零度	-18912
▁ROM	-18913
▁sun	-18914
▁1234	-18915
▁7700	-18916
▁任选	-18917
▁内脏	-18918
▁即墨	-18919
▁水位	-18920
▁瑞克	-18921
▁用法	-18922
▁的士	-18923
▁站立	-18924
▁连拍	-18925
▁雨衣	-18926
▁KD	-18927
▁假日	-18928
▁床底	-18929
▁沙井	-18930
▁菲菲	-18931
▁蔡徐	-18932
▁贵港	-18933
▁琐	-18934
▁bj	-18935
▁兑现	-18936
▁出芽	-18937
▁宅女	-18938
▁宝藏	-18939
▁昨儿	-18940
▁误入	-18941
▁1993	-18942
CM	-18943
kb	-18944
▁炽	-18945
▁兴致	-18946
▁癖好	-18947
▁贫乳	-18948
▁静待	-18949
▁led	-18950
▁txt	-18951
胥引	-18952
600	-18953
▁GL	-18954
▁下乡	-18955
▁中小	-18956
▁信佛	-18957
▁听筒	-18958
▁堪称	-18959
▁抢断	-18960
▁撞衫	-18961
▁枇杷	-18962
▁桶珠	-18963
▁永州	-18964
▁汕尾	-18965
▁萨斯	-18966
▁华胥引	-18967
▁MK	-18968
▁加密	-18969
▁呼吁	-18970
▁每期	-18971
▁浓妆	-18972
▁积蓄	-18973
▁哥伦比亚	-18974
▁咲	-18975
▁婕	-18976
▁悟饭	-18977
atch	-18978
▁191	-18979
▁nfc	-18980
▁万科	-18981
▁代谢	-18982
▁佳丽	-18983
▁倾国	-18984
▁刻字	-18985
▁叹息	-18986
▁头型	-18987
▁奏凯	-18988
▁局势	-18989
▁民众	-18990
▁电饭煲	-18991
▁HR	-18992
▁上钩	-18993
▁制冷	-18994
▁孙俪	-18995
▁话剧	-18996
▁道家	-18997
▁鸡胸	-18998
▁鼓捣	-18999
▁金手指	-19000
CC	-19001
▁dk	-19002
▁名不	-19003
▁圣光	-19004
▁太古	-19005
▁庞大	-19006
▁摧毁	-19007
▁新余	-19008
▁自如	-19009
▁街边	-19010
▁议论	-19011
▁记载	-19012
▁赌球	-19013
▁跑动	-19014
▁大胖	-19015
▁失控	-19016
▁打窝	-19017
▁棉裤	-19018
▁正大	-19019
▁毛驴	-19020
▁益达	-19021
▁红毯	-19022
▁绿叶	-19023
▁编曲	-19024
▁脑门	-19025
▁遮盖	-19026
书豪	-19027
▁出力	-19028
▁复原	-19029
▁插口	-19030
▁湖大	-19031
▁灯火	-19032
▁精炼	-19033
▁诸君	-19034
▁鱼丸	-19035
▁尿不湿	-19036
▁Wind	-19037
▁胧	-19038
▁AS	-19039
▁吊车	-19040
▁名将	-19041
▁哲理	-19042
▁大路	-19043
▁拓展	-19044
▁灵芝	-19045
▁白水	-19046
▁看守	-19047
▁舒心	-19048
▁黑皮	-19049
▁凯尔特	-19050
▁稳如狗	-19051
▁虑	-19052
▁鸢	-19053
▁三阳	-19054
▁同姓	-19055
▁强人	-19056
▁当红	-19057
▁护法	-19058
▁极乐	-19059
▁棉服	-19060
▁爵爷	-19061
▁老高	-19062
▁赐予	-19063
▁逆水	-19064
▁雪梨	-19065
▁non	-19066
▁ts	-19067
▁东芝	-19068
▁厄齐	-19069
▁发家	-19070
▁喜当	-19071
▁孝敬	-19072
▁泗阳	-19073
▁渝北	-19074
▁特辑	-19075
▁皎	-19076
▁三项	-19077
▁乱码	-19078
▁今朝	-19079
▁公孙	-19080
▁孜然	-19081
▁总价	-19082
▁深色	-19083
▁落差	-19084
▁角球	-19085
▁魂淡	-19086
▁384	-19087
▁宫崎骏	-19088
▁2080	-19089
▁发家致富	-19090
▁舵	-19091
▁JO	-19092
▁一艘	-19093
▁动能	-19094
▁封锁	-19095
▁推动	-19096
▁池州	-19097
▁茫然	-19098
▁赶到	-19099
▁遗产	-19100
▁钻戒	-19101
▁面筋	-19102
▁hao	-19103
▁sim	-19104
▁china	-19105
▁五莲	-19106
▁实木	-19107
▁指引	-19108
▁极点	-19109
▁穷鬼	-19110
▁贝斯	-19111
▁配乐	-19112
▁卢卡库	-19113
▁ky	-19114
▁快钱	-19115
▁柔情	-19116
▁约翰	-19117
▁腐烂	-19118
▁郡主	-19119
▁预选	-19120
▁268	-19121
▁GPS	-19122
▁蔡徐坤	-19123
▁伱	-19124
海角	-19125
▁RE	-19126
▁jy	-19127
▁下台	-19128
▁波澜	-19129
▁痴迷	-19130
▁解码	-19131
▁金立	-19132
▁露营	-19133
▁马车	-19134
▁侧芽	-19135
▁刘涛	-19136
▁唐三	-19137
▁守住	-19138
▁春运	-19139
▁烧香	-19140
▁笑傲	-19141
▁腿部	-19142
▁重逢	-19143
▁厄齐尔	-19144
▁全书	-19145
▁卫浴	-19146
▁周转	-19147
▁居家	-19148
▁心境	-19149
▁掉头	-19150
▁柴犬	-19151
▁洋芋	-19152
▁鸟人	-19153
▁GIF	-19154
▁beats	-19155
ux	-19156
▁gm	-19157
▁三江	-19158
▁小窝	-19159
▁景观	-19160
▁暴富	-19161
▁歌舞	-19162
▁痛哭	-19163
▁闪耀	-19164
▁降落	-19165
▁1520	-19166
▁嵌	-19167
无耻	-19168
▁WT	-19169
▁fl	-19170
▁兵役	-19171
▁剑宗	-19172
▁勒夫	-19173
▁悲惨	-19174
▁手帐	-19175
▁散人	-19176
▁毒经	-19177
▁炸裂	-19178
▁艾滋	-19179
▁谈到	-19180
▁哥斯拉	-19181
▁5173	-19182
39	-19183
74	-19184
不自	-19185
▁PD	-19186
▁一目	-19187
▁小肚	-19188
▁某天	-19189
▁水土	-19190
▁精心	-19191
▁肠炎	-19192
▁龙神	-19193
▁飓	-19194
▁JD	-19195
▁化肥	-19196
▁奇才	-19197
▁扎实	-19198
▁臭臭	-19199
▁进取	-19200
▁韩式	-19201
▁高烧	-19202
▁311	-19203
max	-19204
▁一汽	-19205
▁专线	-19206
▁伊瓜	-19207
▁借来	-19208
▁全运	-19209
▁减半	-19210
▁平遥	-19211
▁摆件	-19212
▁案子	-19213
▁汗水	-19214
▁采取	-19215
▁难求	-19216
▁孰	-19217
▁动员	-19218
▁回过	-19219
▁对接	-19220
▁小梦	-19221
▁师太	-19222
▁折纸	-19223
▁早熟	-19224
▁本溪	-19225
▁歌王	-19226
▁绝招	-19227
▁自修	-19228
▁草药	-19229
▁违心	-19230
▁麦霸	-19231
▁轱	-19232
不小	-19233
奈何	-19234
▁些许	-19235
▁呵护	-19236
▁四种	-19237
▁布拉	-19238
▁护发	-19239
▁换药	-19240
▁插班	-19241
▁瓜瓜	-19242
▁秘方	-19243
▁资讯	-19244
▁跑鞋	-19245
▁阜新	-19246
▁韩庚	-19247
▁TUT	-19248
▁1799	-19249
▁后脑	-19250
▁呐喊	-19251
▁异议	-19252
▁摩登	-19253
▁赶出	-19254
▁镇平	-19255
▁sad	-19256
▁莫斯科	-19257
▁颂	-19258
▁丝带	-19259
▁产后	-19260
▁山泉	-19261
▁扶持	-19262
▁梧州	-19263
▁物资	-19264
▁维尼	-19265
▁蒸发	-19266
▁雾化	-19267
▁风湿	-19268
▁天涯海角	-19269
▁褒	-19270
▁八路	-19271
▁国土	-19272
▁格策	-19273
▁水泵	-19274
▁眉眼	-19275
▁赤壁	-19276
▁越过	-19277
▁跑偏	-19278
OR	-19279
▁秧	-19280
▁窍	-19281
▁主帅	-19282
▁假唱	-19283
▁小便	-19284
▁市委	-19285
▁平分	-19286
▁开走	-19287
▁打火	-19288
▁执教	-19289
▁晋升	-19290
▁犀牛	-19291
▁窝窝	-19292
▁虚化	-19293
▁防具	-19294
▁风尚	-19295
▁Lol	-19296
▁五台	-19297
▁冒烟	-19298
▁列举	-19299
▁刺刀	-19300
▁外界	-19301
▁大主	-19302
▁大卡	-19303
▁恶性	-19304
▁捷克	-19305
▁烧纸	-19306
▁苍白	-19307
▁蛇皮	-19308
▁见红	-19309
▁高空	-19310
▁林书豪	-19311
▁牲	-19312
▁na	-19313
▁万字	-19314
▁图样	-19315
▁拉长	-19316
▁旺盛	-19317
▁班会	-19318
▁足联	-19319
▁迁安	-19320
▁铭文	-19321
▁随从	-19322
▁静养	-19323
▁欢乐颂	-19324
▁1992	-19325
▁蛐	-19326
▁三联	-19327
▁南平	-19328
▁命题	-19329
▁抖动	-19330
▁波罗	-19331
▁螨虫	-19332
▁达摩	-19333
▁196	-19334
▁jjc	-19335
翼翼	-19336
ris	-19337
▁十亿	-19338
▁家装	-19339
▁止步	-19340
▁皮炎	-19341
▁禁欲	-19342
▁重重	-19343
▁阿胶	-19344
▁小心翼翼	-19345
锐宝	-19346
▁变更	-19347
▁大病	-19348
▁悬挂	-19349
▁扭蛋	-19350
▁水花	-19351
▁红娘	-19352
▁送餐	-19353
▁阵地	-19354
▁青色	-19355
▁一统	-19356
▁公民	-19357
▁变声	-19358
▁含泪	-19359
▁尼桑	-19360
▁惊魂	-19361
▁扳手	-19362
▁礼金	-19363
▁速成	-19364
▁风味	-19365
▁龙宫	-19366
▁情不自	-19367
▁大马	-19368
▁机密	-19369
▁白狼	-19370
▁职校	-19371
▁订金	-19372
▁高帮	-19373
▁coco	-19374
▁聆	-19375
▁上将	-19376
▁全称	-19377
▁助威	-19378
▁喊麦	-19379
▁快攻	-19380
▁成考	-19381
▁昭和	-19382
▁森森	-19383
▁派遣	-19384
▁生辰	-19385
▁盘锦	-19386
▁赛拉	-19387
▁龙城	-19388
怪气	-19389
▁仔仔	-19390
▁勾起	-19391
▁号子	-19392
▁念旧	-19393
▁比对	-19394
▁法规	-19395
▁男宝	-19396
▁白茶	-19397
▁眩晕	-19398
▁纸币	-19399
▁财会	-19400
▁赢钱	-19401
▁关晓彤	-19402
▁砚	-19403
▁噗嗤	-19404
▁弗兰	-19405
▁拖累	-19406
▁撤销	-19407
▁月下	-19408
▁生效	-19409
▁眷属	-19410
▁约束	-19411
▁花期	-19412
▁静电	-19413
▁迈锐宝	-19414
▁tc	-19415
▁中行	-19416
▁同袍	-19417
▁宝典	-19418
▁暴涨	-19419
▁温婉	-19420
▁落实	-19421
▁蓝鸟	-19422
▁触碰	-19423
▁车轮	-19424
[...]
